{
  "version": "1.0",
  "truncation": null,
  "padding": null,
  "added_tokens": [
    {
      "id": 0,
      "content": "<unk>",
      "single_word": false,
      "lstrip": false,
      "rstrip": false,
      "normalized": false,
      "special": true
    },
    {
      "id": 1,
      "content": "<cls>",
      "single_word": false,
      "lstrip": false,
      "rstrip": false,
      "normalized": false,
      "special": true
    },
    {
      "id": 2,
      "content": "<sep>",
      "single_word": false,
      "lstrip": false,
      "rstrip": false,
      "normalized": false,
      "special": true
    },
    {
      "id": 3,
      "content": "<pad>",
      "single_word": false,
      "lstrip": false,
      "rstrip": false,
      "normalized": false,
      "special": true
    },
    {
      "id": 4,
      "content": "<mask>",
      "single_word": false,
      "lstrip": false,
      "rstrip": false,
      "normalized": false,
      "special": true
    },
    {
      "id": 5,
      "content": "<|endofstory|>",
      "single_word": false,
      "lstrip": false,
      "rstrip": false,
      "normalized": false,
      "special": true
    }
  ],
  "normalizer": {
    "type": "NFKC"
  },
  "pre_tokenizer": {
    "type": "Metaspace",
    "replacement": "▁",
    "prepend_scheme": "always",
    "split": true
  },
  "post_processor": null,
  "decoder": {
    "type": "Metaspace",
    "replacement": "▁",
    "prepend_scheme": "always",
    "split": true
  },
  "model": {
    "type": "BPE",
    "dropout": null,
    "unk_token": "<unk>",
    "continuing_subword_prefix": null,
    "end_of_word_suffix": null,
    "fuse_unk": false,
    "byte_fallback": false,
    "ignore_merges": false,
    "vocab": {
      "<unk>": 0,
      "<cls>": 1,
      "<sep>": 2,
      "<pad>": 3,
      "<mask>": 4,
      "<|endofstory|>": 5,
      "\n": 6,
      "!": 7,
      "\"": 8,
      "$": 9,
      "%": 10,
      "&": 11,
      "'": 12,
      "(": 13,
      ")": 14,
      "*": 15,
      "+": 16,
      ",": 17,
      "-": 18,
      ".": 19,
      "/": 20,
      "0": 21,
      "1": 22,
      "2": 23,
      "3": 24,
      "4": 25,
      "5": 26,
      "6": 27,
      "7": 28,
      "8": 29,
      "9": 30,
      ":": 31,
      ";": 32,
      "<": 33,
      "=": 34,
      ">": 35,
      "?": 36,
      "A": 37,
      "B": 38,
      "C": 39,
      "D": 40,
      "E": 41,
      "F": 42,
      "G": 43,
      "H": 44,
      "I": 45,
      "J": 46,
      "K": 47,
      "L": 48,
      "M": 49,
      "N": 50,
      "O": 51,
      "P": 52,
      "Q": 53,
      "R": 54,
      "S": 55,
      "T": 56,
      "U": 57,
      "V": 58,
      "W": 59,
      "X": 60,
      "Y": 61,
      "Z": 62,
      "[": 63,
      "]": 64,
      "_": 65,
      "a": 66,
      "b": 67,
      "c": 68,
      "d": 69,
      "e": 70,
      "f": 71,
      "g": 72,
      "h": 73,
      "i": 74,
      "j": 75,
      "k": 76,
      "l": 77,
      "m": 78,
      "n": 79,
      "o": 80,
      "p": 81,
      "q": 82,
      "r": 83,
      "s": 84,
      "t": 85,
      "u": 86,
      "v": 87,
      "w": 88,
      "x": 89,
      "y": 90,
      "z": 91,
      "|": 92,
      "~": 93,
      "¡": 94,
      "¢": 95,
      "¤": 96,
      "¦": 97,
      "¬": 98,
      "°": 99,
      "À": 100,
      "Á": 101,
      "È": 102,
      "É": 103,
      "Ì": 104,
      "Í": 105,
      "Ò": 106,
      "Ó": 107,
      "Ú": 108,
      "à": 109,
      "á": 110,
      "â": 111,
      "ã": 112,
      "è": 113,
      "é": 114,
      "ë": 115,
      "ì": 116,
      "í": 117,
      "ñ": 118,
      "ò": 119,
      "ó": 120,
      "ù": 121,
      "ú": 122,
      "Ń": 123,
      "ń": 124,
      "œ": 125,
      "ǹ": 126,
      "̀": 127,
      "́": 128,
      "̃": 129,
      "Ṣ": 130,
      "ṣ": 131,
      "Ẹ": 132,
      "ẹ": 133,
      "ẽ": 134,
      "Ọ": 135,
      "ọ": 136,
      "‘": 137,
      "€": 138,
      "▁": 139,
      "ọ́": 140,
      "▁n": 141,
      "▁s": 142,
      "an": 143,
      "ẹ̀": 144,
      "▁k": 145,
      "ẹ́": 146,
      "▁l": 147,
      "▁t": 148,
      "▁m": 149,
      "▁r": 150,
      "▁w": 151,
      "gb": 152,
      "▁à": 153,
      "▁p": 154,
      "ọ̀": 155,
      "▁f": 156,
      "áà": 157,
      "▁ń": 158,
      "▁náà": 159,
      "▁b": 160,
      "▁sì": 161,
      "▁ó": 162,
      "ọ́n": 163,
      "▁d": 164,
      "▁ṣ": 165,
      "▁ní": 166,
      "▁kan": 167,
      "▁o": 168,
      "ọn": 169,
      "▁rẹ̀": 170,
      "un": 171,
      "▁tó": 172,
      "ti": 173,
      "▁pé": 174,
      "▁j": 175,
      "▁Ó": 176,
      "ùn": 177,
      "áa": 178,
      "▁a": 179,
      "▁i": 180,
      "nú": 181,
      "▁ṣe": 182,
      "▁máa": 183,
      "▁gb": 184,
      "ún": 185,
      "▁g": 186,
      "▁wọ́n": 187,
      "▁ì": 188,
      "ra": 189,
      "▁lá": 190,
      "▁ọ": 191,
      "▁sí": 192,
      "àn": 193,
      "ìn": 194,
      "▁L": 195,
      "gbà": 196,
      "▁gan": 197,
      "▁ò": 198,
      "-an": 199,
      "▁gan-an": 200,
      "▁tí": 201,
      "▁\"": 202,
      "▁àw": 203,
      "ré": 204,
      "in": 205,
      "▁y": 206,
      "▁láti": 207,
      "▁rí": 208,
      "▁lọ": 209,
      "▁sọ": 210,
      "▁àwọn": 211,
      "rí": 212,
      "▁ni": 213,
      "▁wà": 214,
      "▁ọ̀": 215,
      "▁fẹ́": 216,
      "▁jẹ́": 217,
      "▁wọn": 218,
      "▁fi": 219,
      "▁W": 220,
      "▁ẹ": 221,
      "▁fún": 222,
      "▁ló": 223,
      "▁àti": 224,
      "il": 225,
      "rin": 226,
      "▁Wọ́n": 227,
      "en": 228,
      "àm": 229,
      "wọ́": 230,
      "mọ": 231,
      "▁ti": 232,
      "▁Lil": 233,
      "mọ́": 234,
      "▁dùn": 235,
      "àmá": 236,
      "▁mú": 237,
      "▁Lily": 238,
      "▁T": 239,
      "to": 240,
      "jú": 241,
      "lá": 242,
      "▁lè": 243,
      "▁M": 244,
      "▁náà.": 245,
      "lẹ̀": 246,
      "hun": 247,
      "▁kí": 248,
      "▁I": 249,
      "kan": 250,
      "▁mọ́": 251,
      "▁lọ́": 252,
      "▁náà,": 253,
      "lé": 254,
      "▁ọmọ": 255,
      "án": 256,
      "▁pa": 257,
      "jọ́": 258,
      "▁Ì": 259,
      "▁B": 260,
      "▁ohun": 261,
      "▁Inú": 262,
      "ín": 263,
      "ràn": 264,
      "▁bá": 265,
      "▁nínú": 266,
      "▁kó": 267,
      "ẹ̀r": 268,
      "▁kò": 269,
      "rẹ́": 270,
      "▁ṣeré": 271,
      "ry": 272,
      "rìn": 273,
      "▁kan,": 274,
      "\".": 275,
      "do": 276,
      "▁<": 277,
      "▁mi": 278,
      "▁rẹ̀.": 279,
      "sto": 280,
      "story": 281,
      "fstory": 282,
      "|>": 283,
      "|en": 284,
      "dofstory": 285,
      "▁<|en": 286,
      "dofstory|>": 287,
      "▁<|endofstory|>": 288,
      "▁\n": 289,
      "▁<|endofstory|>\n": 290,
      "kùn": 291,
      "▁bí": 292,
      "▁màmá": 293,
      "eré": 294,
      "tí": 295,
      "yẹ": 296,
      "▁í": 297,
      "▁gbá": 298,
      "▁dá": 299,
      "▁lọ́wọ́": 300,
      "kọ̀": 301,
      "ẹ̀rẹ̀": 302,
      "▁À": 303,
      "▁pé,": 304,
      "▁wá": 305,
      "bi": 306,
      "▁fẹ́ràn": 307,
      "▁N": 308,
      "ǹkan": 309,
      "ẹ́ẹ̀": 310,
      "▁Ní": 311,
      "▁bẹ̀rẹ̀": 312,
      "▁Ọ": 313,
      "gbo": 314,
      "im": 315,
      "▁nǹkan": 316,
      "▁e": 317,
      "▁S": 318,
      "▁gan-an.": 319,
      "▁òun": 320,
      "▁gan-an,": 321,
      "▁bà": 322,
      "-ín": 323,
      "▁un": 324,
      "ẹ́rìn": 325,
      "ẹ́rìn-ín": 326,
      "▁ara": 327,
      "▁rẹ́rìn-ín": 328,
      "nu": 329,
      "▁è": 330,
      "!\"": 331,
      "bìn": 332,
      "bìnrin": 333,
      "▁nígbà": 334,
      "ók": 335,
      "dé": 336,
      "▁Tim": 337,
      "▁Lọ́": 338,
      "▁sá": 339,
      "jì": 340,
      "▁Lọ́jọ́": 341,
      "▁ké": 342,
      "ogbo": 343,
      "▁ọ̀rẹ́": 344,
      "yàn": 345,
      "▁á": 346,
      "▁ńlá": 347,
      "yìn": 348,
      "▁àmọ́": 349,
      "▁Ẹ": 350,
      "dà": 351,
      "▁pé:": 352,
      "kùnrin": 353,
      "om": 354,
      "▁A": 355,
      "dùn": 356,
      "èr": 357,
      "▁J": 358,
      "kẹ́": 359,
      "▁bẹ́ẹ̀": 360,
      "▁Tom": 361,
      "▁Ben": 362,
      "lú": 363,
      "▁alá": 364,
      "rá": 365,
      "mi": 366,
      "my": 367,
      "▁O": 368,
      "úr": 369,
      "sẹ́": 370,
      "▁músẹ́": 371,
      "▁kan.": 372,
      "ko": 373,
      "▁ọkọ̀": 374,
      "▁gbé": 375,
      "▁inú": 376,
      "▁bé": 377,
      "òr": 378,
      "lẹ́": 379,
      "▁Sa": 380,
      "rú": 381,
      "dò": 382,
      "▁sáré": 383,
      "▁yẹ": 384,
      "▁ọgbà": 385,
      "ri": 386,
      "pa": 387,
      "▁ká": 388,
      "▁gbádùn": 389,
      "èrè": 390,
      "?\"": 391,
      "▁Nígbà": 392,
      "▁wo": 393,
      "▁gbogbo": 394,
      "▁Màmá": 395,
      "▁K": 396,
      "▁ilé": 397,
      "▁ẹyẹ": 398,
      "ta": 399,
      "▁Àmọ́": 400,
      "▁rẹ̀,": 401,
      "▁jẹ": 402,
      "orí": 403,
      "▁Ìgbà": 404,
      "▁ni.": 405,
      "ìí": 406,
      "pọ̀": 407,
      "bá": 408,
      "rù": 409,
      "▁ẹ̀": 410,
      "▁tún": 411,
      "▁mọ́ra": 412,
      "lù": 413,
      "▁ìṣ": 414,
      "ọ́ọ̀": 415,
      "▁dé": 416,
      "▁dí": 417,
      "ni": 418,
      "▁pẹ̀": 419,
      "wọ̀": 420,
      "bà": 421,
      "▁ọmọdé": 422,
      "ran": 423,
      "keré": 424,
      "▁kékeré": 425,
      "▁Timmy": 426,
      "torí": 427,
      "wé": 428,
      "▁wọn.": 429,
      "▁rẹ": 430,
      "bù": 431,
      "▁ay": 432,
      "▁béèrè": 433,
      "▁lẹ́": 434,
      "gi": 435,
      "wọn": 436,
      "lẹ̀.": 437,
      "▁fò": 438,
      "▁padà": 439,
      "rúk": 440,
      "▁dà": 441,
      "▁bẹ́ẹ̀.": 442,
      "ní": 443,
      "▁gbọ́": 444,
      "tà": 445,
      "ọ̀.": 446,
      "▁rìn": 447,
      "▁já": 448,
      "já": 449,
      "ẹ̀ẹ́": 450,
      "▁mí": 451,
      "▁ṣà": 452,
      "rà": 453,
      "▁yá": 454,
      "yá": 455,
      "▁ojú": 456,
      "ranko": 457,
      "▁pẹ̀lú": 458,
      "▁ìṣeré": 459,
      "dì": 460,
      "wà": 461,
      "▁bú": 462,
      "yí": 463,
      "pá": 464,
      "▁lọ.": 465,
      "▁\"M": 466,
      "▁ọmọbìnrin": 467,
      "de": 468,
      "▁ìd": 469,
      "▁sínú": 470,
      "▁ṣeré.": 471,
      "sẹ̀": 472,
      "▁omi": 473,
      "▁òk": 474,
      "▁igi": 475,
      "yà": 476,
      "ókò": 477,
      "▁yà": 478,
      "▁só": 479,
      "rúkọ": 480,
      "▁ba": 481,
      "nà": 482,
      "ọ̀,": 483,
      "▁\"Ó": 484,
      "▁tun": 485,
      "▁\"Ẹ": 486,
      "▁Kò": 487,
      "úró": 488,
      "▁wọ": 489,
      "pó": 490,
      "jẹ": 491,
      "▁músẹ́,": 492,
      "ṣọ": 493,
      "▁mo": 494,
      "▁gbà": 495,
      "▁lé": 496,
      "▁kọ": 497,
      "bẹ̀": 498,
      "▁h": 499,
      "▁mọ": 500,
      "bí": 501,
      "▁di": 502,
      "▁yò": 503,
      "▁ràn": 504,
      "ẹ́yìn": 505,
      "ṣẹ́": 506,
      "pẹ́": 507,
      "dọ̀": 508,
      "wo": 509,
      "▁kọ́": 510,
      "jò": 511,
      "▁yẹn": 512,
      "▁aṣọ": 513,
      "tun": 514,
      "▁aláwọ̀": 515,
      "▁tuntun": 516,
      "▁dúró": 517,
      "▁jù": 518,
      "▁mọ̀": 519,
      "èyàn": 520,
      "▁Ọmọ": 521,
      "únjẹ": 522,
      "▁dáa": 523,
      "ṣe": 524,
      "ìyàn": 525,
      "▁Ma": 526,
      "ókè": 527,
      "▁sókè": 528,
      "▁bàbá": 529,
      "ìyànjú": 530,
      "▁lórí": 531,
      "▁dára": 532,
      "ọ́ọ̀lù": 533,
      "▁jáde": 534,
      "▁fọ": 535,
      "▁gbìyànjú": 536,
      "▁Ọ̀": 537,
      "▁dú": 538,
      "innu": 539,
      "▁bó": 540,
      "▁pinnu": 541,
      "ki": 542,
      "sí": 543,
      "▁díẹ̀": 544,
      "nn": 545,
      "jẹ́": 546,
      "▁Lẹ́yìn": 547,
      "▁wò": 548,
      "▁Sam": 549,
      "▁ẹni": 550,
      "▁lọ,": 551,
      "árá": 552,
      "▁bọ́ọ̀lù": 553,
      "▁wa": 554,
      "rò": 555,
      "▁orúkọ": 556,
      "▁oúnjẹ": 557,
      "▁jọ": 558,
      "▁nítorí": 559,
      "nì": 560,
      "▁Àwọn": 561,
      "▁oní": 562,
      "ára": 563,
      "ur": 564,
      "▁yí": 565,
      "kẹ́lẹ́": 566,
      "▁sórí": 567,
      "▁Ann": 568,
      "run": 569,
      "ọ́kẹ́lẹ́": 570,
      "▁ayọ́kẹ́lẹ́": 571,
      "▁ọjọ́": 572,
      "▁wà.": 573,
      "dẹ̀": 574,
      "▁sílé": 575,
      "▁nípa": 576,
      "jì,": 577,
      "▁ọmọdékùnrin": 578,
      "gbó": 579,
      "▁Mi": 580,
      "▁i.": 581,
      "là": 582,
      "▁Anna": 583,
      "▁pà": 584,
      "fẹ̀ẹ́": 585,
      "▁dúpẹ́": 586,
      "▁àk": 587,
      "▁nífẹ̀ẹ́": 588,
      "rọ̀": 589,
      "▁káà": 590,
      "▁ko": 591,
      "nújẹ́": 592,
      "bànújẹ́": 593,
      "▁é": 594,
      "hùn": 595,
      "▁yòò": 596,
      "▁ẹ́": 597,
      "▁Mo": 598,
      "▁Max": 599,
      "▁síbi": 600,
      "tì": 601,
      "▁ju": 602,
      "▁Lily.": 603,
      "▁àgbà": 604,
      "ág": 605,
      "▁ni,": 606,
      "▁ọ̀pọ̀": 607,
      "▁G": 608,
      "▁Sara": 609,
      "▁ajá": 610,
      "ani": 611,
      "▁èèyàn": 612,
      "▁mé": 613,
      "riwo": 614,
      "▁yàrá": 615,
      "▁gba": 616,
      "▁Ẹ̀": 617,
      "ji": 618,
      "pótí": 619,
      "▁án": 620,
      "ck": 621,
      "dó": 622,
      "kò": 623,
      "▁mọ́.": 624,
      "rẹ́dì": 625,
      "gbò": 626,
      "èè": 627,
      "▁búrẹ́dì": 628,
      "▁ẹranko": 629,
      "lẹ̀,": 630,
      "lò": 631,
      "ara": 632,
      "oo": 633,
      "▁rò": 634,
      "▁yìí": 635,
      "kí": 636,
      "▁ìwé": 637,
      "▁láy": 638,
      "▁lo": 639,
      "▁Ja": 640,
      "▁rí,": 641,
      "▁o,": 642,
      "dòdó": 643,
      "yẹn": 644,
      "▁àwọ̀": 645,
      "▁àjò": 646,
      "kàn": 647,
      "gùn": 648,
      "wá": 649,
      "úrò": 650,
      "▁Ló": 651,
      "ka": 652,
      "kọ́": 653,
      "▁Lá": 654,
      "▁ibi": 655,
      "▁kodò": 656,
      "▁dorí": 657,
      "rì": 658,
      "Ṣé": 659,
      "▁àpótí": 660,
      "tọ̀": 661,
      "òrán": 662,
      "kiri": 663,
      "▁káàkiri": 664,
      "▁òdòdó": 665,
      "la": 666,
      "▁orí": 667,
      "▁ṣẹ": 668,
      "▁Ìbànújẹ́": 669,
      "▁\"B": 670,
      "▁Gb": 671,
      "ly": 672,
      "▁\"O": 673,
      "▁Jo": 674,
      "▁\"K": 675,
      "▁ṣí": 676,
      "▁wọn,": 677,
      "tò": 678,
      "▁tẹ": 679,
      "▁ṣe.": 680,
      "ókòó": 681,
      "▁Gbogbo": 682,
      "▁\"Mo": 683,
      "▁ol": 684,
      "▁títí": 685,
      "ká": 686,
      "▁àsẹ̀": 687,
      "▁àsẹ̀yìn": 688,
      "▁\"\"": 689,
      "lọ": 690,
      "▁kì": 691,
      "jijì,": 692,
      "gbọ́n": 693,
      "▁tàn": 694,
      "▁pọ̀": 695,
      "kún": 696,
      "àá": 697,
      "▁sun": 698,
      "òrùn": 699,
      "▁débi": 700,
      "júmọ́": 701,
      "joo": 702,
      "▁lára": 703,
      "joojúmọ́": 704,
      "▁sọ̀": 705,
      "▁gun": 706,
      "▁Jack": 707,
      "▁ọwọ́": 708,
      "▁ìt": 709,
      "▁hàn": 710,
      "▁Ẹ̀rù": 711,
      "▁Lójijì,": 712,
      "ye": 713,
      "▁músẹ́.": 714,
      "▁ṣè": 715,
      "▁Mia": 716,
      "▁oló": 717,
      "wò": 718,
      "▁rọ": 719,
      "▁gbáà": 720,
      "▁mọ́ra.": 721,
      "▁Ẹranko": 722,
      "kì": 723,
      "▁nì": 724,
      "▁igbó": 725,
      "▁Ọmọdé": 726,
      "▁na": 727,
      "▁lójú": 728,
      "▁Nítorí": 729,
      "ọ̀n": 730,
      "lẹ́nu": 731,
      "yàlẹ́nu": 732,
      "▁fọwọ́": 733,
      "so": 734,
      "▁kúrò": 735,
      "▁sọ́": 736,
      "▁fani": 737,
      "▁ọ̀nà": 738,
      "fẹ́": 739,
      "▁lọ́wọ́.": 740,
      "▁sunkún": 741,
      "lúù": 742,
      "e.": 743,
      "yè": 744,
      "▁ṣeré,": 745,
      "▁ìyá": 746,
      "▁ilẹ̀": 747,
      "▁ewé": 748,
      "▁mọ́ra,": 749,
      "▁eré": 750,
      "▁\"W": 751,
      "àbá": 752,
      "pò": 753,
      "▁sọ́dọ̀": 754,
      "gbé": 755,
      "▁ṣọ́": 756,
      "▁ọ̀tọ̀": 757,
      "▁ẹ̀r": 758,
      "ja": 759,
      "▁má": 760,
      "lọpọ̀": 761,
      "▁pá": 762,
      "ro": 763,
      "▁lẹ́wà": 764,
      "fú": 765,
      "▁ìrìn": 766,
      "▁Ò": 767,
      "▁Bàbá": 768,
      "▁ọkùnrin": 769,
      "▁lọ́jọ́": 770,
      "▁rárá": 771,
      "▁pẹ́": 772,
      "▁oòrùn": 773,
      "▁\"Bẹ́ẹ̀": 774,
      "▁ad": 775,
      "▁ṣọ́ra": 776,
      "▁ọmọdébìnrin": 777,
      "▁un.": 778,
      "▁ìdí": 779,
      "dáa": 780,
      "▁dáadáa": 781,
      "er": 782,
      "ná": 783,
      "gbára": 784,
      "▁bọ́": 785,
      "▁èso": 786,
      "▁àkókò": 787,
      "▁sùn": 788,
      "▁yá,": 789,
      "lọ́": 790,
      "núur": 791,
      "▁onínúur": 792,
      "▁tóbi": 793,
      "▁ew": 794,
      "sì": 795,
      "ké": 796,
      "▁ṣeé": 797,
      "▁ọ̀run": 798,
      "▁àwòrán": 799,
      "▁ni!": 800,
      "▁Ìyàlẹ́nu": 801,
      "wó": 802,
      "▁tú": 803,
      "ágún": 804,
      "kọ̀ọ́": 805,
      "▁kún": 806,
      "▁méj": 807,
      "Èmi": 808,
      "tẹ̀": 809,
      "ẹ̀kẹ́": 810,
      "úta": 811,
      "▁míì": 812,
      "ọ́ni": 813,
      "tán": 814,
      "rùn": 815,
      "▁méjèè": 816,
      "▁àrà": 817,
      "bùtán": 818,
      "▁àbù": 819,
      "ùbùtán": 820,
      "▁àbùùbùtán": 821,
      "▁ìgbà": 822,
      "▁adágún": 823,
      "ga": 824,
      "yin": 825,
      "▁tá": 826,
      "▁kẹ̀kẹ́": 827,
      "▁ún": 828,
      "▁méjèèjì": 829,
      "lly": 830,
      "▁ẹja": 831,
      "▁ka": 832,
      "bú": 833,
      "▁E": 834,
      "▁mọ́ni": 835,
      "▁fara": 836,
      "▁ọ̀pọ̀lọpọ̀": 837,
      "▁àpò": 838,
      "bẹ́": 839,
      "▁sílẹ̀.": 840,
      "etí": 841,
      "▁ran": 842,
      "▁pu": 843,
      "▁D": 844,
      "▁i,": 845,
      "▁mi.": 846,
      "ob": 847,
      "▁pín": 848,
      "li": 849,
      "▁jókòó": 850,
      "òrò": 851,
      "wọ": 852,
      "▁yan": 853,
      "▁tọ́": 854,
      "▁òkun": 855,
      "mọ̀": 856,
      "▁kígb": 857,
      "tù": 858,
      "gboyà": 859,
      "▁dún": 860,
      "▁jẹ́.": 861,
      "▁mẹ́": 862,
      "▁ro": 863,
      "po": 864,
      "▁dákẹ́": 865,
      "▁níbẹ̀": 866,
      "▁\"R": 867,
      "▁\"Kí": 868,
      "▁pariwo": 869,
      "▁rọra": 870,
      "▁níta": 871,
      "▁òkúta": 872,
      "▁àà": 873,
      "▁rán": 874,
      "▁\"Ṣé": 875,
      "tú": 876,
      "▁èyí": 877,
      "▁iṣẹ́": 878,
      "▁búlúù": 879,
      "hò": 880,
      "▁Wọn": 881,
      "▁pupa": 882,
      "▁ronú": 883,
      "▁fetí": 884,
      "▁Lu": 885,
      "▁kàn": 886,
      "▁kú": 887,
      "yẹ̀": 888,
      "▁ológbò": 889,
      "pẹ̀": 890,
      "▁òf": 891,
      "▁mu": 892,
      "▁díẹ̀,": 893,
      "▁sún": 894,
      "é.": 895,
      "cy": 896,
      "▁ariwo": 897,
      "ṣì": 898,
      "lì": 899,
      "▁gbọ́dọ̀": 900,
      "▁\"Rárá": 901,
      "▁ṣi": 902,
      "árì": 903,
      "▁ọ̀pá": 904,
      "▁ṣì": 905,
      "á.": 906,
      "sán": 907,
      "kòrò": 908,
      "pàá": 909,
      "óò": 910,
      "▁kòkòrò": 911,
      "▁onínúure": 912,
      "▁òrù": 913,
      "▁kodò,": 914,
      "▁ní,": 915,
      "▁pè": 916,
      "yín": 917,
      "▁ọ̀g": 918,
      "▁ìdán": 919,
      "▁yára": 920,
      "▁béárì": 921,
      "▁Joh": 922,
      "uru": 923,
      "úrẹ́": 924,
      "▁ewúrẹ́": 925,
      "ìnnì": 926,
      "gun": 927,
      "▁òkè": 928,
      "▁Lucy": 929,
      "▁kẹ́": 930,
      "uuru": 931,
      "uurufú": 932,
      "▁òfuurufú": 933,
      "bò": 934,
      "▁fọ́": 935,
      "▁gí": 936,
      "▁Su": 937,
      "▁ṣiṣẹ́": 938,
      "kà": 939,
      "tìgbà": 940,
      "▁sọ.": 941,
      "▁ó,": 942,
      "▁dán": 943,
      "▁é.": 944,
      "fo": 945,
      "yé": 946,
      "▁sókè,": 947,
      "▁tẹ̀": 948,
      "▁rẹ́rìn-ín,": 949,
      "▁ọ̀b": 950,
      "tàkì": 951,
      "▁pàtàkì": 952,
      "lagbà": 953,
      "▁ihò": 954,
      "▁àlà": 955,
      "ny": 956,
      "▁àgbàlagbà": 957,
      "▁Bob": 958,
      "àní": 959,
      "▁kọjá": 960,
      "bọ̀,": 961,
      "ru": 962,
      "mí": 963,
      "jà": 964,
      "▁dì": 965,
      "▁Bí": 966,
      "▁Ọ̀rẹ́": 967,
      "▁wọlé": 968,
      "▁sílé.": 969,
      "▁ṣọ́ọ̀": 970,
      "▁tà": 971,
      "▁P": 972,
      "▁Ẹyẹ": 973,
      "▁kọrin": 974,
      "▁yín": 975,
      "ẹ̀dẹ̀": 976,
      "▁lọ́kàn": 977,
      "▁bíi": 978,
      "rè": 979,
      "▁Látìgbà": 980,
      "▁wọ́n.": 981,
      "▁irun": 982,
      "▁lágbára": 983,
      "le": 984,
      "▁èrò": 985,
      "▁sunkún.": 986,
      "▁lóhùn": 987,
      "pù": 988,
      "▁parí": 989,
      "▁wù": 990,
      "▁ṣọ́ọ̀bù": 991,
      "▁bóyá": 992,
      "▁ìdílé": 993,
      "un,": 994,
      "▁pọ̀.": 995,
      "▁John": 996,
      "▁àsẹ̀yìnwá": 997,
      "ère": 998,
      "▁kígbe": 999,
      "bàá": 1000,
      "ùgbọ́n": 1001,
      "▁ẹsẹ̀": 1002,
      "▁ilẹ̀.": 1003,
      "▁àsẹ̀yìnbọ̀,": 1004,
      "▁ilẹ̀kùn": 1005,
      "▁tán": 1006,
      "▁yìn": 1007,
      "▁nìyẹn": 1008,
      "▁mẹ́ta": 1009,
      "▁ìtàn": 1010,
      "▁-": 1011,
      "go": 1012,
      "úw": 1013,
      "▁lúw": 1014,
      "▁lúwẹ̀ẹ́": 1015,
      "▁okùn": 1016,
      "▁ẹnu": 1017,
      "▁rárá.": 1018,
      "▁kà": 1019,
      "▁ọd": 1020,
      "tòsí": 1021,
      "▁sílẹ̀": 1022,
      "▁mìí": 1023,
      "▁mìíràn": 1024,
      "▁Ọmọdébìnrin": 1025,
      "▁tàbí": 1026,
      "ék": 1027,
      "▁lẹ́yìn": 1028,
      "ọ̀wọ́": 1029,
      "▁nítòsí": 1030,
      "▁tímọ́": 1031,
      "▁tímọ́tí": 1032,
      "▁tímọ́tímọ́": 1033,
      "▁lójoojúmọ́": 1034,
      "▁aládùn": 1035,
      "▁Ojoojúmọ́": 1036,
      "gàn": 1037,
      "▁R": 1038,
      "▁obìnrin": 1039,
      "▁jí": 1040,
      "is": 1041,
      "▁F": 1042,
      "▁ọ́": 1043,
      "▁apá": 1044,
      "▁tè": 1045,
      "▁gbọ̀n": 1046,
      "▁àlàfo": 1047,
      "▁bu": 1048,
      "▁ọ̀gẹ̀dẹ̀": 1049,
      "pot": 1050,
      "parí": 1051,
      "▁ra": 1052,
      "▁Ben.": 1053,
      "▁tíì": 1054,
      "yẹ̀wò": 1055,
      "▁ohùn": 1056,
      "▁ke": 1057,
      "▁gág": 1058,
      "kù": 1059,
      "▁dájú": 1060,
      "èèké": 1061,
      "ékèèké": 1062,
      "▁rí.": 1063,
      "▁kéékèèké": 1064,
      "gbẹ́": 1065,
      "mì": 1066,
      "▁á.": 1067,
      "▁Ń": 1068,
      "bọ̀": 1069,
      "▁Spot": 1070,
      "▁kẹ́kọ̀ọ́": 1071,
      "rẹ̀": 1072,
      "▁ìj": 1073,
      "ṣin": 1074,
      "rúkú": 1075,
      "▁burúkú": 1076,
      "▁Ìparí": 1077,
      "▁Ṣé": 1078,
      "▁ṣu": 1079,
      "▁pe": 1080,
      "▁Ńṣe": 1081,
      "▁òrùka": 1082,
      "lu": 1083,
      "▁ọdún": 1084,
      "àníyàn": 1085,
      "▁ṣàníyàn": 1086,
      "lọ́wọ́": 1087,
      "rànlọ́wọ́": 1088,
      "▁kọ́kọ́": 1089,
      "▁Ọkùnrin": 1090,
      "▁ṣẹlẹ̀.": 1091,
      "▁ṣàyẹ̀wò": 1092,
      "mù": 1093,
      "dí": 1094,
      "yìí": 1095,
      "▁àyí": 1096,
      "dy": 1097,
      "▁àṣ": 1098,
      "▁àtà": 1099,
      "▁nílò": 1100,
      "▁fèrè": 1101,
      "▁gbàgbé": 1102,
      "▁torí": 1103,
      "▁\"A": 1104,
      "▁jó": 1105,
      "▁òǹ": 1106,
      "▁rìnrìn": 1107,
      "▁bẹ́ẹ̀,": 1108,
      "▁láyọ̀": 1109,
      "▁ẹ̀rù": 1110,
      "▁méjì": 1111,
      "▁pápá": 1112,
      "▁Ohun": 1113,
      "▁rẹ.": 1114,
      "gà": 1115,
      "bì": 1116,
      "▁rẹ́rìn-ín.": 1117,
      "kó": 1118,
      "▁àyíká": 1119,
      "▁rántí": 1120,
      "▁etí": 1121,
      "ù.": 1122,
      "▁lu": 1123,
      "gí": 1124,
      "tẹ̀gùn": 1125,
      "▁Ọmọdékùnrin": 1126,
      "ow": 1127,
      "▁lábẹ́": 1128,
      "kan.": 1129,
      "òro": 1130,
      "▁àtẹ̀gùn": 1131,
      "▁ṣubú": 1132,
      "▁ṣẹlẹ̀": 1133,
      "▁ọn": 1134,
      "▁gbó": 1135,
      "▁láì": 1136,
      "▁owó": 1137,
      "▁an": 1138,
      "ba": 1139,
      "▁ọ̀rọ̀": 1140,
      "ọ́nà": 1141,
      "yan": 1142,
      "▁ni!\"": 1143,
      "▁so": 1144,
      "▁ya": 1145,
      "▁báyìí": 1146,
      "tọ́": 1147,
      "ró": 1148,
      "yẹ́": 1149,
      "▁da": 1150,
      "▁yangàn": 1151,
      "rẹ": 1152,
      "▁túbọ̀": 1153,
      "oríko": 1154,
      "▁koríko": 1155,
      "dẹ̀dẹ̀": 1156,
      "▁Lila": 1157,
      "▁bára": 1158,
      "▁àgb": 1159,
      "▁alápàá": 1160,
      "ǹdẹ̀dẹ̀": 1161,
      "▁alápàáǹdẹ̀dẹ̀": 1162,
      "bọ́": 1163,
      "wu": 1164,
      "▁\"Ì": 1165,
      "wọ̀n": 1166,
      "▁lẹ́nu": 1167,
      "▁yóò": 1168,
      "▁dáa,": 1169,
      "▁tì": 1170,
      "▁sílẹ̀,": 1171,
      "▁Sue": 1172,
      "▁ìb": 1173,
      "▁fun": 1174,
      "▁òbí": 1175,
      "kòkò": 1176,
      "▁ú": 1177,
      "àmá,": 1178,
      "▁kábàá": 1179,
      "àǹ": 1180,
      "▁àf": 1181,
      "▁ẹ̀rọ": 1182,
      "▁irin": 1183,
      "sà": 1184,
      "▁mọ́lẹ̀": 1185,
      "▁akẹ́": 1186,
      "▁ta": 1187,
      "▁Jan": 1188,
      "òó": 1189,
      "fin": 1190,
      "árayá": 1191,
      "▁àṣí": 1192,
      "▁tu": 1193,
      "▁tuntun.": 1194,
      "▁mà": 1195,
      "▁ọ̀bọ": 1196,
      "▁Lily,": 1197,
      "▁un,": 1198,
      "▁wá,": 1199,
      "▁yòò.": 1200,
      "▁orin": 1201,
      "▁ìkòkò": 1202,
      "▁yìnyín": 1203,
      "▁ayé": 1204,
      "▁la": 1205,
      "▁eé": 1206,
      "▁rẹ,": 1207,
      "▁ìyẹn": 1208,
      "á,": 1209,
      "▁gígùn": 1210,
      "▁ìdárayá": 1211,
      "▁ni\".": 1212,
      "▁ibù": 1213,
      "▁wú": 1214,
      "▁akẹ́rù": 1215,
      "▁Ọ̀pọ̀": 1216,
      "rọ": 1217,
      "▁ki": 1218,
      "▁gún": 1219,
      "▁sọ̀r": 1220,
      "wòrán": 1221,
      "mẹ́": 1222,
      "▁Tom.": 1223,
      "▁gan-an!": 1224,
      "bìlì": 1225,
      "ṣi": 1226,
      "rín": 1227,
      "▁àlù": 1228,
      "mà": 1229,
      "▁Èmi": 1230,
      "▁tábìlì": 1231,
      "▁á,": 1232,
      "▁ìrànlọ́wọ́": 1233,
      "jè": 1234,
      "▁sẹ́": 1235,
      "kè": 1236,
      "▁láyọ̀.": 1237,
      "▁ọ̀dà": 1238,
      "▁pẹ̀pẹ̀": 1239,
      "▁ìjókòó": 1240,
      "dọ́": 1241,
      "▁lọ́nà": 1242,
      "wa": 1243,
      "▁tutù": 1244,
      "▁Ọkọ̀": 1245,
      "▁dáwọ́": 1246,
      "▁dara": 1247,
      "▁ìgboyà": 1248,
      "ed": 1249,
      "▁Kí": 1250,
      "▁\"Wò": 1251,
      "▁irú": 1252,
      "▁yòók": 1253,
      "▁kíkan": 1254,
      "▁kíkankí": 1255,
      "▁tọ": 1256,
      "▁hù": 1257,
      "jì.": 1258,
      "tó": 1259,
      "▁sára": 1260,
      "▁dákẹ́,": 1261,
      "▁yíká": 1262,
      "▁\"Èmi": 1263,
      "▁\"Màmá,": 1264,
      "bùn": 1265,
      "▁òó": 1266,
      "ily": 1267,
      "yèsí": 1268,
      "▁dáadáa.": 1269,
      "sùn": 1270,
      "▁Jane": 1271,
      "▁yọ": 1272,
      "di": 1273,
      "wẹ̀": 1274,
      "▁Ajá": 1275,
      "▁ńṣe": 1276,
      "ǹkangí": 1277,
      "gbóǹkangí": 1278,
      "fì": 1279,
      "ṣù": 1280,
      "▁Joe": 1281,
      "▁níbẹ̀.": 1282,
      "▁se": 1283,
      "▁lò": 1284,
      "▁afẹ́": 1285,
      "kíyèsí": 1286,
      "gò": 1287,
      "▁bẹ̀r": 1288,
      "▁ṣàkíyèsí": 1289,
      "kùnkùn": 1290,
      "▁àá": 1291,
      "dìí": 1292,
      "tè": 1293,
      "ìnnìún": 1294,
      "▁Da": 1295,
      "▁òjò": 1296,
      "▁lójoojúmọ́.": 1297,
      "▁múra": 1298,
      "▁láé.": 1299,
      "▁ọ̀run.": 1300,
      "▁nawọ́": 1301,
      "▁fì": 1302,
      "▁màmá.": 1303,
      "lérí": 1304,
      "à.": 1305,
      "yẹyẹ": 1306,
      "▁dúró,": 1307,
      "▁dùn,": 1308,
      "yọ": 1309,
      "mẹ́nì": 1310,
      "▁bítú": 1311,
      "▁bítúmẹ́nì": 1312,
      "▁bàtà": 1313,
      "▁wá.": 1314,
      "▁gbọ́n": 1315,
      "▁tọ́jú": 1316,
      "▁sílé,": 1317,
      "ra.": 1318,
      "▁Tommy": 1319,
      "rọ́": 1320,
      "sìn": 1321,
      "▁Láti": 1322,
      "▁ìgò": 1323,
      "▁jẹun": 1324,
      "▁pọ̀,": 1325,
      "▁àga": 1326,
      "▁le": 1327,
      "▁ṣe,": 1328,
      "▁sódò": 1329,
      "▁ibùsùn": 1330,
      "▁ìnu": 1331,
      "▁ẹ̀bùn": 1332,
      "et": 1333,
      "▁díẹ̀.": 1334,
      "▁àmì": 1335,
      "▁sin": 1336,
      "dú": 1337,
      "▁kéèyàn": 1338,
      "▁fà": 1339,
      "ràm": 1340,
      "▁balẹ̀": 1341,
      "àǹdà": 1342,
      "ràmàǹdà": 1343,
      "▁ẹ́.": 1344,
      "há": 1345,
      "▁àràmàǹdà": 1346,
      "▁in": 1347,
      "tẹ": 1348,
      "illy": 1349,
      "▁màá": 1350,
      "sin": 1351,
      "▁igbó.": 1352,
      "ràwọ̀": 1353,
      "sé": 1354,
      "▁ìgb": 1355,
      "▁ati": 1356,
      "▁yòò,": 1357,
      "dọ́mọ": 1358,
      "▁fúngbà": 1359,
      "▁ṣeun,": 1360,
      "▁jáde.": 1361,
      "▁ga": 1362,
      "▁omi.": 1363,
      "▁dúró.": 1364,
      "▁Ọjọ́": 1365,
      "▁ayẹyẹ": 1366,
      "▁láà": 1367,
      "ku": 1368,
      "▁bínú": 1369,
      "ke": 1370,
      "▁ṣé": 1371,
      "▁hùwà": 1372,
      "▁etík": 1373,
      "▁òun.": 1374,
      "fí": 1375,
      "▁àforí": 1376,
      "▁tètè": 1377,
      "mú": 1378,
      "▁tọrọ": 1379,
      "▁lọ́wọ́,": 1380,
      "▁mọ́,": 1381,
      "▁tẹ́": 1382,
      "▁ìnura": 1383,
      "isy": 1384,
      "kọ": 1385,
      "kigbà": 1386,
      "▁ṣàrà": 1387,
      "▁\"Kò": 1388,
      "▁ògbóǹkangí": 1389,
      "▁ìràwọ̀": 1390,
      "▁lóye": 1391,
      "▁ìye": 1392,
      "▁ìyeyè": 1393,
      "▁Ìyá": 1394,
      "▁dání": 1395,
      "míràn": 1396,
      "rorò": 1397,
      "▁ṣèlérí": 1398,
      "▁\"Má": 1399,
      "▁Sarah": 1400,
      "▁dídì": 1401,
      "▁àtàwọn": 1402,
      "▁Sally": 1403,
      "wádìí": 1404,
      "▁ìta": 1405,
      "▁ìyẹ́": 1406,
      "▁Àmọ́,": 1407,
      "▁Òun": 1408,
      "oru": 1409,
      "rètí": 1410,
      "▁Benny": 1411,
      "Èyí": 1412,
      "▁padà.": 1413,
      "fun": 1414,
      "▁òǹrorò": 1415,
      "▁sọ̀rọ̀": 1416,
      "ill": 1417,
      "páta": 1418,
      "▁jẹ́,": 1419,
      "▁àpáta": 1420,
      "▁iná": 1421,
      "ere": 1422,
      "▁awọn": 1423,
      "▁ó.": 1424,
      "sàn": 1425,
      "▁C": 1426,
      "▁padà,": 1427,
      "\",": 1428,
      "▁ààfin": 1429,
      "borí": 1430,
      "ánù": 1431,
      "ar": 1432,
      "▁àṣíborí": 1433,
      "▁sáré,": 1434,
      "▁ọmọkùnrin": 1435,
      "▁ẹlò": 1436,
      "▁àkà": 1437,
      "hálà": 1438,
      "▁wàhálà": 1439,
      "▁òpó": 1440,
      "▁léwu": 1441,
      "pẹ̀rẹ̀": 1442,
      "▁mère": 1443,
      "▁mèrem": 1444,
      "▁yòókù": 1445,
      "▁lẹ́ẹ̀": 1446,
      "▁Em": 1447,
      "▁níta.": 1448,
      "▁fa": 1449,
      "▁ọ̀kan": 1450,
      "▁eku": 1451,
      "\"\"": 1452,
      "▁jìn": 1453,
      "▁oyin": 1454,
      "▁go": 1455,
      "▁ìtu": 1456,
      "▁ọgbà.": 1457,
      "▁ìbànújẹ́": 1458,
      "▁tẹnu": 1459,
      "▁Daisy": 1460,
      "yọ̀": 1461,
      "▁àlá": 1462,
      "▁ìrì": 1463,
      "▁ẹ̀kọ́": 1464,
      "▁pàdé": 1465,
      "▁ìgbé": 1466,
      "▁ẹnì": 1467,
      "▁nǹkan.": 1468,
      "▁jáde,": 1469,
      "▁kéré": 1470,
      "▁tó.": 1471,
      "▁gbóná": 1472,
      "▁jọ̀wọ́": 1473,
      "▁dúdú": 1474,
      "mùg": 1475,
      "▁sí.": 1476,
      "▁Jim": 1477,
      "Ṣùgbọ́n": 1478,
      "▁síbẹ̀": 1479,
      "▁jìnnà": 1480,
      "▁látinú": 1481,
      "▁ápù": 1482,
      "▁afẹ́fẹ́": 1483,
      "▁bo": 1484,
      "▁Billy": 1485,
      "▁gé": 1486,
      "▁ọlọ́": 1487,
      "yéfì": 1488,
      "▁kàyéfì": 1489,
      "▁ṣàjè": 1490,
      "ilẹ̀": 1491,
      "▁yàwòrán": 1492,
      "▁Jen": 1493,
      "▁yẹn,": 1494,
      "▁kodò.": 1495,
      "▁wàrà": 1496,
      "▁bẹ̀rù": 1497,
      "▁pàd": 1498,
      "tẹnu": 1499,
      "▁òṣù": 1500,
      "gbẹ̀ẹ́": 1501,
      "▁tẹnutẹnu": 1502,
      "▁nìyẹn.": 1503,
      "dọ́mọkùnrin": 1504,
      "▁èlò": 1505,
      "▁nírètí": 1506,
      "▁\"T": 1507,
      "▁àgbá": 1508,
      "▁ṣùgbọ́n": 1509,
      "▁si": 1510,
      "▁kọ̀": 1511,
      "tt": 1512,
      "▁kìnnìún": 1513,
      "▁ṣèwádìí": 1514,
      "lí": 1515,
      "▁ẹṣin": 1516,
      "pónà": 1517,
      "▁\"\"\"": 1518,
      "áàbò": 1519,
      "▁bani": 1520,
      "tá": 1521,
      "▁tóní": 1522,
      "tóní": 1523,
      "▁tónítóní": 1524,
      "▁tilẹ̀": 1525,
      "▁míì,": 1526,
      "▁Molly": 1527,
      "▁òmùg": 1528,
      "▁dákẹ́.": 1529,
      "▁abọ́": 1530,
      "▁sókè.": 1531,
      "▁odò": 1532,
      "▁ìmọ́": 1533,
      "▁Bó": 1534,
      "▁dùn.": 1535,
      "wù": 1536,
      "▁dáàbò": 1537,
      "▁gágá.": 1538,
      "▁dìgbà": 1539,
      "▁onígboyà": 1540,
      "▁tórúkọ": 1541,
      "▁jẹ.": 1542,
      "▁màlúù": 1543,
      "sìnyí": 1544,
      "sinsìnyí": 1545,
      "hàn": 1546,
      "▁ṣàníyàn,": 1547,
      "▁ṣú": 1548,
      "▁pàdánù": 1549,
      "▁níbi": 1550,
      "▁\"Mi": 1551,
      "▁mi,": 1552,
      "▁náà\".": 1553,
      "fe": 1554,
      "▁apẹ̀rẹ̀": 1555,
      "ọ̀tí": 1556,
      "▁wà,": 1557,
      "búrò": 1558,
      "▁ẹ̀yìn": 1559,
      "ṣú": 1560,
      "▁kejì,": 1561,
      "▁káàkiri,": 1562,
      "▁wò.": 1563,
      "▁kọ́kọ́rọ́": 1564,
      "goro": 1565,
      "▁gogoro": 1566,
      "▁etíkun": 1567,
      "▁fèrèsé": 1568,
      "▁rẹ\".": 1569,
      "ùf": 1570,
      "fúùf": 1571,
      "▁bẹ́": 1572,
      "▁níbí": 1573,
      "▁ọkàn": 1574,
      "▁sunkún,": 1575,
      "▁fí": 1576,
      "▁Amy": 1577,
      "▁mú.": 1578,
      "re": 1579,
      "▁sọ,": 1580,
      "▁lẹ́rù": 1581,
      "▁òpópónà": 1582,
      "jọ": 1583,
      "ókí": 1584,
      "▁mi\".": 1585,
      "bo": 1586,
      "▁ọ̀sán": 1587,
      "ókítà": 1588,
      "▁ẹran": 1589,
      "▁ọ̀t": 1590,
      "▁Ben,": 1591,
      "▁sọ̀rọ̀.": 1592,
      "▁ẹ̀ka": 1593,
      "▁ẹlòmíràn": 1594,
      "▁bọ̀": 1595,
      "▁sinmi": 1596,
      "▁funfun": 1597,
      "▁jù.": 1598,
      "▁lọ́kàn.": 1599,
      "▁lati": 1600,
      "▁gbà,": 1601,
      "▁lẹ́ẹ̀kan": 1602,
      "▁ìwẹ̀": 1603,
      "▁eéṣú": 1604,
      "▁ìrù": 1605,
      "▁tẹli": 1606,
      "▁\"Wow": 1607,
      "▁ṣòro": 1608,
      "ìkí": 1609,
      "▁náà!": 1610,
      "yanu": 1611,
      "▁kiri": 1612,
      "▁rìn.": 1613,
      "▁nìkan": 1614,
      "▁olù": 1615,
      "▁\"À": 1616,
      "▁dídùn": 1617,
      "ríṣi": 1618,
      "▁Jill": 1619,
      "giri": 1620,
      "▁ògiri": 1621,
      "▁tiẹ̀": 1622,
      "▁wúwo": 1623,
      "▁ẹ̀wà": 1624,
      "▁tẹrí": 1625,
      "▁Ọkàn": 1626,
      "▁ayọ̀": 1627,
      "fúùfù": 1628,
      "▁àdà": 1629,
      "▁ọ̀rẹ́.": 1630,
      "▁wọ́n,": 1631,
      "▁kábàám": 1632,
      "▁àbúrò": 1633,
      "▁sẹ́ni": 1634,
      "▁bébà": 1635,
      "▁mú,": 1636,
      "▁alẹ́": 1637,
      "hànnà": 1638,
      "▁ẹhànnà": 1639,
      "▁mèremère": 1640,
      "▁ìró": 1641,
      "▁pariwo.": 1642,
      "ma": 1643,
      "ńg": 1644,
      "▁\"J": 1645,
      "lé,": 1646,
      "▁yẹn.": 1647,
      "▁pa.": 1648,
      "▁lẹ́tà": 1649,
      "kẹ́ni": 1650,
      "▁\"L": 1651,
      "dá": 1652,
      "lo": 1653,
      "eddy": 1654,
      "▁ẹnikẹ́ni": 1655,
      "ọ́ọ̀sì": 1656,
      "▁\"Ṣùgbọ́n": 1657,
      "lẹ": 1658,
      "▁ibẹ̀": 1659,
      "wakọ̀": 1660,
      "àgà": 1661,
      "▁gàgà": 1662,
      "▁hára": 1663,
      "▁mọ́ni.": 1664,
      "▁tóun": 1665,
      "ff": 1666,
      "▁ife": 1667,
      "▁àlùkò": 1668,
      "tu": 1669,
      "▁rere": 1670,
      "rinrin": 1671,
      "▁ṣeun": 1672,
      "▁yangàn.": 1673,
      "▁àgbàyanu": 1674,
      "▁\"Èyí": 1675,
      "▁alárinrin": 1676,
      "▁nígbàkigbà": 1677,
      "▁\"Wow,": 1678,
      "ra,": 1679,
      "kan,": 1680,
      "▁mó": 1681,
      "▁débẹ̀": 1682,
      "▁borí": 1683,
      "▁wọlé,": 1684,
      "wájú": 1685,
      "▁ààbò": 1686,
      "▁móoru": 1687,
      "▁ìlú": 1688,
      "▁rọ̀": 1689,
      "▁Sam.": 1690,
      "▁wàá": 1691,
      "▁dáadáa,": 1692,
      "el": 1693,
      "▁gbẹ": 1694,
      "▁ìmọ́lẹ̀": 1695,
      "gba": 1696,
      "▁tán,": 1697,
      "▁òórùn": 1698,
      "▁káàkiri.": 1699,
      "▁gbé.": 1700,
      "▁bìkí": 1701,
      "▁bìkítà": 1702,
      "▁Oòrùn": 1703,
      "▁tọ́ka": 1704,
      "sánmà": 1705,
      "▁àgbò": 1706,
      "▁wọlé.": 1707,
      "▁wa.": 1708,
      "▁lépa": 1709,
      "▁Tom,": 1710,
      "▁án.": 1711,
      "▁kábàámọ̀": 1712,
      "▁láàá": 1713,
      "àyí": 1714,
      "▁búl": 1715,
      "▁búlọ́ọ̀": 1716,
      "▁Kì": 1717,
      "jí": 1718,
      "▁Ìwọ": 1719,
      "▁ẹ̀gbọ́n": 1720,
      "▁\"I": 1721,
      "▁àkàrà": 1722,
      "rẹwà": 1723,
      "▁pòó": 1724,
      "▁pòórá": 1725,
      "ónì": 1726,
      "▁ẹyọ": 1727,
      "▁ọ̀bẹ": 1728,
      "▁léṣe": 1729,
      "ie": 1730,
      "ṣọ́": 1731,
      "▁ẹ̀yin": 1732,
      "▁sùn.": 1733,
      "gónì": 1734,
      "rágónì": 1735,
      "▁aa": 1736,
      "▁ìdáná.": 1737,
      "díẹ̀": 1738,
      "▁tèmi": 1739,
      "▁òkùnkùn": 1740,
      "▁kalẹ̀": 1741,
      "▁ilẹ̀,": 1742,
      "▁o!\"": 1743,
      "▁tóbi,": 1744,
      "rán": 1745,
      "ejì": 1746,
      "▁àjò.": 1747,
      "y.": 1748,
      "ọsánmà": 1749,
      "▁àwọsánmà": 1750,
      "kóhun": 1751,
      "▁bàa": 1752,
      "▁nínú.": 1753,
      "▁òmùgọ̀": 1754,
      "kẹ": 1755,
      "▁tirẹ̀": 1756,
      "da": 1757,
      "dè": 1758,
      "▁sowọ́": 1759,
      "▁ewébẹ̀": 1760,
      "▁sẹ́yìn": 1761,
      "▁ìtura": 1762,
      "gbẹ́ni": 1763,
      "▁wakọ̀": 1764,
      "▁tímọ́tímọ́.": 1765,
      "▁gbogbo.": 1766,
      "▁àforíjì": 1767,
      "▁ìrọ̀": 1768,
      "▁aago": 1769,
      "▁ìṣú": 1770,
      "▁ẹ̀rín": 1771,
      "▁omi,": 1772,
      "▁lẹ́nu.": 1773,
      "▁ẹ̀fúùfù": 1774,
      "▁H": 1775,
      "▁ká.": 1776,
      "▁\"ó": 1777,
      "▁awakọ̀": 1778,
      "▁dàgbà": 1779,
      "aná": 1780,
      "▁dọ̀tí": 1781,
      "es": 1782,
      "▁yìí,": 1783,
      "▁Ara": 1784,
      "▁òw": 1785,
      "ùúr": 1786,
      "▁kíkankíkan.": 1787,
      "▁lára.": 1788,
      "op": 1789,
      "▁kán": 1790,
      "▁Ọmọbìnrin": 1791,
      "▁ìṣòro": 1792,
      "▁Max.": 1793,
      "nìí": 1794,
      "▁sùúr": 1795,
      "▁ṣàlà": 1796,
      "▁kan!\"": 1797,
      "▁jọ,": 1798,
      "▁mìíràn.": 1799,
      "▁oòrùn.": 1800,
      "▁jà": 1801,
      "san": 1802,
      "▁dókítà": 1803,
      "▁kọrin.": 1804,
      "▁ṣọ́ra.": 1805,
      "▁bò": 1806,
      "nù": 1807,
      "▁rírẹwà": 1808,
      "bọ́sà": 1809,
      "▁ọ̀tọ̀.": 1810,
      "▁àlùbọ́sà": 1811,
      "▁gbí": 1812,
      "▁Ọ̀gbẹ́ni": 1813,
      "▁ní.": 1814,
      "▁fẹ́.": 1815,
      "▁ṣó": 1816,
      "▁dání.": 1817,
      "▁iyan": 1818,
      "▁e.": 1819,
      "lé.": 1820,
      "▁ṣàlàyé": 1821,
      "▁agbára": 1822,
      "lúwà": 1823,
      "lúwàbí": 1824,
      "▁o!": 1825,
      "▁gbà.": 1826,
      "▁Ìyẹn": 1827,
      "kùu": 1828,
      "▁eérú": 1829,
      "▁lọ́dọ̀": 1830,
      "kán": 1831,
      "▁ọmọlúwàbí": 1832,
      "lie": 1833,
      "▁pẹ̀pẹ̀.": 1834,
      "▁rẹ̀!": 1835,
      "▁iye": 1836,
      "▁iyanrìn": 1837,
      "pin": 1838,
      "▁jì": 1839,
      "▁ọ.": 1840,
      "▁onínúure.": 1841,
      "▁kọjá.": 1842,
      "▁àtàtà": 1843,
      "ájí": 1844,
      "▁ọba": 1845,
      "tílà": 1846,
      "▁kánkán": 1847,
      "▁díẹ̀díẹ̀": 1848,
      "▁fìtílà": 1849,
      "▁rẹ?\"": 1850,
      "ṣìṣe": 1851,
      "▁dáńg": 1852,
      "▁dáńgájí": 1853,
      "▁lónìí": 1854,
      "▁wí": 1855,
      "os": 1856,
      "▁Emma": 1857,
      "▁náà!\"": 1858,
      "▁ìṣúra": 1859,
      "álí": 1860,
      "▁páálí": 1861,
      "▁yàtọ̀": 1862,
      "▁san": 1863,
      "▁ṣeré?\"": 1864,
      "▁ìyàlẹ́nu": 1865,
      "▁ìrò": 1866,
      "▁òótọ́": 1867,
      "▁péré": 1868,
      "▁Anna.": 1869,
      "▁dìde": 1870,
      "▁àtijọ́": 1871,
      "▁àáké": 1872,
      "èwé": 1873,
      "▁àkàn": 1874,
      "▁àkànṣe": 1875,
      "▁eyín": 1876,
      "jìn": 1877,
      "we": 1878,
      "▁abẹ́": 1879,
      "▁òǹtẹ̀": 1880,
      "▁lí": 1881,
      "▁koríko.": 1882,
      "▁oko": 1883,
      "▁kọjá,": 1884,
      "▁níta,": 1885,
      "▁rọrùn": 1886,
      "▁ìwọ": 1887,
      "ily,": 1888,
      "▁wọ̀": 1889,
      "▁rọ́": 1890,
      "▁ṣókùnkùn": 1891,
      "▁mi!\"": 1892,
      "▁ìgbésí": 1893,
      "▁juwọ́": 1894,
      "▁ìbí": 1895,
      "tàn": 1896,
      "▁kígbe.": 1897,
      "▁dárí": 1898,
      "▁\"Ọ": 1899,
      "dù": 1900,
      "▁lọ\".": 1901,
      "▁Jimmy": 1902,
      "▁yọ́": 1903,
      "at": 1904,
      "pẹ́,": 1905,
      "ẹ́ẹ̀tì": 1906,
      "gbọ̀n": 1907,
      "ìtú": 1908,
      "dììtú": 1909,
      "▁màmá,": 1910,
      "▁búlọ́ọ̀kù": 1911,
      "fi": 1912,
      "luff": 1913,
      "▁ọbẹ̀": 1914,
      "▁ṣo": 1915,
      "ògùn": 1916,
      "▁é,": 1917,
      "áàsì": 1918,
      "▁sọ̀rọ̀,": 1919,
      "▁ará": 1920,
      "erry": 1921,
      "▁sùúrù": 1922,
      "▁Ojú": 1923,
      "èkì": 1924,
      "▁àyíká,": 1925,
      "▁bójú": 1926,
      "▁èmi": 1927,
      "▁jin": 1928,
      "▁ìtajà": 1929,
      "▁gan-an\".": 1930,
      "tún": 1931,
      "▁ìsà": 1932,
      "▁pa,": 1933,
      "▁dírágónì": 1934,
      "▁Ọ̀dọ́mọkùnrin": 1935,
      "▁gi": 1936,
      "▁kéèkì": 1937,
      "▁rìn,": 1938,
      "▁báyìí,": 1939,
      "▁béèrè.": 1940,
      "▁Sammy": 1941,
      "▁ṣe?\"": 1942,
      "▁yíká,": 1943,
      "▁dù": 1944,
      "▁Fluff": 1945,
      "ìsàn": 1946,
      "tútù": 1947,
      "▁náà?\"": 1948,
      "▁ohunkóhun": 1949,
      "▁òtútù": 1950,
      "▁a,": 1951,
      "ríì": 1952,
      "▁gíga": 1953,
      "▁lọ!\"": 1954,
      "▁àdàbà": 1955,
      "úpọ̀": 1956,
      "▁púpọ̀": 1957,
      "ọ̀ọ́": 1958,
      "▁osan": 1959,
      "èé": 1960,
      "màrè": 1961,
      "▁àdììtú": 1962,
      "▁Láì": 1963,
      "▁gbọn": 1964,
      "▁ọ̀ṣọ́": 1965,
      "▁nísinsìnyí": 1966,
      "▁lẹ́gbẹ̀ẹ́": 1967,
      "▁ìtẹ́": 1968,
      "je": 1969,
      "▁káàdì": 1970,
      "▁ṣètò": 1971,
      "rùpẹ̀": 1972,
      "úgbò": 1973,
      "dùúgbò": 1974,
      "▁lásán": 1975,
      "▁ṣúgà": 1976,
      "▁ẹ̀wù": 1977,
      "kàṣì": 1978,
      "▁wàràkàṣì": 1979,
      "▁yìí.": 1980,
      "▁fúnra": 1981,
      "▁etíkun.": 1982,
      "▁débẹ̀,": 1983,
      "▁ààrò": 1984,
      "▁nìyí": 1985,
      "▁kan!": 1986,
      "▁ọn,": 1987,
      "ce": 1988,
      "▁oríṣi": 1989,
      "▁ìka": 1990,
      "▁dáhùn": 1991,
      "▁oògùn": 1992,
      "▁àgbẹ̀": 1993,
      "▁ọ̀run,": 1994,
      "▁aládé": 1995,
      "▁míì.": 1996,
      "▁yọ̀": 1997,
      "óònù": 1998,
      "pẹ": 1999,
      "or": 2000,
      "ọ́n.": 2001,
      "▁ban": 2002,
      "▁ewéko": 2003,
      "▁òkun.": 2004,
      "árò": 2005,
      "▁kábàámọ̀.": 2006,
      "▁Ọ̀pọ̀lọpọ̀": 2007,
      "▁Mia.": 2008,
      "▁ẹ́,": 2009,
      "▁fò,": 2010,
      "▁sódò.": 2011,
      "fà": 2012,
      "▁erin": 2013,
      "▁kankan.": 2014,
      "▁olùkọ́": 2015,
      "▁èé": 2016,
      "▁ṣẹlẹ̀,": 2017,
      "▁jáwọ́": 2018,
      "▁dè": 2019,
      "▁kankan": 2020,
      "▁oríṣiríṣi": 2021,
      "ṣẹ": 2022,
      "▁ilé.": 2023,
      "▁ṣàjèjì.": 2024,
      "▁gágá,": 2025,
      "▁rọ̀.": 2026,
      "▁imú": 2027,
      "▁fọ́tò": 2028,
      "fín": 2029,
      "▁rẹ̀\".": 2030,
      "▁Wàyí": 2031,
      "gungun": 2032,
      "▁sa": 2033,
      "▁El": 2034,
      "▁Orúkọ": 2035,
      "bíye": 2036,
      "▁ìròyìn": 2037,
      "dìyẹ": 2038,
      "▁òṣùmàrè": 2039,
      "láàsì": 2040,
      "▁Tim.": 2041,
      "▁a.": 2042,
      "▁ṣọ̀": 2043,
      "▁mì": 2044,
      "rànwọ́": 2045,
      "▁ṣèrànwọ́": 2046,
      "▁òwúr": 2047,
      "▁aláyọ̀": 2048,
      "▁yẹ̀": 2049,
      "▁Obìnrin": 2050,
      "▁igbó,": 2051,
      "▁túmọ̀": 2052,
      "▁àṣìṣe": 2053,
      "▁mi?\"": 2054,
      "▁láìpẹ́": 2055,
      "▁pariwo,": 2056,
      "▁Àgbò": 2057,
      "▁erùpẹ̀": 2058,
      "▁rùn": 2059,
      "▁egungun": 2060,
      "▁gan-an!\"": 2061,
      "▁sáré.": 2062,
      "▁dàá": 2063,
      "▁kára": 2064,
      "ear": 2065,
      "▁ebi": 2066,
      "▁báyìí.": 2067,
      "▁láyọ̀,": 2068,
      "▁Le": 2069,
      "▁múnú": 2070,
      "rẹ̀ẹ́": 2071,
      "▁banú": 2072,
      "▁u": 2073,
      "▁ìjì": 2074,
      "▁délé,": 2075,
      "gùntàn": 2076,
      "▁nu": 2077,
      "ǹṣì": 2078,
      "zz": 2079,
      "ẹ́g": 2080,
      "▁bẹ́ǹṣì": 2081,
      "▁adìyẹ": 2082,
      ".\"": 2083,
      "ṣọ̀n": 2084,
      "fíṣọ̀n": 2085,
      "unk": 2086,
      "▁là": 2087,
      "▁ọlọ́pàá": 2088,
      "pọ": 2089,
      "▁fẹ́rẹ̀ẹ́": 2090,
      "▁ọrùn": 2091,
      "òótọ́": 2092,
      "▁dùbú": 2093,
      "▁kalẹ̀.": 2094,
      "rọ̀.": 2095,
      "▁Twe": 2096,
      "▁lálẹ́": 2097,
      "▁ránṣẹ́": 2098,
      "▁kejì": 2099,
      "▁pẹ̀pẹ̀,": 2100,
      "▁sódò,": 2101,
      "a,": 2102,
      "▁fìríì": 2103,
      "▁ṣeré\".": 2104,
      "unk>": 2105,
      "y,": 2106,
      "▁kan\".": 2107,
      "▁pí": 2108,
      "kú": 2109,
      "▁jíjìn": 2110,
      "▁ìṣẹ́": 2111,
      "▁ìbọn": 2112,
      "▁ṣèwádìí.": 2113,
      "▁pupa,": 2114,
      "▁ìjókòó.": 2115,
      "▁tẹlifíṣọ̀n": 2116,
      "▁'": 2117,
      "▁gígùn.": 2118,
      "▁fò.": 2119,
      "úrà": 2120,
      "▁dé,": 2121,
      "▁jọ.": 2122,
      "▁nítòsí.": 2123,
      "▁tù": 2124,
      "▁gùn": 2125,
      "▁Láìpẹ́,": 2126,
      "▁\"Jọ̀wọ́": 2127,
      "▁sẹ́gbẹ̀ẹ́": 2128,
      "▁ewu": 2129,
      "▁díwọ̀n": 2130,
      "ẹ́gẹ́": 2131,
      "▁ẹlẹ́": 2132,
      "▁Re": 2133,
      "▁Jenny": 2134,
      "▁c": 2135,
      "▁ẹrù": 2136,
      "▁\"Ẹ̀": 2137,
      "fóònù": 2138,
      "▁tábìlì.": 2139,
      "▁sàn": 2140,
      "▁ìs": 2141,
      "▁yẹ̀yẹ́": 2142,
      "▁àṣírí": 2143,
      "▁lẹ́wà.": 2144,
      "▁wa\".": 2145,
      "▁láé": 2146,
      "▁tímọ́tímọ́,": 2147,
      "▁tẹ́lẹ̀": 2148,
      "▁Timmy.": 2149,
      "▁Ọ̀g": 2150,
      "▁ọ̀nà.": 2151,
      "▁lókè": 2152,
      "mọ̀ràn": 2153,
      "▁mí.": 2154,
      "▁pátá": 2155,
      "▁ìwò": 2156,
      "▁\"Lily,": 2157,
      "▁Ìdí": 2158,
      "▁pẹ̀lẹ́": 2159,
      "▁líle": 2160,
      "▁búrẹ́dì.": 2161,
      "▁rárá,": 2162,
      "sẹ̀,": 2163,
      "▁lèyí": 2164,
      "▁àgùntàn": 2165,
      "lan": 2166,
      "▁fo": 2167,
      "▁ìwòsàn": 2168,
      "▁Àpótí": 2169,
      "▁ṣọ́ra,": 2170,
      "▁tuntun,": 2171,
      "▁gẹ́gẹ́": 2172,
      "▁wé": 2173,
      "ṣeyọ": 2174,
      "▁pẹ̀lú.": 2175,
      "▁ké,": 2176,
      "▁bọ́gbọ́n": 2177,
      "▁dára.": 2178,
      "áwo": 2179,
      "▁ẹyin": 2180,
      "▁rin": 2181,
      "▁\"N": 2182,
      "▁ọ̀dọ́mọkùnrin": 2183,
      "ẹni": 2184,
      "▁\"S": 2185,
      "ètì": 2186,
      "▁dáa.": 2187,
      "-ún": 2188,
      "▁\"Ìwọ": 2189,
      "▁gò": 2190,
      "dòdò": 2191,
      "gbẹ̀": 2192,
      "▁èèyàn.": 2193,
      "▁rírẹ̀": 2194,
      "▁rírẹ̀dòdò": 2195,
      "▁fọkàn": 2196,
      "▁naa": 2197,
      "▁òru": 2198,
      "▁ẹranko.": 2199,
      "▁ṣàjèjì": 2200,
      "▁mọ̀.": 2201,
      "▁nǹkan,": 2202,
      "mo": 2203,
      "▁ba,": 2204,
      "ṣeyọrí": 2205,
      "▁ìbejì": 2206,
      "tten": 2207,
      "éèrè": 2208,
      "▁wẹ̀": 2209,
      "kolé": 2210,
      "▁ìdáná,": 2211,
      "koléètì": 2212,
      "gbìn": 2213,
      "ttens": 2214,
      "▁ràn,": 2215,
      "▁kọrin,": 2216,
      "by": 2217,
      "▁ilẹ̀kùn,": 2218,
      "rìṣ": 2219,
      "▁níwájú": 2220,
      "▁ìṣẹ́jú": 2221,
      "▁ìrọ̀rí": 2222,
      "andy": 2223,
      "▁tuni": 2224,
      "▁jà.": 2225,
      "▁Jọ̀wọ́": 2226,
      "▁ẹtu": 2227,
      "kíbi": 2228,
      "▁òní": 2229,
      "▁Mittens": 2230,
      "gọ́": 2231,
      "▁i\".": 2232,
      "▁òun,": 2233,
      "▁iyebíye": 2234,
      "▁Fluffy": 2235,
      "ṣẹ̀": 2236,
      "▁ìbéèrè": 2237,
      "▁ìgbì": 2238,
      "▁ṣubú.": 2239,
      "▁ṣokoléètì": 2240,
      "▁dáńgájíá": 2241,
      "▁gidi": 2242,
      "▁láàárín": 2243,
      "▁búlúù.": 2244,
      "▁mu.": 2245,
      "túnṣe": 2246,
      "▁àjà": 2247,
      "▁akọ": 2248,
      "▁Ch": 2249,
      "▁aládùúgbò": 2250,
      "wàdà": 2251,
      "▁igi.": 2252,
      "▁ayọ̀.": 2253,
      "▁páì": 2254,
      "▁ọn.": 2255,
      "tìjú": 2256,
      "▁Pet": 2257,
      "▁wọ̀.": 2258,
      "▁dùbúlẹ̀": 2259,
      "▁pé.": 2260,
      "▁mọ́\".": 2261,
      "rìṣà": 2262,
      "▁ìdá": 2263,
      "▁léṣe.": 2264,
      "▁dún.": 2265,
      "▁ilé,": 2266,
      "gidi": 2267,
      "gbẹ": 2268,
      "àdà": 2269,
      "▁tan": 2270,
      "▁ìkà": 2271,
      "▁Ebi": 2272,
      "▁ní:": 2273,
      "▁àwàdà": 2274,
      "▁kígbe,": 2275,
      "▁Bu": 2276,
      "▁Ẹni": 2277,
      "▁bọ̀wọ̀": 2278,
      "dédé": 2279,
      "▁ṣàdédé": 2280,
      "▁jí,": 2281,
      "▁Sá": 2282,
      "▁wò,": 2283,
      "kẹ̀": 2284,
      "ọ́ń": 2285,
      "▁Emily": 2286,
      "ìmù": 2287,
      "▁láìsí": 2288,
      "▁àwọ̀n": 2289,
      "▁ṣiṣẹ́.": 2290,
      "▁e,": 2291,
      "▁Má": 2292,
      "▁tónítóní.": 2293,
      "▁lọ!": 2294,
      "ṣìṣẹ́": 2295,
      "ṣè": 2296,
      "▁níbẹ̀,": 2297,
      "sílẹ̀": 2298,
      "▁paná": 2299,
      "▁igun": 2300,
      "▁gòkè": 2301,
      "ya": 2302,
      "▁sọn": 2303,
      "▁páìpù": 2304,
      "▁ṣàárò": 2305,
      "▁í.": 2306,
      "▁lulẹ̀.": 2307,
      "▁àjàrà": 2308,
      "jìnnì": 2309,
      "▁jìnnì": 2310,
      "▁jìnnìjìnnì": 2311,
      "▁lágbára.": 2312,
      "▁òkè.": 2313,
      "▁gágá": 2314,
      "▁Olù": 2315,
      "▁Sara.": 2316,
      "▁sùn,": 2317,
      "▁ìfẹ́": 2318,
      "rọ̀,": 2319,
      "▁Omi": 2320,
      "▁onínúure,": 2321,
      "▁aládùn.": 2322,
      "díò": 2323,
      "▁mọ́ni,": 2324,
      "▁gbáko": 2325,
      "▁\"Wọ́n": 2326,
      "▁Ará": 2327,
      "▁Ilé": 2328,
      "▁abú": 2329,
      "▁òpin": 2330,
      "▁fìríìjì": 2331,
      "yáà": 2332,
      "▁Sárà": 2333,
      "yáàfin": 2334,
      "om,": 2335,
      "▁<unk>": 2336,
      "▁ìdáná": 2337,
      "▁Mar": 2338,
      "▁ejò": 2339,
      "▁ṣàìsàn": 2340,
      "▁pòórá.": 2341,
      "▁tẹnutẹnu,": 2342,
      "▁Lis": 2343,
      "▁parí,": 2344,
      "▁kíkankíkan,": 2345,
      "na": 2346,
      "ju": 2347,
      "▁Nígbàkigbà": 2348,
      "▁ji": 2349,
      "▁ká,": 2350,
      "▁abúlé": 2351,
      "lọ̀": 2352,
      "▁Ìyáàfin": 2353,
      "▁Rex": 2354,
      "urú": 2355,
      "▁tẹlifóònù": 2356,
      "rún": 2357,
      "▁\"Àwọn": 2358,
      "áfí": 2359,
      "▁ìjẹ": 2360,
      "▁ẹrẹ̀": 2361,
      "lùwẹ̀": 2362,
      "▁balùwẹ̀": 2363,
      "▁yanjú": 2364,
      "kọ̀ọ́kọ́": 2365,
      "▁teddy": 2366,
      "▁yín.": 2367,
      "▁ìdánwò": 2368,
      "▁pẹ": 2369,
      "▁jọ̀ọ́": 2370,
      "\"\"\"": 2371,
      "▁èèr": 2372,
      "▁\"Kì": 2373,
      "▁Ros": 2374,
      "ọni": 2375,
      "▁jó.": 2376,
      "langidi": 2377,
      "▁ọgbà,": 2378,
      "▁ooru": 2379,
      "▁\"Ẹ̀yin": 2380,
      "▁ọmọlangidi": 2381,
      "yẹ̀pẹ̀": 2382,
      "▁iyẹ̀pẹ̀": 2383,
      "▁kíkankíkan": 2384,
      "▁bi": 2385,
      "▁ayé.": 2386,
      "▁ṣàtúnṣe": 2387,
      "▁àkàbà": 2388,
      "▁\"Ní": 2389,
      "▁ẹgbẹ́": 2390,
      "▁ṣàníyàn.": 2391,
      "▁gbígbó": 2392,
      "▁sí,": 2393,
      "▁igi,": 2394,
      "▁Ibi": 2395,
      "▁Lisa": 2396,
      "▁tó,": 2397,
      "▁tẹnutẹnu.": 2398,
      "▁gbígbóná": 2399,
      "▁lọ́wọ́\".": 2400,
      "▁mọ̀,": 2401,
      "lue": 2402,
      "▁an,": 2403,
      "▁ṣubú,": 2404,
      "kàtí": 2405,
      "▁È": 2406,
      "ọ́ńbà": 2407,
      "▁po": 2408,
      "tara": 2409,
      "▁kórè": 2410,
      "ati": 2411,
      "▁ìtara": 2412,
      "ǹtí": 2413,
      "rúnkún": 2414,
      "▁ṣàṣeyọrí": 2415,
      "▁ìrànlọ́wọ́.": 2416,
      "▁orúnkún": 2417,
      "▁èèrà": 2418,
      "▁tirẹ̀.": 2419,
      "▁\"m": 2420,
      "▁ìdíje": 2421,
      "▁Sam,": 2422,
      "▁gbẹ́": 2423,
      "▁Jack.": 2424,
      "▁ij": 2425,
      "yàwó": 2426,
      "▁ilẹ̀kùn.": 2427,
      "▁gbin": 2428,
      "▁Mà": 2429,
      "▁oúnjẹ.": 2430,
      "▁Màrí": 2431,
      "▁af": 2432,
      "▁Ali": 2433,
      "bọn": 2434,
      "▁láyé": 2435,
      "▁Igi": 2436,
      "ìtì": 2437,
      "▁dé.": 2438,
      "koo": 2439,
      "kookò": 2440,
      "▁de": 2441,
      "▁Jake": 2442,
      "▁mi!": 2443,
      "▁An": 2444,
      "kẹ́kọ̀ọ́": 2445,
      "jẹ́ẹ́": 2446,
      "▁yìnbọn": 2447,
      "▁lọ́la": 2448,
      "ǹbù": 2449,
      "▁Ìdílé": 2450,
      "▁fíìmù": 2451,
      "▁\"D": 2452,
      "ówù": 2453,
      "▁kódà": 2454,
      "▁yòówù": 2455,
      "sie": 2456,
      "▁Teddy": 2457,
      "▁ọ̀w": 2458,
      "▁là.": 2459,
      "▁àlàáfí": 2460,
      "▁ọ́.": 2461,
      "▁jàǹ": 2462,
      "hìn": 2463,
      "ńlá": 2464,
      "▁ńláńlá": 2465,
      "▁Èyí": 2466,
      "▁kù": 2467,
      "▁amọ̀": 2468,
      "▁èéfín": 2469,
      "▁Tó": 2470,
      "▁panáp": 2471,
      "tty": 2472,
      "▁dípò": 2473,
      "▁àyíká.": 2474,
      "▁ìdárayá.": 2475,
      "▁Nísinsìnyí": 2476,
      "▁ìp": 2477,
      "▁Kìnnìún": 2478,
      "ọ́ọ̀tì": 2479,
      "▁bear": 2480,
      "jìji": 2481,
      "hìn-ín": 2482,
      "té": 2483,
      "▁létí": 2484,
      "▁ẹ́\".": 2485,
      "▁Max,": 2486,
      "▁jẹ,": 2487,
      "e,": 2488,
      "▁bọ́ọ̀lù.": 2489,
      "▁Tweet": 2490,
      "▁Spot.": 2491,
      "▁jàǹbá": 2492,
      "▁búlúù,": 2493,
      "árọ̀": 2494,
      "ọ̀kan": 2495,
      "▁ak": 2496,
      "▁nọ́ńbà": 2497,
      "▁àforíjì.": 2498,
      "▁àtẹ̀gùn.": 2499,
      "▁wọ̀,": 2500,
      "▁Bọ́ọ̀lù": 2501,
      "▁òdòdó.": 2502,
      "▁Z": 2503,
      "▁do": 2504,
      "▁afárá": 2505,
      "▁lẹ́rù.": 2506,
      "▁lù": 2507,
      "▁ẹ̀mí": 2508,
      "▁òrùlé": 2509,
      "▁ṣàwàdà": 2510,
      "▁bẹ̀rù.": 2511,
      "▁bọ̀.": 2512,
      "▁yòókù.": 2513,
      "▁ijó": 2514,
      "▁alẹ́.": 2515,
      "▁Mary": 2516,
      "▁\"Ìyẹn": 2517,
      "▁àgọ́": 2518,
      "▁ké.": 2519,
      "kùukùu": 2520,
      "▁ìṣeré.": 2521,
      "jé": 2522,
      "▁ín": 2523,
      "▁wọ̀n": 2524,
      "▁ṣọ́ọ̀bù.": 2525,
      "▁Ọ̀rọ̀": 2526,
      "éèyàn": 2527,
      "bọ́ọ̀tì": 2528,
      "▁téèyàn": 2529,
      "▁níhìn-ín": 2530,
      "▁jow": 2531,
      "▁Nísinsìnyí,": 2532,
      "pẹ́ẹ̀tì": 2533,
      "▁jowú": 2534,
      "ápàá": 2535,
      "▁pàápàá": 2536,
      "▁ọjà": 2537,
      "▁wúlò": 2538,
      "▁díẹ̀díẹ̀.": 2539,
      "▁lójoojúmọ́,": 2540,
      "py": 2541,
      "▁irúgbìn": 2542,
      "▁fèrèsé,": 2543,
      "▁ẹ.": 2544,
      "▁wákàtí": 2545,
      "▁Fr": 2546,
      "▁àwo": 2547,
      "▁akọni": 2548,
      "▁ọjọ": 2549,
      "ch": 2550,
      "▁òfuurufú.": 2551,
      "-ẹni": 2552,
      "-ẹni-": 2553,
      "▁Màríà": 2554,
      "uck": 2555,
      "▁ìjókòó,": 2556,
      "▁ọ̀sán.": 2557,
      "▁kalẹ̀,": 2558,
      "▁pi": 2559,
      "▁ọ̀sìn": 2560,
      "▁sala": 2561,
      "▁kápẹ́ẹ̀tì": 2562,
      "▁jó,": 2563,
      "▁òjìji": 2564,
      "▁gbọ́.": 2565,
      "▁\"Ben": 2566,
      "▁i!": 2567,
      "▁jẹ́!": 2568,
      "▁rọ̀,": 2569,
      "bẹ̀wò": 2570,
      "▁gbára": 2571,
      "▁yá.": 2572,
      "▁kábàámọ̀,": 2573,
      "▁pàà": 2574,
      "▁Ki": 2575,
      "▁Leo": 2576,
      "▁Òó": 2577,
      "▁gígùn,": 2578,
      "▁yàwòrán.": 2579,
      "▁àjè": 2580,
      "▁àkọ́": 2581,
      "▁àkọ́kọ́": 2582,
      "▁nílé": 2583,
      "▁kàm": 2584,
      "▁kàmàm": 2585,
      "▁gbìyànjú,": 2586,
      "▁Ìb": 2587,
      "▁arákùnrin": 2588,
      "▁dìde,": 2589,
      "▁Lẹ́": 2590,
      "sẹ̀kẹ": 2591,
      "▁ewé.": 2592,
      "▁gúnlẹ̀.": 2593,
      "▁láìpẹ́.": 2594,
      "wẹ́": 2595,
      "▁é!": 2596,
      "▁òṣùpá": 2597,
      "hin": 2598,
      "▁ẹ̀dá": 2599,
      "▁àgbà.": 2600,
      "▁tìrẹ": 2601,
      "wárí": 2602,
      "ẹ̀lú": 2603,
      "▁ṣàwárí": 2604,
      "▁yọ̀y": 2605,
      "am": 2606,
      "▁pààrọ̀": 2607,
      "mọtara": 2608,
      "▁Johnn": 2609,
      "-ẹni-nì": 2610,
      "▁ńlá.": 2611,
      "mọtara-ẹni-nì": 2612,
      "▁máà": 2613,
      "▁jíjìn.": 2614,
      "rísí": 2615,
      "ère.": 2616,
      "▁Pẹ̀lú": 2617,
      "▁é!\"": 2618,
      "gbèé": 2619,
      "ìíká": 2620,
      "▁láyìíká": 2621,
      "▁Anna,": 2622,
      "mìn": 2623,
      "▁tẹ́lẹ̀.": 2624,
      "mìni": 2625,
      "▁nigba": 2626,
      "▁alágbèé": 2627,
      "▁èè": 2628,
      "rírì": 2629,
      "▁fẹ́,": 2630,
      "▁ètò": 2631,
      "▁án,": 2632,
      "ve": 2633,
      "▁àárín": 2634,
      "▁koríko,": 2635,
      "▁ìgboyà,": 2636,
      "▁Oúnjẹ": 2637,
      "▁fọ́.": 2638,
      "nie": 2639,
      "▁móoru.": 2640,
      "▁alágbèéká": 2641,
      "▁ẹlẹ́dẹ̀": 2642,
      "▁gbogbo,": 2643,
      "▁yìnyín.": 2644,
      "tẹ́": 2645,
      "▁jiyàn": 2646,
      "▁fífi": 2647,
      "gbọ": 2648,
      "▁tẹjú": 2649,
      "▁wó": 2650,
      "▁kọlu": 2651,
      "pọ́n": 2652,
      "▁ìwà": 2653,
      "▁wa,": 2654,
      "▁jẹun.": 2655,
      "▁bọ́ọ̀sì": 2656,
      "▁Ìgbọ̀n": 2657,
      "▁irinṣẹ́": 2658,
      "èsì": 2659,
      "▁fèsì": 2660,
      "▁bọ́.": 2661,
      "low": 2662,
      "berry": 2663,
      "row": 2664,
      "▁léwu.": 2665,
      "▁Alice": 2666,
      "pùpù": 2667,
      "lùpùpù": 2668,
      "▁kiri,": 2669,
      "▁jẹ́!\"": 2670,
      "àmú": 2671,
      "▁panápaná": 2672,
      "▁òṣìṣẹ́": 2673,
      "▁jinlẹ̀": 2674,
      "▁alùpùpù": 2675,
      "▁bẹ́ẹ̀\".": 2676,
      "▁ìbò": 2677,
      "▁èèpo": 2678,
      "▁ìbòjú": 2679,
      "▁adé": 2680,
      "▁ọ́n.": 2681,
      "▁rà": 2682,
      "▁lóhùn.": 2683,
      "▁Lọ́tẹ̀": 2684,
      "kẹyìn": 2685,
      "▁àní": 2686,
      "▁yín,": 2687,
      "▁lágbára,": 2688,
      "▁kanlẹ̀,": 2689,
      "▁tónítóní,": 2690,
      "▁Sue.": 2691,
      "▁tútù": 2692,
      "▁Ìwà": 2693,
      "▁í,": 2694,
      "▁ìtura.": 2695,
      "▁ìf": 2696,
      "▁lẹ́wà,": 2697,
      "▁wi": 2698,
      "▁olóòótọ́": 2699,
      "▁etíkun,": 2700,
      "▁\"Ibo": 2701,
      "▁nìyí.": 2702,
      "gbin": 2703,
      "▁Tim!": 2704,
      "sé.": 2705,
      "sinmi": 2706,
      "h,": 2707,
      "▁\"Tom,": 2708,
      "▁ìjà": 2709,
      "ee": 2710,
      "▁àtẹ̀gùn,": 2711,
      "▁Mark": 2712,
      "▁fèrèsé.": 2713,
      "▁ìlù": 2714,
      "míì": 2715,
      "▁\"màmá": 2716,
      "▁Lẹ́sẹ̀kẹ": 2717,
      "▁ọtí": 2718,
      "má": 2719,
      "▁àfi": 2720,
      "▁ikùn": 2721,
      "▁wálé": 2722,
      "▁àwò": 2723,
      "▁gbé,": 2724,
      "▁ìlẹ̀": 2725,
      "▁Láà": 2726,
      "▁gbajú": 2727,
      "▁sinmi.": 2728,
      "▁ìkookò": 2729,
      "▁ìdọ̀tí": 2730,
      "▁\"Dúró": 2731,
      "rùngbọ̀n": 2732,
      "▁méjì.": 2733,
      "▁tọ̀": 2734,
      "▁tọ́.": 2735,
      "▁Li": 2736,
      "▁irùngbọ̀n": 2737,
      "rawò": 2738,
      "▁ìdánrawò": 2739,
      "▁àkọ": 2740,
      "▁Àwòrán": 2741,
      "▁Ìtìjú": 2742,
      "▁rọ́bọ́ọ̀tì": 2743,
      "▁ọgbọ́n": 2744,
      "▁ṣèbẹ̀wò": 2745,
      "▁òkè,": 2746,
      "▁lily": 2747,
      "▁àsí": 2748,
      "▁yìí?\"": 2749,
      "▁níṣ": 2750,
      "kejì": 2751,
      "▁Dí": 2752,
      "▁ọṣẹ": 2753,
      "▁jọ̀ọ́,": 2754,
      "▁láàmú": 2755,
      "▁\"H": 2756,
      "▁Timmy,": 2757,
      "▁\"Ben,": 2758,
      "▁Ìbejì": 2759,
      "afẹ́": 2760,
      "▁ogun": 2761,
      "▁ìgbafẹ́": 2762,
      "▁kíyè": 2763,
      "▁jókòó,": 2764,
      "▁òǹrorò.": 2765,
      "▁i?\"": 2766,
      "▁ìyẹ̀": 2767,
      "▁Ọ̀gẹ̀dẹ̀": 2768,
      "▁kẹ̀kẹ́.": 2769,
      "▁tọ̀nà": 2770,
      "▁Johnny": 2771,
      "▁ìsinmi": 2772,
      "▁ẹranko,": 2773,
      "▁\"Ta": 2774,
      "▁ọlọ́rọ̀": 2775,
      "▁alágbára": 2776,
      "▁kànga": 2777,
      "fààní": 2778,
      "▁ìrọ̀lẹ́": 2779,
      "▁ìjẹko": 2780,
      "▁ṣeré!\"": 2781,
      "▁Ìmọ̀ràn": 2782,
      "▁òrìṣà": 2783,
      "▁ìṣeré,": 2784,
      "▁ìgboyà.": 2785,
      "▁òdòdó,": 2786,
      "aba": 2787,
      "▁fẹ̀": 2788,
      "ókù": 2789,
      "au": 2790,
      "tìnnì": 2791,
      "ǹfààní": 2792,
      "▁rẹwà": 2793,
      "▁ọmọdé.": 2794,
      "▁kíá": 2795,
      "▁ìje": 2796,
      "▁hàn.": 2797,
      "ack": 2798,
      "▁mèremère.": 2799,
      "▁Aṣọ": 2800,
      "▁Báwo": 2801,
      "▁ayọ́kẹ́lẹ́.": 2802,
      "▁gbọ̀ngàn": 2803,
      "▁\"Jọ̀wọ́,": 2804,
      "fò": 2805,
      "▁lúwẹ̀ẹ́,": 2806,
      "▁kiri.": 2807,
      "▁àbá": 2808,
      "▁Ohùn": 2809,
      "▁dígí": 2810,
      "▁síta": 2811,
      "▁Lati": 2812,
      "▁kára,": 2813,
      "▁jálẹ̀.": 2814,
      "kun": 2815,
      "▁kíláàsì": 2816,
      "▁Bun": 2817,
      "▁dọ̀tí.": 2818,
      "lp": 2819,
      "▁àjèjì": 2820,
      "▁ọ̀rẹ́,": 2821,
      "▁ìwo": 2822,
      "gbẹ́yín": 2823,
      "gbẹ̀yìn": 2824,
      "gbẹ̀yìngbẹ́yín": 2825,
      "▁Nínú": 2826,
      "▁\"Wá": 2827,
      "▁gíláàsì": 2828,
      "▁Lo": 2829,
      "ge": 2830,
      "▁ògiri.": 2831,
      "▁ẹnikẹ́ni.": 2832,
      "▁yẹ̀yẹ́.": 2833,
      "▁ìlà": 2834,
      "ella": 2835,
      "▁iléèwé": 2836,
      "▁Òjò": 2837,
      "▁ìsàlẹ̀": 2838,
      "▁Lẹ́sẹ̀kẹsẹ̀,": 2839,
      "gh": 2840,
      "▁omijé": 2841,
      "▁pó": 2842,
      "▁ìle": 2843,
      "▁pópó": 2844,
      "▁jọ̀wọ́,": 2845,
      "▁dín": 2846,
      "▁ọlọ́gbọ́n": 2847,
      "elly": 2848,
      "▁Dókítà": 2849,
      "▁ayọ́kẹ́lẹ́,": 2850,
      "▁èdè": 2851,
      "▁pàǹtí": 2852,
      "kọ̀ọ́kọ́,": 2853,
      "▁pàǹtírí": 2854,
      "ina": 2855,
      "▁ìgbọ́": 2856,
      "gbọràn": 2857,
      "▁ọpọ́n": 2858,
      "▁jẹun,": 2859,
      "ránṣẹ́": 2860,
      "ini": 2861,
      "▁ẹ\".": 2862,
      "▁kọ́.": 2863,
      "▁ìkọ̀": 2864,
      "▁méjì,": 2865,
      "▁olórin": 2866,
      "▁Arákùnrin": 2867,
      "▁dàárọ̀,": 2868,
      "▁láìsé": 2869,
      "▁láìséwu": 2870,
      "▁ààbò.": 2871,
      "▁kàmàmà": 2872,
      "▁ìkùukùu": 2873,
      "gbọn": 2874,
      "jú.": 2875,
      "-à": 2876,
      "▁nígboyà": 2877,
      "▁idà": 2878,
      "▁àkọsílẹ̀": 2879,
      "▁i!\"": 2880,
      "▁rẹ̀?\"": 2881,
      "▁àsíá": 2882,
      "▁fọ́n": 2883,
      "▁màmá?\"": 2884,
      "▁àwòkẹ́kọ̀ọ́": 2885,
      "jìká": 2886,
      "dùnnú": 2887,
      "▁bínú,": 2888,
      "▁ṣin": 2889,
      "▁èjìká": 2890,
      "▁ṣinṣin": 2891,
      "olly": 2892,
      "▁sanra": 2893,
      "▁búrẹ́dì,": 2894,
      "▁pẹlu": 2895,
      "▁kùn": 2896,
      "▁burúkú.": 2897,
      "▁Lóru": 2898,
      "▁Láàárọ̀": 2899,
      "▁onímọtara-ẹni-nì": 2900,
      "▁\"Inú": 2901,
      "i.": 2902,
      "▁bọ́tìnnì": 2903,
      "▁kanlẹ̀.": 2904,
      "▁ayaba": 2905,
      "aur": 2906,
      "▁lóji": 2907,
      "▁dàárọ̀.": 2908,
      "▁àbí": 2909,
      "▁sunwọ̀n": 2910,
      "▁Lucy.": 2911,
      "▁lónìí.": 2912,
      "▁Tim,": 2913,
      "▁ọ́n": 2914,
      "▁lẹ": 2915,
      "fun,": 2916,
      "bodè": 2917,
      "ùjọ": 2918,
      "▁àwùjọ": 2919,
      "▁Ọ̀kan": 2920,
      "▁àjò,": 2921,
      "▁Àwọ̀": 2922,
      "lúkú": 2923,
      "lùkù": 2924,
      "lúkúlùkù": 2925,
      "dan": 2926,
      "kọ̀sí": 2927,
      "▁ìgbọ́kọ̀sí": 2928,
      "▁aláì": 2929,
      "▁ṣìn": 2930,
      "▁din": 2931,
      "co": 2932,
      "▁láyè": 2933,
      "▁kíákí": 2934,
      "▁\"\"M": 2935,
      "▁òwúrọ̀,": 2936,
      "▁ṣàkó": 2937,
      "osaur": 2938,
      "▁kejì.": 2939,
      "▁Mia,": 2940,
      "▁síléèwé": 2941,
      "▁ni?\"": 2942,
      "▁dó": 2943,
      "▁yín\".": 2944,
      "▁kóun": 2945,
      "▁ìkó": 2946,
      "▁wọ̀nyí": 2947,
      "rìí": 2948,
      "▁lówó": 2949,
      "▁kẹ́kọ̀ọ́.": 2950,
      "▁Susie": 2951,
      "▁lóúnjẹ": 2952,
      "sẹ": 2953,
      "▁lúwẹ̀ẹ́.": 2954,
      "▁bọ́ọ̀lù,": 2955,
      "▁òwúrọ̀": 2956,
      "▁awọ": 2957,
      "th": 2958,
      "kókò": 2959,
      "▁fídíò": 2960,
      "▁Blue": 2961,
      "▁ẹnubodè": 2962,
      "▁ú.": 2963,
      "▁dà.": 2964,
      "▁oòrùn,": 2965,
      "▁gbò": 2966,
      "▁mẹ́rin": 2967,
      "▁tutù.": 2968,
      "▁abẹ́rẹ́": 2969,
      "▁dinosaur": 2970,
      "▁pátákó": 2971,
      "▁jù,": 2972,
      "rúurú": 2973,
      "▁òkun,": 2974,
      "wèé": 2975,
      "▁wa!\"": 2976,
      "▁dúdú,": 2977,
      "▁ìwẹ̀.": 2978,
      "▁fẹ": 2979,
      "▁Kitty": 2980,
      "▁gbóná.": 2981,
      "▁òní,": 2982,
      "▁Òdòdó": 2983,
      "▁ẹyẹ.": 2984,
      "▁Ṣùgbọ́n": 2985,
      "ho": 2986,
      "ṣinṣin": 2987,
      "▁pop": 2988,
      "▁ìm": 2989,
      "▁Ne": 2990,
      "sì.": 2991,
      "▁Ella": 2992,
      "▁\"Wàyí": 2993,
      "▁\"ní": 2994,
      "▁\"F": 2995,
      "▁palẹ̀": 2996,
      "ello": 2997,
      "▁ìké": 2998,
      "▁Ẹja": 2999,
      "▁léra": 3000,
      "▁ìdùnnú": 3001,
      "▁onírúurú": 3002,
      "▁léralé": 3003,
      "▁látorí": 3004,
      "▁ọ,": 3005,
      "▁st": 3006,
      "▁pátápá": 3007,
      "ràba": 3008,
      "ràbarà": 3009,
      "▁ṣe\".": 3010,
      "▁aláràbarà": 3011,
      "lower": 3012,
      "▁Brow": 3013,
      "lòó": 3014,
      "▁kìlọ̀": 3015,
      "▁àlàáfíà": 3016,
      "tọ̀dọ̀": 3017,
      "▁ṣèwádìí,": 3018,
      "▁látọ̀dọ̀": 3019,
      "▁ọ̀gá": 3020,
      "▁o.": 3021,
      "▁ibẹ̀.": 3022,
      "▁pupa.": 3023,
      "▁gbajúmọ̀": 3024,
      "▁yani": 3025,
      "qu": 3026,
      "flower": 3027,
      "▁Duck": 3028,
      "▁nígbẹ̀yìngbẹ́yín": 3029,
      "▁Mandy": 3030,
      "▁Ọba": 3031,
      "▁lò.": 3032,
      "▁ọ\".": 3033,
      "▁sú": 3034,
      "▁sán": 3035,
      "▁oo": 3036,
      "▁ìmára": 3037,
      "orn": 3038,
      "kúta": 3039,
      "us": 3040,
      "▁gì": 3041,
      "▁mélòó": 3042,
      "▁òdì": 3043,
      "▁\"Y": 3044,
      "ṣègùn": 3045,
      "▁tim": 3046,
      "▁rẹ!\"": 3047,
      "▁Fred": 3048,
      "▁dídì.": 3049,
      "▁bọ́ǹbù": 3050,
      "fọn": 3051,
      "▁pani": 3052,
      "▁Nemo": 3053,
      "▁lẹ́rìn-ín": 3054,
      "ẹ́lì": 3055,
      "▁lẹ́nu,": 3056,
      "▁wàhálà.": 3057,
      "▁gbóná,": 3058,
      "▁gbọ́n.": 3059,
      "yì": 3060,
      "▁yẹ.": 3061,
      "corn": 3062,
      "▁ibùdó": 3063,
      "▁àbẹ́": 3064,
      "▁gbàd": 3065,
      "▁àbẹ́là": 3066,
      "▁káàbọ̀,": 3067,
      "▁ìkówèé": 3068,
      "▁tò": 3069,
      "ọ́ọ̀mù": 3070,
      "▁ìy": 3071,
      "▁Iṣẹ́": 3072,
      "▁ìfọ": 3073,
      "▁sé": 3074,
      "▁ọ̀lẹ": 3075,
      "ẹ̀rẹ̀,": 3076,
      "▁sábẹ́": 3077,
      "▁síbí": 3078,
      "▁ọ̀tọ̀,": 3079,
      "▁Olùkọ́": 3080,
      "▁Bobby": 3081,
      "▁ìyókù": 3082,
      "▁iyanrìn.": 3083,
      "▁ṣẹ́": 3084,
      "▁ewé,": 3085,
      "▁àṣẹ": 3086,
      "▁séwu": 3087,
      "ip": 3088,
      "ló": 3089,
      "▁rú": 3090,
      "▁ìwé.": 3091,
      "wéránṣẹ́": 3092,
      "fìwéránṣẹ́": 3093,
      "ríyìn": 3094,
      "▁Ilẹ̀": 3095,
      "▁gbóríyìn": 3096,
      "▁ìyẹ̀fun": 3097,
      "▁ṣò": 3098,
      "▁sọnù": 3099,
      "pú": 3100,
      "▁ẹlòmíì": 3101,
      "pútà": 3102,
      "▁Lóde": 3103,
      "▁yọ̀yọ̀": 3104,
      "▁ìtà": 3105,
      "▁ìtàg": 3106,
      "▁Dan": 3107,
      "báyé": 3108,
      "▁Bobo": 3109,
      "▁bínú.": 3110,
      "lphin": 3111,
      "▁Màá": 3112,
      "▁láàyè": 3113,
      "▁lójijì": 3114,
      "▁wúrà": 3115,
      "▁Ìró": 3116,
      "▁díẹ̀díẹ̀,": 3117,
      "▁ìdà": 3118,
      "▁ìfìwéránṣẹ́": 3119,
      "▁dolphin": 3120,
      "raw": 3121,
      "▁tìẹ": 3122,
      "làwọ́": 3123,
      "raga": 3124,
      "águn": 3125,
      "▁\"Máa": 3126,
      "▁Bella": 3127,
      "kùṣù": 3128,
      "sọ": 3129,
      "▁fojú": 3130,
      "▁bẹ́ẹ̀!\"": 3131,
      "▁oorun": 3132,
      "▁nìyẹn!": 3133,
      "▁retí": 3134,
      "▁Egbò": 3135,
      "ǹpútà": 3136,
      "▁\"\"O": 3137,
      "▁ẹ̀yẹ": 3138,
      "kòókò": 3139,
      "▁Mil": 3140,
      "▁wá\".": 3141,
      "les": 3142,
      "▁straw": 3143,
      "▁rárá\".": 3144,
      "kini": 3145,
      "▁epo": 3146,
      "kiniki": 3147,
      "▁àṣe": 3148,
      "▁ọ̀làwọ́": 3149,
      "▁òmùgọ̀.": 3150,
      "▁pikiniki": 3151,
      "▁ṣeni": 3152,
      "▁láàánú": 3153,
      "ńgẹ́lì": 3154,
      "▁jọ̀wọ́!\"": 3155,
      "sh": 3156,
      "▁lọ́wọ́!\"": 3157,
      "▁\"\"ó": 3158,
      "▁Ellie": 3159,
      "▁Ẹ̀rọ": 3160,
      "▁Ge": 3161,
      "úróṣinṣin": 3162,
      "▁jẹ́ẹ́": 3163,
      "▁èyí?\"": 3164,
      "▁kàkà": 3165,
      "▁mọyì": 3166,
      "▁òṣùwọ̀n": 3167,
      "jẹ̀": 3168,
      "▁arìn": 3169,
      "▁rọ́rọ́": 3170,
      "ir": 3171,
      "▁Lily!": 3172,
      "▁mí,": 3173,
      "▁kéékèèké.": 3174,
      "▁ó!": 3175,
      "▁níkẹyìn": 3176,
      "▁jíjẹ́": 3177,
      "▁abẹ́lẹ̀": 3178,
      "▁Sara,": 3179,
      "▁jẹ́ẹ́jẹ́ẹ́": 3180,
      "lékè": 3181,
      "▁ère": 3182,
      "▁àwọ̀lékè": 3183,
      "▁Ṣ": 3184,
      "▁olúkúlùkù": 3185,
      "▁ìkówèésí": 3186,
      "fíì": 3187,
      "▁yọ.": 3188,
      "▁ìsàlẹ̀,": 3189,
      "ṣọ̀ọ́": 3190,
      "▁lọ́ṣọ̀ọ́": 3191,
      "▁dára,": 3192,
      "▁ọ̀tọ̀ọ̀": 3193,
      "si": 3194,
      "▁ṣókùnkùn,": 3195,
      "▁òrùlé.": 3196,
      "▁dáná": 3197,
      "▁\"Ọ̀": 3198,
      "▁é\".": 3199,
      "▁olóòó": 3200,
      "▁tábìlì,": 3201,
      "ey": 3202,
      "horo": 3203,
      "▁ọ́fíì": 3204,
      "▁bẹ́ẹ̀?\"": 3205,
      "▁nìyẹn?\"": 3206,
      "▁ọmọlúwàbí.": 3207,
      "ca": 3208,
      "▁Fin": 3209,
      "▁fọ́ọ̀mù": 3210,
      "▁ṣe?": 3211,
      "▁móoru,": 3212,
      "▁Lójú": 3213,
      "▁olóòórùn": 3214,
      "▁wẹ́": 3215,
      "mọ́lẹ̀": 3216,
      "▁pé:'": 3217,
      "▁Mike": 3218,
      "▁awò": 3219,
      "▁wẹ́wẹ́": 3220,
      "▁ọ̀pẹ": 3221,
      "▁òmìni": 3222,
      "▁Peter": 3223,
      "ẹlẹ": 3224,
      "▁ṣọ́ọ̀bù,": 3225,
      "▁dan": 3226,
      "▁Ducky": 3227,
      "▁dání,": 3228,
      "▁pọ́ọ̀sì": 3229,
      "▁\"Tim": 3230,
      "▁Òkúta": 3231,
      "▁erékùṣù": 3232,
      "▁kóra": 3233,
      "oph": 3234,
      "-è": 3235,
      "éfín": 3236,
      "▁ẹ̀fọn": 3237,
      "▁lọ?\"": 3238,
      "-àní": 3239,
      "▁tiwọn": 3240,
      "dekè": 3241,
      "kàdekè": 3242,
      "▁ìgbọ̀n": 3243,
      "▁àní-àní": 3244,
      "▁ọ̀kọ̀": 3245,
      "▁ìlẹ̀kẹ̀": 3246,
      "mu": 3247,
      "▁Bob.": 3248,
      "▁adúróṣinṣin": 3249,
      "▁Bet": 3250,
      "▁Wá": 3251,
      "▁julọ": 3252,
      "▁tán.": 3253,
      "▁bẹ̀rù,": 3254,
      "lli": 3255,
      "▁Ògbóǹkangí": 3256,
      "▁kú.": 3257,
      "▁kọ̀ǹpútà": 3258,
      "▁nìyẹn,": 3259,
      "▁ọfà": 3260,
      "▁jẹ́\".": 3261,
      "▁jelly": 3262,
      "regb": 3263,
      "▁gbéregb": 3264,
      "▁yọ̀yọ̀.": 3265,
      "▁gbígbé": 3266,
      "▁lọ́wọ́?\"": 3267,
      "▁Kim": 3268,
      "ere.": 3269,
      "▁màmá\".": 3270,
      "tòṣì": 3271,
      "▁\"Ìrànlọ́wọ́": 3272,
      "lẹ̀-è": 3273,
      "lẹ̀-èdè": 3274,
      "▁Soph": 3275,
      "▁ó!\"": 3276,
      "▁\"\"Ó": 3277,
      "▁borí.": 3278,
      "▁dópin": 3279,
      "▁Gra": 3280,
      "dọ́mọbìnrin": 3281,
      "▁àforíjì,": 3282,
      "ójú": 3283,
      "▁ún.": 3284,
      "▁bọ̀,": 3285,
      "ṣò": 3286,
      "mátì": 3287,
      "▁z": 3288,
      "▁síwájú": 3289,
      "▁an.": 3290,
      "gàgà": 3291,
      "arry": 3292,
      "▁Kíá": 3293,
      "▁Tob": 3294,
      "▁nílé.": 3295,
      "▁iya": 3296,
      "▁òmíràn": 3297,
      "▁ẹlòmíràn.": 3298,
      "▁ìkọ̀kọ̀": 3299,
      "▁ṣẹ̀": 3300,
      "▁ìyeyè.": 3301,
      "▁Geor": 3302,
      "▁\"È": 3303,
      "▁ṣẹ̀ṣẹ̀": 3304,
      "▁Lola": 3305,
      "▁àgàgà": 3306,
      "▁ìmọ̀ràn": 3307,
      "▁òkìtì": 3308,
      "▁kúrò.": 3309,
      "éré": 3310,
      "▁kánkán,": 3311,
      "ṣòwò": 3312,
      "▁dandan": 3313,
      "óòlù": 3314,
      "▁ìgbéraga": 3315,
      "▁góòlù": 3316,
      "▁dàgbà.": 3317,
      "ṣo": 3318,
      "▁wọn\".": 3319,
      "▁lọ́tẹ̀": 3320,
      "▁funfun,": 3321,
      "▁làwọn": 3322,
      "▁kúrò,": 3323,
      "ddy": 3324,
      "ọmọ": 3325,
      "▁rí!": 3326,
      "▁Àgbẹ̀": 3327,
      "▁àràmàǹdà.": 3328,
      "▁Jack,": 3329,
      "▁kan?\"": 3330,
      "▁balẹ̀,": 3331,
      "▁Níbi": 3332,
      "▁in.": 3333,
      "▁ṣàkóso": 3334,
      "ẹkùn": 3335,
      "▁níwọ̀n": 3336,
      "▁Pete": 3337,
      "létò": 3338,
      "▁létò": 3339,
      "▁afẹ́.": 3340,
      "▁ìdààmú": 3341,
      "▁létòlétò": 3342,
      "▁òtòṣì": 3343,
      "▁Ìmọ́lẹ̀": 3344,
      "▁gbẹ́kẹ̀": 3345,
      "▁tòmátì": 3346,
      "▁yoo": 3347,
      "▁èròjà": 3348,
      "▁yìí\".": 3349,
      "lòlò": 3350,
      "mẹ́rà": 3351,
      "▁kólòlò": 3352,
      "▁wà?\"": 3353,
      "▁èyí,": 3354,
      "▁àyà": 3355,
      "ǹdì": 3356,
      "▁àdàkàdekè": 3357,
      "gu": 3358,
      "▁bẹ": 3359,
      "▁\"\"m": 3360,
      "▁Níbikíbi": 3361,
      "▁popcorn": 3362,
      "▁ja": 3363,
      "▁kàyéfì.": 3364,
      "mọ́ǹdì": 3365,
      "▁òkùnkùn.": 3366,
      "▁bìkítà.": 3367,
      "▁dún,": 3368,
      "▁ẹsẹ̀.": 3369,
      "▁Jane.": 3370,
      "▁lójijì,": 3371,
      "▁rere.": 3372,
      "▁pan": 3373,
      "▁Máa": 3374,
      "▁Ibẹ̀": 3375,
      "▁gúnlẹ̀": 3376,
      "▁ẹ̀gbẹ́": 3377,
      "▁Zo": 3378,
      "▁ṣàn": 3379,
      "▁igba": 3380,
      "ríkì": 3381,
      "▁Ni": 3382,
      "▁aṣọ.": 3383,
      "rìíra": 3384,
      "▁\"Fún": 3385,
      "illa": 3386,
      "lex": 3387,
      "▁Rose": 3388,
      "▁\"Bí": 3389,
      "ìlì": 3390,
      "▁\"Báwo": 3391,
      "▁màmá!\"": 3392,
      "yámọ́ǹdì": 3393,
      "▁sọnù.": 3394,
      "▁òmì": 3395,
      "my,": 3396,
      "▁ọ́fíìsì": 3397,
      "▁òmìrán": 3398,
      "▁walẹ̀": 3399,
      "fún": 3400,
      "▁sọdá": 3401,
      "▁ẹ̀jẹ̀": 3402,
      "▁ṣàìsàn.": 3403,
      "ùngbẹ": 3404,
      "▁ọ̀wọ́n": 3405,
      "▁Kà": 3406,
      "▁òfin": 3407,
      "▁pe,": 3408,
      "▁Dave": 3409,
      "bẹ": 3410,
      "▁síra": 3411,
      "pẹ̀lẹ́": 3412,
      "▁pẹ̀lẹ́pẹ̀lẹ́": 3413,
      "▁ago": 3414,
      "yé.": 3415,
      "▁olè": 3416,
      "▁Andy": 3417,
      "▁Oní": 3418,
      "▁agolo": 3419,
      "▁débẹ̀.": 3420,
      "▁ìdáhùn": 3421,
      "▁saladi": 3422,
      "▁èbú": 3423,
      "▁pọ̀\".": 3424,
      "▁sábà": 3425,
      "▁àgbà,": 3426,
      "▁Ra": 3427,
      "úni": 3428,
      "▁Polly": 3429,
      "gg": 3430,
      "▁Kàkà": 3431,
      "ọ̀rọ̀": 3432,
      "▁láyé.": 3433,
      "áni": 3434,
      "▁mìíràn,": 3435,
      "▁ìrẹ": 3436,
      "▁pupọ": 3437,
      "▁dábàá": 3438,
      "▁oúnjẹ,": 3439,
      "▁\"Wọn": 3440,
      "▁gbẹ.": 3441,
      "▁béèrè,": 3442,
      "▁èèyàn,": 3443,
      "▁kánkán.": 3444,
      "làn": 3445,
      "▁ìmárale": 3446,
      "àmọ́": 3447,
      "▁mì.": 3448,
      "▁pọn": 3449,
      "▁Lákọ̀ọ́kọ́,": 3450,
      "▁\"Ọmọ": 3451,
      ".\"\"\"": 3452,
      "▁Oríṣi": 3453,
      "▁jà,": 3454,
      "sẹ̀.": 3455,
      "▁káàbọ̀": 3456,
      "etti": 3457,
      "apá": 3458,
      "áyè": 3459,
      "▁òò": 3460,
      "▁mọ́!": 3461,
      "fẹ́fẹ́": 3462,
      "-sí": 3463,
      "▁kòkòrò.": 3464,
      "▁gìtá": 3465,
      "▁\"Ò": 3466,
      "▁Oríṣiríṣi": 3467,
      "▁wọ́": 3468,
      "▁Alex": 3469,
      "ṣèré": 3470,
      "▁àwòrán.": 3471,
      "▁Jọ̀wọ́,": 3472,
      "▁ọ̀wọ́n.": 3473,
      "▁ronú,": 3474,
      "pagh": 3475,
      "▁kékeré.": 3476,
      "paghetti": 3477,
      "▁kópa": 3478,
      "▁St": 3479,
      "▁Lila.": 3480,
      "▁ṣoṣo": 3481,
      "▁ìlera": 3482,
      "▁láìséwu.": 3483,
      "dun": 3484,
      "▁gbọ": 3485,
      "▁ìsapá": 3486,
      "▁rẹ̀!\"": 3487,
      "▁o\".": 3488,
      "▁Tweety": 3489,
      "▁lérò": 3490,
      "▁ọ̀sán,": 3491,
      "▁òṣèré": 3492,
      "▁ọ̀dọ̀": 3493,
      "▁tẹlifíṣọ̀n.": 3494,
      "▁dáyámọ́ǹdì": 3495,
      "▁kámẹ́rà": 3496,
      "▁sanwó": 3497,
      "▁ibì": 3498,
      "▁Wh": 3499,
      "▁ọ̀nà,": 3500,
      "▁bọ́,": 3501,
      "▁ọ́,": 3502,
      "▁Joey": 3503,
      "▁Òórùn": 3504,
      "guin": 3505,
      "enguin": 3506,
      "▁ìrìnnà": 3507,
      "▁òwú": 3508,
      "▁strawberry": 3509,
      "▁gbàdúrà": 3510,
      "▁ìtẹ̀": 3511,
      "▁rì": 3512,
      "▁ibùdókọ̀": 3513,
      "▁mọ́gbọ́n": 3514,
      "ers": 3515,
      "▁spaghetti": 3516,
      "▁sóhun": 3517,
      "▁oníṣòwò": 3518,
      "▁ìwé,": 3519,
      "▁ile": 3520,
      "▁ààrò.": 3521,
      "▁síra.": 3522,
      "▁lulẹ̀,": 3523,
      "òh": 3524,
      "rùn-ún": 3525,
      "▁òpópónà.": 3526,
      "fòó": 3527,
      "▁léfòó": 3528,
      "lànà": 3529,
      "▁ìdárayá,": 3530,
      "▁ẹyẹ,": 3531,
      "▁ibùsùn,": 3532,
      "▁Kat": 3533,
      "▁ìtẹ̀wé": 3534,
      "▁bẹ̀": 3535,
      "▁darí": 3536,
      "▁rọ.": 3537,
      "▁ọ̀ràn": 3538,
      "pọlọ": 3539,
      "▁irun.": 3540,
      "▁ewu.": 3541,
      "tọ̀.": 3542,
      "òwé": 3543,
      "▁lẹ́bàá": 3544,
      "ẹ̀rù": 3545,
      "▁Ẹ̀fúùfù": 3546,
      "hámọ́": 3547,
      "▁\"Bàbá": 3548,
      "▁oníṣègùn": 3549,
      "▁afẹ́fẹ́.": 3550,
      "▁\"\"Ẹ": 3551,
      "térù": 3552,
      "▁ìrán": 3553,
      "eti": 3554,
      "▁àwọ̀.": 3555,
      "iwọ̀n": 3556,
      "▁ìdiwọ̀n": 3557,
      "▁òòlù": 3558,
      "▁sẹ": 3559,
      "dìpọ̀": 3560,
      "▁dọ̀tí,": 3561,
      "▁ṣa": 3562,
      "▁ẹ́?\"": 3563,
      "▁Toby": 3564,
      "▁ìkì": 3565,
      "▁onígboyà.": 3566,
      "▁iwájú": 3567,
      "▁Ẹ̀yin": 3568,
      "irò": 3569,
      "▁ìṣirò": 3570,
      "tùn": 3571,
      "▁ìdìpọ̀": 3572,
      "▁\"\"B": 3573,
      "▁ìdẹkùn": 3574,
      "▁nísinsìnyí.": 3575,
      "▁ìwòsàn.": 3576,
      "▁ri": 3577,
      "▁To": 3578,
      "▁bẹ́ẹ̀!": 3579,
      "▁jẹ́?\"": 3580,
      "▁lóòótọ́": 3581,
      "tùn-ún": 3582,
      "▁lára,": 3583,
      "▁báyìí\".": 3584,
      "▁jọ̀wọ́.": 3585,
      "▁mẹ́wà": 3586,
      "túnwọ̀n": 3587,
      "▁níwọ̀ntúnwọ̀n": 3588,
      "▁ìyeyè,": 3589,
      "▁Ọ̀pá": 3590,
      "▁nítòsí,": 3591,
      "▁mí\".": 3592,
      "▁ìràwọ̀.": 3593,
      "▁timmy": 3594,
      "▁ṣíṣe": 3595,
      "▁àfo": 3596,
      "ọnáyè": 3597,
      "▁Ìwé": 3598,
      "▁ayọnáyè": 3599,
      "▁ayọnáyèéfín": 3600,
      "▁ìmú": 3601,
      "▁òde": 3602,
      "▁ho": 3603,
      "▁apa": 3604,
      "▁\"Oh,": 3605,
      "▁Char": 3606,
      "tọ́jú": 3607,
      "▁is": 3608,
      "▁gbọ́n,": 3609,
      "▁yo": 3610,
      "▁ìwádìí": 3611,
      "▁han": 3612,
      "▁é?\"": 3613,
      "▁yìí!\"": 3614,
      "▁Ru": 3615,
      "líìtì": 3616,
      "▁mọrírì": 3617,
      "▁ṣiṣẹ́,": 3618,
      "▁àtàtà.": 3619,
      "ọ̀kan,": 3620,
      "▁àpòòwé": 3621,
      "▁yíká.": 3622,
      "▁tẹ́tí": 3623,
      "▁sósì": 3624,
      "▁kọ́,": 3625,
      "▁níbí.": 3626,
      "▁yàn": 3627,
      "▁olùrànlọ́wọ́": 3628,
      "▁Tweeti": 3629,
      "▁lóye?\"": 3630,
      "▁ìrẹsì": 3631,
      "▁olówó": 3632,
      "▁láé!": 3633,
      "▁Orí": 3634,
      "pà": 3635,
      "▁dènà": 3636,
      "wọ́n": 3637,
      "ẹ̀rẹ̀k": 3638,
      "tálì": 3639,
      "òhánù": 3640,
      "òhò": 3641,
      "tor": 3642,
      "hòòhò": 3643,
      "gbá": 3644,
      "▁Bill": 3645,
      "▁lẹ́kọ̀ọ́": 3646,
      "▁màn": 3647,
      "àmáná": 3648,
      "▁mànàmáná": 3649,
      "édíò": 3650,
      "▁Ju": 3651,
      "▁ba.": 3652,
      "▁ṣèrànwọ́.": 3653,
      "rísítálì": 3654,
      "▁onírẹ̀": 3655,
      "▁sánsán": 3656,
      "▁ṣègbọràn": 3657,
      "▁Dírágónì": 3658,
      "▁Rob": 3659,
      "▁látìgbà": 3660,
      "▁bẹ́líìtì": 3661,
      "▁amú": 3662,
      "▁ehoro": 3663,
      "▁\"\"Mo": 3664,
      "on": 3665,
      "gbe": 3666,
      "pè": 3667,
      "▁màmá!": 3668,
      "▁Òótọ́": 3669,
      "▁pátápát": 3670,
      "▁mọ̀\".": 3671,
      "▁márùn-ún": 3672,
      "▁rọ,": 3673,
      "▁pata": 3674,
      "▁kìkì": 3675,
      "▁Òrìṣà": 3676,
      "st": 3677,
      "▁pataki": 3678,
      "▁pàápàá.": 3679,
      "▁rẹpẹ": 3680,
      "▁rẹpẹtẹ": 3681,
      "▁ọpọlọ": 3682,
      "▁ọ̀sẹ̀": 3683,
      "▁òdìkejì": 3684,
      "▁George": 3685,
      "▁ìkélé": 3686,
      "▁\"Nígbà": 3687,
      "▁iyọ̀": 3688,
      "▁bíríkì": 3689,
      "gbogbo": 3690,
      "▁Jerry": 3691,
      "▁oníhòòhò": 3692,
      "bra": 3693,
      "dẹ": 3694,
      "kẹ́jẹ́ẹ́": 3695,
      "▁yọ,": 3696,
      "▁jálẹ̀": 3697,
      "▁kàkàkí": 3698,
      "▁hù.": 3699,
      "▁\"Jẹ́": 3700,
      "nàmọ́": 3701,
      "▁kórìíra": 3702,
      "▁Sun": 3703,
      "▁Pat": 3704,
      "▁mèremère,": 3705,
      "▁Lákòókò": 3706,
      "▁síbẹ̀.": 3707,
      "▁kẹ̀rẹ̀k": 3708,
      "▁ìbà": 3709,
      "mọrírì": 3710,
      "▁Bear": 3711,
      "▁Sp": 3712,
      "ágín": 3713,
      "▁ọ̀rá": 3714,
      "▁\"Dúró,": 3715,
      "▁ànàmọ́": 3716,
      "▁ìnà": 3717,
      "ẹ̀rùn": 3718,
      "▁ẹ̀ẹ̀rùn": 3719,
      "-ì": 3720,
      "▁nù.": 3721,
      "▁mágín": 3722,
      "▁nínú,": 3723,
      "a.": 3724,
      "ay": 3725,
      "▁gbéregbère": 3726,
      "▁ṣe!": 3727,
      "▁àhámọ́": 3728,
      "▁fúnni": 3729,
      "▁wẹ̀.": 3730,
      "▁ìṣẹ̀": 3731,
      "enny": 3732,
      "▁wò?\"": 3733,
      "▁òru,": 3734,
      "sù": 3735,
      "▁salalu": 3736,
      "▁Ẹnì": 3737,
      "▁sílẹ̀\".": 3738,
      "▁ọmọlúwàbí,": 3739,
      "▁ìmọrírì": 3740,
      "▁Sandy": 3741,
      "▁ibùsùn.": 3742,
      "▁Kó": 3743,
      "▁ewì": 3744,
      "▁dúdú.": 3745,
      "ójútó": 3746,
      "ax": 3747,
      "▁rédíò": 3748,
      "▁yẹn?\"": 3749,
      "tisà": 3750,
      "burú": 3751,
      "▁búburú": 3752,
      "gator": 3753,
      "▁pítisà": 3754,
      "lligator": 3755,
      "▁sẹ́yìn.": 3756,
      "▁Buddy": 3757,
      "▁mẹ́ta,": 3758,
      "▁Mari": 3759,
      "▁ìpinnu": 3760,
      "▁nigbagbogbo": 3761,
      "▁ṣẹ.": 3762,
      "▁arábìnrin": 3763,
      "ájọ́": 3764,
      "▁Ọ̀nà": 3765,
      "▁ńlá,": 3766,
      "▁èyí.": 3767,
      "▁dáńgájíá.": 3768,
      "▁ẹwà": 3769,
      "▁àgbàdo": 3770,
      "ack,": 3771,
      "▁sẹ́yìn,": 3772,
      "enry": 3773,
      "▁Ibo": 3774,
      "▁pópó.": 3775,
      "▁wúni": 3776,
      "▁ìkóhun": 3777,
      "▁áńgẹ́lì": 3778,
      "▁gira": 3779,
      "▁ìdánil": 3780,
      "▁òjò.": 3781,
      "▁ṣú.": 3782,
      "▁alligator": 3783,
      "▁\"Ann": 3784,
      "▁jàǹbá.": 3785,
      "▁ọ̀gẹ̀dẹ̀.": 3786,
      "▁pẹ́ń": 3787,
      "▁Whis": 3788,
      "▁\"Màmá": 3789,
      "▁ìrántí": 3790,
      "ẹ́ẹ̀lì": 3791,
      "▁alápẹ̀rẹ̀": 3792,
      "▁orílẹ̀-èdè": 3793,
      "▁léwu,": 3794,
      "now": 3795,
      "▁ìtìjú": 3796,
      "▁Spot,": 3797,
      "▁Bunny": 3798,
      "▁ìdákẹ́jẹ́ẹ́": 3799,
      "kers": 3800,
      "▁dáadáa\".": 3801,
      "-ọmọ": 3802,
      "▁kéré,": 3803,
      "▁àlùkò,": 3804,
      "ǹbáyé": 3805,
      "▁tóbi.": 3806,
      "▁wọ́pọ̀": 3807,
      "▁ín.": 3808,
      "ọ̀kan.": 3809,
      "▁ibo": 3810,
      "▁ìlérí": 3811,
      "▁àwa": 3812,
      "kámà": 3813,
      "lìkámà": 3814,
      "▁táwọn": 3815,
      "▁ààrá": 3816,
      "▁penguin": 3817,
      "▁ṣú,": 3818,
      "-àjò": 3819,
      "▁diẹ": 3820,
      "▁lẹ́ẹ̀kọ̀": 3821,
      "▁pàtàkì.": 3822,
      "▁Arábìnrin": 3823,
      "▁ọjọ́,": 3824,
      "▁\"\"màmá,": 3825,
      "▁ìkìlọ̀": 3826,
      "▁ọrẹ": 3827,
      "lọ́run": 3828,
      "rilla": 3829,
      "▁wọn!": 3830,
      "▁kọbi": 3831,
      "▁pàṣẹ": 3832,
      "rìn-àjò": 3833,
      "▁v": 3834,
      "▁Lily\".": 3835,
      "▁gorilla": 3836,
      "▁dàgbà,": 3837,
      "▁kírísítálì": 3838,
      "▁ṣàwàdà.": 3839,
      "▁ìrànlọ́wọ́,": 3840,
      "▁wẹ́wẹ́.": 3841,
      "▁Whiskers": 3842,
      "-ìṣẹ̀": 3843,
      "▁Àkókò": 3844,
      "ink": 3845,
      "▁Henry": 3846,
      "▁ìgbésẹ̀": 3847,
      "▁kọ̀ọ̀kan": 3848,
      "étérù": 3849,
      "▁ìwẹ̀,": 3850,
      "▁lónìí,": 3851,
      "▁ìfọwọ́": 3852,
      "▁ọ̀dọ́mọbìnrin": 3853,
      "▁síbikíbi": 3854,
      "▁Grace": 3855,
      "▁Tommy.": 3856,
      "▁fẹ́\".": 3857,
      "▁ìkóhun-ìṣẹ̀": 3858,
      "▁balẹ̀.": 3859,
      "▁Sophie": 3860,
      "▁Lily?\"": 3861,
      "▁Lálẹ́": 3862,
      "▁kankan,": 3863,
      "▁kẹ̀rẹ̀kẹ̀rẹ̀,": 3864,
      "▁\"Oúnjẹ": 3865,
      "gar": 3866,
      "▁ọnà": 3867,
      "▁níbí!\"": 3868,
      "▁sọ́nà": 3869,
      "▁ìrísí": 3870,
      "▁ìkà.": 3871,
      "cco": 3872,
      "▁Ọwọ́": 3873,
      "▁ìsàlẹ̀.": 3874,
      "▁yàrá.": 3875,
      "▁fọ́,": 3876,
      "▁ààbò,": 3877,
      "iyan": 3878,
      "▁ìkóhun-ìṣẹ̀ǹbáyé": 3879,
      "▁àǹfààní": 3880,
      "▁funfun.": 3881,
      "▁èbúté": 3882,
      "▁pẹ́ńsù": 3883,
      "jú,": 3884,
      "▁ìbẹ̀rù": 3885,
      "▁Sally.": 3886,
      "▁\"Èrò": 3887,
      "▁nọ́ọ̀sì": 3888,
      "▁Benny.": 3889,
      "ìírí": 3890,
      "▁ìtàgé": 3891,
      "▁apata": 3892,
      "▁járí": 3893,
      "▁kẹ́sẹ": 3894,
      "lán": 3895,
      "▁Max!": 3896,
      "kàrà": 3897,
      "▁lójúfò": 3898,
      "he": 3899,
      "▁wálé,": 3900,
      "▁ṣókùnkùn.": 3901,
      "▁ọ̀dọ́": 3902,
      "▁Awakọ̀": 3903,
      "▁ṣọ̀f": 3904,
      "▁ìkóhun-ìṣẹ̀ǹbáyé-sí": 3905,
      "▁Lily!\"": 3906,
      "àwòrán": 3907,
      "ggi": 3908,
      "rocco": 3909,
      "roccoli": 3910,
      "▁jọ̀wọ́?\"": 3911,
      "ńp": 3912,
      "▁ọdẹ": 3913,
      "▁ọkọ": 3914,
      "yi": 3915,
      "▁jè": 3916,
      "▁ìṣó": 3917,
      "▁\"\"K": 3918,
      "▁ràn.": 3919,
      "▁olóró": 3920,
      "dára": 3921,
      "ffe": 3922,
      "▁gbà?\"": 3923,
      "▁nígbẹ̀yìngbẹ́yín,": 3924,
      "▁bẹ̀rẹ̀.": 3925,
      "▁láàmú.": 3926,
      "garoo": 3927,
      "éé": 3928,
      "▁Àwa": 3929,
      "▁ayàwòrán": 3930,
      "▁fàdá": 3931,
      "▁lálẹ́.": 3932,
      "▁lọ́la.": 3933,
      "▁fàdákà": 3934,
      "▁John.": 3935,
      "▁Buzz": 3936,
      "lánẹ́ẹ̀tì": 3937,
      "▁nkan": 3938,
      "▁ya.": 3939,
      "aa": 3940,
      "àbí": 3941,
      "▁níṣìírí": 3942,
      "▁onímọtara-ẹni-nìkan": 3943,
      "▁gbó,": 3944,
      "▁àlìkámà": 3945,
      "▁kek": 3946,
      "▁Harry": 3947,
      "▁atu": 3948,
      "▁fohùn": 3949,
      "▁pápá.": 3950,
      "▁níkẹyìn.": 3951,
      "▁atukọ̀": 3952,
      "▁iran": 3953,
      "padà": 3954,
      "▁ṣìnà": 3955,
      "tiri": 3956,
      "fúnni": 3957,
      "▁\"Àwa": 3958,
      "▁páà": 3959,
      "▁Ìjì": 3960,
      "▁batiri": 3961,
      "▁dúró!": 3962,
      "▁gbingbin": 3963,
      "▁Pétérù": 3964,
      "▁níléèwé": 3965,
      "▁àkọ̀": 3966,
      "▁mi?": 3967,
      "▁Smi": 3968,
      "▁Jam": 3969,
      "▁ẹlẹ́gbin": 3970,
      "▁ẹrẹ̀.": 3971,
      "▁Millie": 3972,
      "▁ètè": 3973,
      "omi": 3974,
      "▁mu,": 3975,
      "nífo": 3976,
      "▁àlàfo.": 3977,
      "▁yín!\"": 3978,
      "▁pílánẹ́ẹ̀tì": 3979,
      "▁ìro": 3980,
      "▁fìyà": 3981,
      "▁Daisy.": 3982,
      "▁wi,": 3983,
      "ll": 3984,
      "▁yàwòrán,": 3985,
      "▁Òrù": 3986,
      "▁aláìle": 3987,
      "▁kọfí": 3988,
      "▁Fi": 3989,
      "▁ìrètí": 3990,
      "▁jèmì": 3991,
      "le.": 3992,
      "▁ẹ̀bùn.": 3993,
      "▁dídùn.": 3994,
      "▁súni": 3995,
      "▁tìrẹ.": 3996,
      "▁broccoli": 3997,
      "▁dẹ́": 3998,
      "▁kòtò": 3999,
      "▁Snow": 4000,
      "▁àlùkò.": 4001,
      "▁tutù,": 4002,
      "▁ọjọ́.": 4003,
      "kọsílẹ̀": 4004,
      "▁síbẹ̀,": 4005,
      "▁kekere": 4006,
      "sè": 4007,
      "inu": 4008,
      "▁mẹ́ta.": 4009,
      "▁táyà": 4010,
      "▁ayé,": 4011,
      "▁Charlie": 4012,
      "▁Ọlọ́run": 4013,
      "▁jóná": 4014,
      "▁báyìí?\"": 4015,
      "▁Àmì": 4016,
      "▁onírin": 4017,
      "▁\"Ẹranko": 4018,
      "▁gorí": 4019,
      "▁James": 4020,
      "▁Red": 4021,
      "▁léraléra.": 4022,
      "▁díẹ̀\".": 4023,
      "ing": 4024,
      "▁mọ́!\"": 4025,
      "▁ọ̀gágun": 4026,
      "▁ṣe!\"": 4027,
      "▁òfuurufú,": 4028,
      "▁tipẹ́": 4029,
      "▁mímu": 4030,
      "▁panda": 4031,
      "▁òùngbẹ": 4032,
      "ac": 4033,
      "▁Ted": 4034,
      "▁jinlẹ̀.": 4035,
      "▁ṣòfò": 4036,
      "▁Irun": 4037,
      "▁kọ̀wé": 4038,
      "▁àfonífo": 4039,
      "▁ọgbẹ́": 4040,
      "▁sílé\".": 4041,
      "▁gùn,": 4042,
      "▁àṣìṣe.": 4043,
      "▁un!": 4044,
      "▁àbí?\"": 4045,
      "▁gbọgbẹ́": 4046,
      "▁náà?": 4047,
      "▁ṣugbọn": 4048,
      "▁láé,": 4049,
      "▁Jes": 4050,
      "kéyìí": 4051,
      "▁Tweetie": 4052,
      "▁blue": 4053,
      "ǹgbò": 4054,
      "▁féé": 4055,
      "▁èyíkéyìí": 4056,
      "▁lójú.": 4057,
      "▁lọ́ṣọ̀ọ́.": 4058,
      "▁ìkọ": 4059,
      "jọ́rò": 4060,
      "gbẹjọ́rò": 4061,
      "▁giraffe": 4062,
      "▁kù.": 4063,
      "▁àyè": 4064,
      "▁arìnrìn-àjò": 4065,
      "▁gbìyànjú.": 4066,
      "▁gbòǹgbò": 4067,
      "▁kẹ̀kẹ́,": 4068,
      "▁kéékèèké,": 4069,
      "bin": 4070,
      "▁\"Ìṣẹ́": 4071,
      "▁Sara!": 4072,
      "lọwọ": 4073,
      "tọ": 4074,
      "▁díje": 4075,
      "▁Kódà": 4076,
      "áá": 4077,
      "▁Joe.": 4078,
      "▁pápákọ̀": 4079,
      "eep": 4080,
      "▁Lilly": 4081,
      "▁fọ́nrán": 4082,
      "lára": 4083,
      "▁láyọ̀\".": 4084,
      "▁pòórá,": 4085,
      "▁pátápátá.": 4086,
      "▁ṣọ̀wọ́n": 4087,
      "▁dáradára": 4088,
      "▁ìgbọ́kọ̀sí.": 4089,
      "gbàrá": 4090,
      "lara": 4091,
      "▁tipẹ́ti": 4092,
      "sìkò": 4093,
      "▁yára,": 4094,
      "▁bomi": 4095,
      "▁ṣèè": 4096,
      "▁Alá": 4097,
      "▁ṣèèṣì": 4098,
      "un.": 4099,
      "▁iranlọwọ": 4100,
      "kára": 4101,
      "▁ìsá": 4102,
      "▁dàrú": 4103,
      "tus": 4104,
      "▁Iná": 4105,
      "▁mí!\"": 4106,
      "▁ìyẹn,": 4107,
      "▁àṣekára": 4108,
      "▁èkejì": 4109,
      "kadì": 4110,
      "▁sẹpẹ́": 4111,
      "binrin": 4112,
      "▁ẹ!\"": 4113,
      "▁àwọsánmà.": 4114,
      "▁blueberry": 4115,
      "▁tàwọn": 4116,
      "àmì": 4117,
      "▁dà,": 4118,
      "▁nìyẹn\".": 4119,
      "▁yọ̀yọ̀,": 4120,
      "▁míì\".": 4121,
      "▁ó\".": 4122,
      "▁sítá": 4123,
      "▁\"Bàbá,": 4124,
      "▁obìnrin.": 4125,
      "▁iyanrìn,": 4126,
      "▁jìyà": 4127,
      "▁forí": 4128,
      "▁lọ́wọ́!": 4129,
      "▁sítáǹbù": 4130,
      "▁Ẹsẹ̀": 4131,
      "▁Ol": 4132,
      "▁nìkan.": 4133,
      "▁àlàáfíà.": 4134,
      "▁Danny": 4135,
      "?\"\"": 4136,
      "▁hó": 4137,
      "▁ìmọ̀": 4138,
      "▁ìyàwó": 4139,
      "▁apẹ": 4140,
      "▁Maggi": 4141,
      "▁ológo": 4142,
      "▁lẹ́rù,": 4143,
      "▁ọ̀kan.": 4144,
      "▁sunflower": 4145,
      "▁ọ̀tọ̀ọ̀tọ̀": 4146,
      "▁ológoṣẹ́": 4147,
      "▁méjèèjì.": 4148,
      "▁ìkọrin": 4149,
      "▁jí.": 4150,
      "▁adi": 4151,
      "sy": 4152,
      "ẹ́kọ̀ọ́": 4153,
      "▁oníṣẹ́": 4154,
      "▁Èrò": 4155,
      "ea": 4156,
      "▁gbàù": 4157,
      "▁wá?\"": 4158,
      "▁Ẹ̀bùn": 4159,
      "▁Mim": 4160,
      "▁ẹ̀dùn": 4161,
      "▁Ta": 4162,
      "▁parí.": 4163,
      "▁adití": 4164,
      "▁dàwá": 4165,
      "actus": 4166,
      "▁dàwátì": 4167,
      "▁Annie": 4168,
      "bàbá": 4169,
      "▁pẹ̀lẹ́.": 4170,
      "▁am": 4171,
      "▁nísinsìnyí\".": 4172,
      "▁ìbàjẹ́": 4173,
      "▁ah": 4174,
      "▁Hop": 4175,
      "▁ẹ̀wẹ́": 4176,
      "▁lóúnjẹ.": 4177,
      "▁Flo": 4178,
      "▁wá!\"": 4179,
      "▁aṣọ,": 4180,
      "▁Bóyá": 4181,
      "▁sinmi,": 4182,
      "▁dókítà.": 4183,
      "▁ọ!\"": 4184,
      "▁\"Nítorí": 4185,
      "▁grẹ": 4186,
      "torin": 4187,
      "gbàá": 4188,
      "▁màmá.\"": 4189,
      "▁ga,": 4190,
      "▁jiyàn.": 4191,
      "▁ze": 4192,
      "▁\"Max": 4193,
      "▁ìtàn.": 4194,
      "▁Smith": 4195,
      "▁ayọ": 4196,
      "▁Brownie": 4197,
      "pín": 4198,
      "▁dúró!\"": 4199,
      "▁ninu": 4200,
      "▁lágbàá": 4201,
      "▁rí!\"": 4202,
      "▁Owó": 4203,
      "▁waff": 4204,
      "▁rárá!\"": 4205,
      "▁àfonífojì": 4206,
      "▁lọ̀rọ̀": 4207,
      "▁jinlẹ̀,": 4208,
      "gbéyàwó": 4209,
      "▁nìyẹn!\"": 4210,
      "▁qu": 4211,
      "▁ṣọ": 4212,
      "▁Òṣìṣẹ́": 4213,
      "▁Pau": 4214,
      "ìnì": 4215,
      "▁kọsẹ̀": 4216,
      "▁èédú": 4217,
      "▁ahọ́n": 4218,
      "▁dìde.": 4219,
      "▁pẹja": 4220,
      "▁ṣàṣeyọrí.": 4221,
      "▁yìnyín,": 4222,
      "▁alẹ́,": 4223,
      "▁àárọ̀": 4224,
      "▁níbikíbi": 4225,
      "▁ọ̀gbàrá": 4226,
      "▁tuna": 4227,
      "▁cactus": 4228,
      "▁fèrè.": 4229,
      "▁gágá\".": 4230,
      "▁rọ́pò": 4231,
      "▁ìṣẹ̀lẹ̀": 4232,
      "▁àfihàn": 4233,
      "▁ṣìnà.": 4234,
      "▁Ọ̀gá": 4235,
      "▁ajá.": 4236,
      "se": 4237,
      "▁láǹfààní": 4238,
      "▁ẹ̀ṣọ́": 4239,
      "gún": 4240,
      "▁ayọ̀,": 4241,
      "▁rẹ?": 4242,
      "▁Ẹṣin": 4243,
      "▁hock": 4244,
      "ọba": 4245,
      "▁kíákíá": 4246,
      "ọfúnni": 4247,
      "▁ìsọfúnni": 4248,
      "▁gbòòrò": 4249,
      "▁wu": 4250,
      "▁\"Sam": 4251,
      "▁àpáta.": 4252,
      "▁àní-àní,": 4253,
      "▁Tom!": 4254,
      "▁dààmú": 4255,
      "lówó": 4256,
      "▁ow": 4257,
      "▁rárá!": 4258,
      "▁fẹ́ràn.": 4259,
      "▁Amy.": 4260,
      "nàjí": 4261,
      "▁gbígbé.": 4262,
      "ńpìlì": 4263,
      "nàjíjìn": 4264,
      "wọ̀nàjíjìn": 4265,
      "▁Clara": 4266,
      "▁ìmúra": 4267,
      "▁rọ́ọ̀sì": 4268,
      "▁erùpẹ̀.": 4269,
      "▁\"Ẹ̀yin,": 4270,
      "m,": 4271,
      "▁látà": 4272,
      "▁tiwa": 4273,
      "▁Á": 4274,
      "▁láìka": 4275,
      "▁ìmí": 4276,
      "▁yẹn!\"": 4277,
      "day": 4278,
      "▁sídìí": 4279,
      "▁tutọ́": 4280,
      "▁yọjú.": 4281,
      "▁ìgbàkí": 4282,
      "▁lulẹ̀": 4283,
      "▁ẹ̀yìn.": 4284,
      "▁ìgbàkígbà": 4285,
      "▁Suz": 4286,
      "auli": 4287,
      "▁Spi": 4288,
      "▁lómìni": 4289,
      "▁ìrọ̀lẹ́,": 4290,
      "▁\"Hello": 4291,
      "▁ìdánilẹ́kọ̀ọ́": 4292,
      "auliflower": 4293,
      "▁Afẹ́fẹ́": 4294,
      "▁ohunkóhun.": 4295,
      "▁yòò!": 4296,
      "▁ìgbọ̀nsẹ̀": 4297,
      "▁kíkọ": 4298,
      "▁níwọ̀ntúnwọ̀nsì": 4299,
      "tẹ́ẹ̀lì": 4300,
      "óró": 4301,
      "▁òtẹ́ẹ̀lì": 4302,
      "▁báwo": 4303,
      "▁búlọ́ọ̀kì": 4304,
      "▁cauliflower": 4305,
      "ókìkí": 4306,
      "▁Jill.": 4307,
      "▁Ro": 4308,
      "▁iná.": 4309,
      "gbàgun": 4310,
      "▁Ẹ̀mí": 4311,
      "gungbàgun": 4312,
      "▁Fluffy.": 4313,
      "▁páànù": 4314,
      "sá": 4315,
      "sọ̀": 4316,
      "▁olókìkí": 4317,
      "pe": 4318,
      "▁jókòó.": 4319,
      "▁wh": 4320,
      "ròtẹ́": 4321,
      "▁Ẹ̀gbọ́n": 4322,
      "▁níbí\".": 4323,
      "-àyà": 4324,
      "▁\"nígbà": 4325,
      "▁léṣe\".": 4326,
      "▁nla": 4327,
      "▁gbágungbàgun": 4328,
      "▁gbọ́,": 4329,
      "▁tẹ́wọ́": 4330,
      "▁láìpẹ́\".": 4331,
      "▁\"Anna,": 4332,
      "▁ala": 4333,
      "▁mọ́lẹ̀.": 4334,
      "▁bọ́tà": 4335,
      "▁yọrí": 4336,
      "▁Kate": 4337,
      "▁Maggie": 4338,
      "▁Maria": 4339,
      "▁mò": 4340,
      "▁ẹ,": 4341,
      "▁Do": 4342,
      "bòójútó": 4343,
      "▁bẹ̀rẹ̀,": 4344,
      "cky": 4345,
      "▁ìrònú": 4346,
      "▁níṣòro": 4347,
      "▁sùúrù,": 4348,
      "▁awọ̀nàjíjìn": 4349,
      "▁ṣàrò": 4350,
      "▁ṣègbéyàwó": 4351,
      "▁ẹkọ": 4352,
      "▁apẹja": 4353,
      "áàpù": 4354,
      "▁Lila,": 4355,
      "▁ògiri,": 4356,
      "▁ọ̀bọ.": 4357,
      "▁ìgbéyàwó": 4358,
      "oh": 4359,
      "▁Pip": 4360,
      "-ọmọ-ọmọ": 4361,
      "▁á\".": 4362,
      "yebíye": 4363,
      "▁láìròtẹ́": 4364,
      "▁be": 4365,
      "▁ṣeyebíye": 4366,
      "▁ìrí": 4367,
      "▁onígboyà,": 4368,
      "bb": 4369,
      "▁Àbúrò": 4370,
      "▁igbe": 4371,
      "!\"\"": 4372,
      "▁yẹ̀yẹ́,": 4373,
      "▁Tony": 4374,
      "▁\"\"ẹ": 4375,
      "▁síléèwé.": 4376,
      "▁ni?": 4377,
      "▁délé.": 4378,
      "▁alárinrin.": 4379,
      "▁lẹ́rìn-ín.": 4380,
      "hà": 4381,
      "▁sapá": 4382,
      "bbi": 4383,
      "▁Tàbí": 4384,
      "uro": 4385,
      "▁ìrora": 4386,
      "▁háàpù": 4387,
      "▁gidi.": 4388,
      "ṣán": 4389,
      "▁jẹrà": 4390,
      "▁Ọmọkùnrin": 4391,
      "túmọ̀": 4392,
      "▁ṣọ́ra\".": 4393,
      "▁atúmọ̀": 4394,
      "▁tiwọn.": 4395,
      "▁po,": 4396,
      "▁Lucy,": 4397,
      "▁daisy": 4398,
      "▁zebra": 4399,
      "▁àyàfi": 4400,
      "▁Gbà": 4401,
      "▁àárẹ̀": 4402,
      "▁Freddy": 4403,
      "▁kangaroo": 4404,
      "▁lọ́tùn-ún": 4405,
      "létu": 4406,
      "▁amúlétu": 4407,
      "▁amúlétutù": 4408,
      "▁nù": 4409,
      "▁to": 4410,
      "kọ̀lọ": 4411,
      "▁kọ́lọ": 4412,
      "▁òṣùmàrè.": 4413,
      "▁Lee": 4414,
      "▁kọ́lọkọ̀lọ": 4415,
      "▁tẹ́ńpìlì": 4416,
      "▁Díẹ̀": 4417,
      "▁Gbàrà": 4418,
      "▁yìí?": 4419,
      "tùpà": 4420,
      "die": 4421,
      "▁ọ̀kan,": 4422,
      "líọ̀n": 4423,
      "▁gbẹ,": 4424,
      "▁\"Lily": 4425,
      "▁ṣàkọsílẹ̀": 4426,
      "▁lori": 4427,
      "dúgbò": 4428,
      "▁Rosie": 4429,
      "▁\"Tim,": 4430,
      "▁\"\"A": 4431,
      "▁\"Tó": 4432,
      "▁eérú,": 4433,
      "▁Mimi": 4434,
      "▁wulẹ̀": 4435,
      "▁pàdé.": 4436,
      "▁nìdí": 4437,
      "▁yòókù,": 4438,
      "▁lókè.": 4439,
      "▁wá!": 4440,
      "▁yíjú": 4441,
      "▁ú,": 4442,
      "ẹta": 4443,
      "▁òru.": 4444,
      "ròrò": 4445,
      "▁yoga": 4446,
      "▁èrè": 4447,
      "▁mímọ́": 4448,
      "▁ránṣẹ́.": 4449,
      "▁ṣinṣin,": 4450,
      "▁un\".": 4451,
      "▁ọ̀gá.": 4452,
      "▁àpáta,": 4453,
      "dodo": 4454,
      "▁Jẹ́": 4455,
      "▁iṣẹ́.": 4456,
      "▁sílẹ̀!\"": 4457,
      "▁tọ̀nà.": 4458,
      "▁bàbá.": 4459,
      "▁onírẹ̀lẹ̀": 4460,
      "▁hẹlẹ": 4461,
      "▁Ejò": 4462,
      "▁níbẹ̀\".": 4463,
      "▁Ste": 4464,
      "hẹlẹ": 4465,
      "▁hẹlẹhẹlẹ": 4466,
      "ugbọn": 4467,
      "▁ṣọ̀rẹ́": 4468,
      "ty": 4469,
      "▁\"Max,": 4470,
      "nes": 4471,
      "▁tọ́,": 4472,
      "▁Fún": 4473,
      "▁quack,": 4474,
      "▁\"Ṣ": 4475,
      "tìtì": 4476,
      "▁nísà": 4477,
      "lẹ́yìn": 4478,
      "mìtìtì": 4479,
      "▁Tina": 4480,
      "▁àdúgbò": 4481,
      "▁Àkàrà": 4482,
      "▁ṣọ́ọ̀ṣì": 4483,
      "▁tipẹ́tipẹ́": 4484,
      "▁Abi": 4485,
      "▁Sarah.": 4486,
      "▁Co": 4487,
      "▁àrí": 4488,
      "▁gúnlẹ̀,": 4489,
      "▁\"Sara": 4490,
      "▁rara": 4491,
      "▁òǹrorò,": 4492,
      "▁wakọ̀.": 4493,
      "▁kákó": 4494,
      "▁John,": 4495,
      "▁nigbati": 4496,
      "bẹ́ẹ̀": 4497,
      "▁parọ́": 4498,
      "▁Àṣìṣe": 4499,
      "▁sílẹ̀!": 4500,
      "▁Billy.": 4501,
      "▁hàn,": 4502,
      "▁níbẹ̀!": 4503,
      "▁oníwọ": 4504,
      "▁ṣọ̀kan": 4505,
      "▁létòlétò.": 4506,
      "▁kálíọ̀n": 4507,
      "▁àwòrán,": 4508,
      "▁beere": 4509,
      "fá": 4510,
      "ball": 4511,
      "▁Paul": 4512,
      "▁aládùn,": 4513,
      "lẹ́kẹ́lẹ́": 4514,
      "▁kẹ́lẹ́kẹ́lẹ́": 4515,
      "▁oníwà": 4516,
      "▁ṣẹ́gun": 4517,
      "▁àpè": 4518,
      "▁Wo": 4519,
      "▁àpèjẹ": 4520,
      "▁Jòhánù": 4521,
      "úrú": 4522,
      "▁\"Ajá": 4523,
      "▁ìhà": 4524,
      "▁ẹsẹ̀,": 4525,
      "▁dáa?\"": 4526,
      "▁onígbọràn": 4527,
      "gbélé": 4528,
      "▁Sue,": 4529,
      "▁what": 4530,
      "▁agbẹjọ́rò": 4531,
      "bùú": 4532,
      "gbélébùú": 4533,
      "▁kára.": 4534,
      "▁kólòlò,": 4535,
      "as": 4536,
      "▁súni.": 4537,
      "▁orin.": 4538,
      "▁tẹ́lẹ̀,": 4539,
      "▁berry": 4540,
      "▁kókó": 4541,
      "▁nìyí!\"": 4542,
      "▁yangàn,": 4543,
      "▁ẹja.": 4544,
      "▁àgbàyanu.": 4545,
      "▁mọ́tò": 4546,
      "▁ìjàkadì": 4547,
      "▁ẹlẹ": 4548,
      "▁ìjọba": 4549,
      "tótó": 4550,
      "èrú": 4551,
      "lífì": 4552,
      "▁láàyè.": 4553,
      "wọ́pọ̀": 4554,
      "sowọ́pọ̀": 4555,
      "gbodò": 4556,
      "▁Orin": 4557,
      "gbòkè": 4558,
      "gbòkègbodò": 4559,
      "▁wúwo.": 4560,
      "▁Èso": 4561,
      "▁ìgbòkègbodò": 4562,
      "▁ni\",": 4563,
      "▁irin.": 4564,
      "▁Ìrìn": 4565,
      "▁yá\".": 4566,
      "▁Pop": 4567,
      "▁ólífì": 4568,
      "▁\"Ohun": 4569,
      "lily,": 4570,
      "me": 4571,
      "▁irun,": 4572,
      "▁láé\".": 4573,
      "ánná": 4574,
      "ékánná": 4575,
      "▁àṣíborí,": 4576,
      "▁ìbínú": 4577,
      "rúwé": 4578,
      "▁ẹ̀wà.": 4579,
      "lejò": 4580,
      "▁rii": 4581,
      "▁àtijọ́.": 4582,
      "▁ẹ́!\"": 4583,
      "▁Díẹ̀díẹ̀": 4584,
      "▁ṣeun!\"": 4585,
      "ùrù": 4586,
      "▁ìrúwé": 4587,
      "▁Ìlànà": 4588,
      "▁lórí.": 4589,
      "▁Fí": 4590,
      "▁\"Tom": 4591,
      "ggy": 4592,
      "▁àbáyọ": 4593,
      "péré": 4594,
      "▁pínyà": 4595,
      "▁ìdánim": 4596,
      "▁pérépéré": 4597,
      "íni": 4598,
      "▁kọsẹ̀,": 4599,
      "▁gbọ̀n.": 4600,
      "▁ìdùnnú.": 4601,
      "▁àmú": 4602,
      "dágún": 4603,
      "▁wọ̀nyẹn": 4604,
      "▁àmúṣọ": 4605,
      "▁lákọ̀ọ́kọ́": 4606,
      "▁èékánná": 4607,
      "▁Liz": 4608,
      "▁òmìnira.": 4609,
      "▁ìnàjú": 4610,
      "..": 4611,
      "cto": 4612,
      "▁ìtura,": 4613,
      "ńdà": 4614,
      "lẹ́ńdà": 4615,
      "▁alápàáǹdẹ̀dẹ̀.": 4616,
      "▁kùn.": 4617,
      "▁kìnnìún,": 4618,
      "▁dùùrù": 4619,
      "▁ìkọ̀kọ̀.": 4620,
      "áájú": 4621,
      "n,": 4622,
      "▁dópin.": 4623,
      "ántí": 4624,
      "▁ṣẹlẹ̀?\"": 4625,
      "▁lónìí\".": 4626,
      "▁Láìsí": 4627,
      "▁ìda": 4628,
      "▁wàrà.": 4629,
      "▁dun": 4630,
      "▁walẹ̀,": 4631,
      "▁Bàbá.": 4632,
      "fẹ": 4633,
      "▁odò.": 4634,
      "▁Ìd": 4635,
      "▁lé.": 4636,
      "▁báyìí!\"": 4637,
      "▁rírẹwà.": 4638,
      "▁le.": 4639,
      "▁jálẹ̀,": 4640,
      "▁kàwé": 4641,
      "▁Car": 4642,
      "▁ìmọ́tótó": 4643,
      "▁ọkàn-àyà": 4644,
      "▁arẹwà": 4645,
      "▁Tom!\"": 4646,
      "▁pèsè": 4647,
      "▁Àǹtí": 4648,
      "tayọ̀": 4649,
      "▁kẹ́kọ̀ọ́,": 4650,
      "▁tayọ̀": 4651,
      "▁rú.": 4652,
      "▁tayọ̀tayọ̀": 4653,
      "▁sùúrù.": 4654,
      "jáde": 4655,
      "▁wáìnì": 4656,
      "▁nílò.": 4657,
      "▁ṣúgà.": 4658,
      "▁ṣèrànwọ́,": 4659,
      "▁ìlẹ̀kùn": 4660,
      "▁Wá,": 4661,
      "▁Bob,": 4662,
      "▁\"Àkókò": 4663,
      "▁Fran": 4664,
      "pus": 4665,
      "▁taki": 4666,
      "▁àṣíborí.": 4667,
      "▁ìmọ́lẹ̀.": 4668,
      "ctopus": 4669,
      "▁dídì,": 4670,
      "▁nísinsìnyí,": 4671,
      "▁\"Sam,": 4672,
      "▁Ben!\"": 4673,
      "jikì": 4674,
      "▁kìjikì": 4675,
      "▁àfiṣe": 4676,
      "▁takisí": 4677,
      "▁kìjikìji": 4678,
      "lin": 4679,
      "▁Will": 4680,
      "▁Sárà.": 4681,
      "▁Àwàdà": 4682,
      "▁Tommy,": 4683,
      "▁níbí?\"": 4684,
      "kunrin": 4685,
      "-án": 4686,
      "▁kàlẹ́ńdà": 4687,
      "sàn-án": 4688,
      "▁Jen.": 4689,
      "ia": 4690,
      "kọ̀ró": 4691,
      "róró": 4692,
      "▁ìdákọ̀ró": 4693,
      "▁jazz": 4694,
      "▁wálé.": 4695,
      "ig": 4696,
      "ke.": 4697,
      "▁Kati": 4698,
      "▁Òrùka": 4699,
      "▁ṣeré!": 4700,
      "▁akẹ́kọ̀ọ́": 4701,
      "ppy": 4702,
      "▁octopus": 4703,
      "▁síra,": 4704,
      "▁níbikíbi.": 4705,
      "▁Molly.": 4706,
      "▁là,": 4707,
      "gan": 4708,
      "▁kúnlẹ̀": 4709,
      "bòmíràn": 4710,
      "ríìkì": 4711,
      "▁aládé.": 4712,
      "▁\"\"Kí": 4713,
      "▁(": 4714,
      "▁ọ̀rẹ́\".": 4715,
      "▁Adágún": 4716,
      "▁Pa": 4717,
      "▁ìfọwọ́sowọ́pọ̀": 4718,
      "-i": 4719,
      "▁àgbélébùú": 4720,
      "▁wò\".": 4721,
      "▁mọ́ni!": 4722,
      "▁lẹmọ": 4723,
      "▁burúkú,": 4724,
      "▁níbí,": 4725,
      "bby": 4726,
      "▁V": 4727,
      "▁ọ́?\"": 4728,
      "nìyàn": 4729,
      "▁àmúṣọrọ̀": 4730,
      "per": 4731,
      "uni": 4732,
      "▁jẹ!": 4733,
      "▁lẹ́bi": 4734,
      "▁mọ́ni\".": 4735,
      "ish": 4736,
      "▁tuntun\".": 4737,
      "rúgbó": 4738,
      "▁ẹran.": 4739,
      "ire": 4740,
      "▁iṣ": 4741,
      "▁po.": 4742,
      "▁dojú": 4743,
      "koko": 4744,
      "▁Ọ̀gágun": 4745,
      "▁ipò": 4746,
      "▁odi": 4747,
      "▁wọ́nwó": 4748,
      "▁Àdà": 4749,
      "▁àyẹ̀wò": 4750,
      "▁ríran": 4751,
      "▁Milly": 4752,
      "▁\"Ó,": 4753,
      "▁Je": 4754,
      "▁òrùlé,": 4755,
      "▁jiyàn,": 4756,
      "dìn": 4757,
      "▁ládùúgbò": 4758,
      "▁rí\".": 4759,
      "▁àgbàlá": 4760,
      "▁ṣíríìkì": 4761,
      "▁eérú.": 4762,
      "▁olùtọ́jú": 4763,
      "▁arìndìn": 4764,
      "▁ìparí": 4765,
      "▁nísinsìnyí!\"": 4766,
      "úrà.": 4767,
      "àdé": 4768,
      "▁wáyà": 4769,
      "▁ìpàdé": 4770,
      "▁Nu": 4771,
      "▁rẹrin": 4772,
      "▁mágínẹ́ẹ̀tì": 4773,
      "▁Ollie": 4774,
      "nù.": 4775,
      "▁Penny": 4776,
      "▁aláìsàn": 4777,
      "▁ṣàjèjì,": 4778,
      "-bàbá": 4779,
      "iran": 4780,
      "▁wa?\"": 4781,
      "ore": 4782,
      "fúùfù.": 4783,
      "▁ẹ̀fúùfù.": 4784,
      "▁Fro": 4785,
      "▁jọ̀wọ́\".": 4786,
      "▁Chir": 4787,
      "▁òmìnira": 4788,
      "kíró": 4789,
      "▁ariwo.": 4790,
      "▁ewébẹ̀.": 4791,
      "▁miiran": 4792,
      "▁àfẹ": 4793,
      "▁àlùbọ́sà.": 4794,
      "▁ìta.": 4795,
      "▁sinim": 4796,
      "▁kálíọ̀nù": 4797,
      "▁koko": 4798,
      "▁yára.": 4799,
      "▁Kéré": 4800,
      "▁Òṣù": 4801,
      "▁Lizz": 4802,
      "▁àbájáde": 4803,
      "▁ìfọṣọ": 4804,
      "▁Ọgbà": 4805,
      "▁gbójú": 4806,
      "kejì.": 4807,
      "▁tọ̀nà,": 4808,
      "▁ìsádi": 4809,
      "▁díẹ̀?\"": 4810,
      "▁ìtàgé.": 4811,
      "▁lẹmọọn": 4812,
      "▁kéèkì.": 4813,
      "▁Ọbabìnrin": 4814,
      "▁lákọ̀ọ́kọ́,": 4815,
      "▁sísọ": 4816,
      "ánù.": 4817,
      "▁yẹn!": 4818,
      "▁àánú": 4819,
      "▁rẹ̀wẹ̀": 4820,
      "kọ̀ọ̀kan": 4821,
      "▁fóònù": 4822,
      "▁bàbá-bàbá": 4823,
      "tìlẹ́yìn": 4824,
      "▁dẹ́rù": 4825,
      "▁kùn,": 4826,
      "▁iwájú.": 4827,
      "▁\"Ilé": 4828,
      "▁òṣùpá.": 4829,
      "torinaa": 4830,
      "▁ọ̀gbìn": 4831,
      "▁\"Ìrànlọ́wọ́!": 4832,
      "▁ṣán": 4833,
      "▁ibẹ̀,": 4834,
      "▁mọ́ni!\"": 4835,
      "▁ch": 4836,
      "▁àta": 4837,
      "▁wíwo": 4838,
      "▁àfiṣelé": 4839,
      "ber": 4840,
      "▁ẹ̀wọ̀n": 4841,
      "son": 4842,
      "▁lóore": 4843,
      "▁Ìtàn": 4844,
      "▁gbọ́!": 4845,
      "▁kede": 4846,
      "▁tirẹ̀,": 4847,
      "▁òmíràn.": 4848,
      "ọ́ra": 4849,
      "▁alábòójútó": 4850,
      "kiwà": 4851,
      "▁jíjẹ": 4852,
      "tan": 4853,
      "ìrì": 4854,
      "▁míkíró": 4855,
      "sta": 4856,
      "▁sójà": 4857,
      "▁ojoojúmọ́": 4858,
      "▁á?\"": 4859,
      "▁pátápátá": 4860,
      "▁látàárọ̀": 4861,
      "pópónà": 4862,
      "▁kọ.": 4863,
      "polówó": 4864,
      "▁jíròrò": 4865,
      "▁àárọ̀.": 4866,
      "▁ìnura.": 4867,
      "ore.": 4868,
      "▁jíjìn,": 4869,
      "▁ìbá": 4870,
      "sì,": 4871,
      "▁akoko": 4872,
      "▁ògbóǹkangí.": 4873,
      "▁ẹlòmíràn,": 4874,
      "▁pápá,": 4875,
      "▁bẹ́ǹṣì,": 4876,
      "▁ìdánimọ̀": 4877,
      "▁ìpolówó": 4878,
      "▁nígboyà,": 4879,
      "bé": 4880,
      "sa": 4881,
      "▁Lun": 4882,
      "▁òróró": 4883,
      "▁lóore.": 4884,
      "▁rùn.": 4885,
      "yànji": 4886,
      "▁ọ̀bọ,": 4887,
      "yànjiyàn": 4888,
      "sítì": 4889,
      "▁ìràwọ̀,": 4890,
      "fásítì": 4891,
      "unifásítì": 4892,
      "▁\"G": 4893,
      "▁àtayé": 4894,
      "édé": 4895,
      "▁déédé": 4896,
      "áròkó": 4897,
      "▁ọjà.": 4898,
      "▁nílé,": 4899,
      "▁ìgbáròkó": 4900,
      "▁wàràkàṣì.": 4901,
      "▁lábàá": 4902,
      "▁\"Ìrànlọ́wọ́,": 4903,
      "▁gbígbẹ": 4904,
      "nade": 4905,
      "rr": 4906,
      "▁papọ": 4907,
      "▁kúnlẹ̀,": 4908,
      "▁ààrò,": 4909,
      "▁nipa": 4910,
      "▁oyin.": 4911,
      "▁ọrun": 4912,
      "▁Cla": 4913,
      "▁fá": 4914,
      "▁Emma.": 4915,
      "▁àbáwọ": 4916,
      "títọ́": 4917,
      "▁Ìkookò": 4918,
      "▁rẹ!": 4919,
      "▁Ẹ̀kọ́": 4920,
      "▁níhìn-ín,": 4921,
      "▁igbadun": 4922,
      "▁\"à": 4923,
      "▁yunifásítì": 4924,
      "▁adájọ́": 4925,
      "▁olóòótọ́.": 4926,
      "▁iṣan": 4927,
      "óònù.": 4928,
      "▁oníwàkiwà": 4929,
      "pọn": 4930,
      "▁lẹ́kọ̀ọ́.": 4931,
      "ṣé": 4932,
      "▁lò,": 4933,
      "▁Ìkòkò": 4934,
      "▁lára\".": 4935,
      "▁sè": 4936,
      "▁rírọ̀": 4937,
      "wọ́tẹ": 4938,
      "▁tuntun!": 4939,
      "▁onínúure\".": 4940,
      "▁tọwọ́tẹ": 4941,
      "tọ̀,": 4942,
      "▁en": 4943,
      "kẹyìn,": 4944,
      "▁ọmọdé,": 4945,
      "▁dáná.": 4946,
      "▁ìsinmi.": 4947,
      "▁onímọtara-ẹni-nìkan.": 4948,
      "▁yi": 4949,
      "▁apá.": 4950,
      "▁màlúù,": 4951,
      "▁ṣàyẹ̀wò.": 4952,
      "▁òmùgọ̀,": 4953,
      "▁òtútù.": 4954,
      "▁wọ́n\".": 4955,
      "▁Me": 4956,
      "▁jù\".": 4957,
      "▁ṣinṣin.": 4958,
      "ṣó": 4959,
      "▁wúwo,": 4960,
      "▁rọ́rọ́.": 4961,
      "dàárò": 4962,
      "▁Mama": 4963,
      "▁ìjẹko.": 4964,
      "▁kédàárò": 4965,
      "gail": 4966,
      "▁ápù.": 4967,
      "▁nígboyà.": 4968,
      "▁nídìí": 4969,
      "yípadà": 4970,
      "mùgọ̀": 4971,
      "▁àlejò": 4972,
      "▁abẹ": 4973,
      "▁ìlànà": 4974,
      "▁yẹra": 4975,
      "▁pàtàkì,": 4976,
      "▁wà?": 4977,
      "▁yìí!": 4978,
      "▁níbẹ̀?\"": 4979,
      "▁Cat": 4980,
      "▁pòórá!": 4981,
      "▁lọ́la\".": 4982,
      "▁ìdajì": 4983,
      "za": 4984,
      "▁Wàá": 4985,
      "▁Ìkùukùu": 4986,
      "▁èémí": 4987,
      "▁Ràn": 4988,
      "▁ọ́\".": 4989,
      "▁síta,": 4990,
      "▁ọ̀wọ́n,": 4991,
      "▁lẹni": 4992,
      "yàyà": 4993,
      "▁lórí!\"": 4994,
      "▁le,": 4995,
      "▁àràmàǹdà,": 4996,
      "▁nawọ́,": 4997,
      "▁jọ̀ọ́.": 4998,
      "▁ìbànújẹ́.": 4999,
      "seball": 5000,
      "▁àtayébáyé": 5001,
      "▁láwọn": 5002,
      "▁ṣọdẹ": 5003,
      "kie": 5004,
      "▁àfẹsẹ̀": 5005,
      "▁eniyan": 5006,
      "▁baseball": 5007,
      "▁nìṣó": 5008,
      "▁iléèwé,": 5009,
      "▁kóni": 5010,
      "▁Dav": 5011,
      "▁lásìkò": 5012,
      "dàájọ́": 5013,
      "▁òrùka.": 5014,
      "▁Zoe": 5015,
      "▁\"\"Bẹ́ẹ̀": 5016,
      "▁Spike": 5017,
      "ọ́ọ́": 5018,
      "▁ènìyàn": 5019,
      "▁Òmùgọ̀": 5020,
      "▁dáńgájíá,": 5021,
      "rk": 5022,
      "▁me": 5023,
      "▁gbàù.": 5024,
      "▁níléèwé.": 5025,
      "▁Katie": 5026,
      "fóró": 5027,
      "▁Y": 5028,
      "lọ́rùn": 5029,
      "▁òkúta.": 5030,
      "▁ìtẹ́lọ́rùn": 5031,
      "▁pọ́ọ́": 5032,
      "▁àná": 5033,
      "▁onígun": 5034,
      "▁dígí,": 5035,
      "▁gogoro,": 5036,
      "▁láìròtẹ́lẹ̀.": 5037,
      "▁ìrírí": 5038,
      "▁fáìlì": 5039,
      "▁pọ́ọ́kú": 5040,
      "é,": 5041,
      "▁Ruby": 5042,
      "▁dákú": 5043,
      "▁Mittens.": 5044,
      "▁Poppy": 5045,
      "▁Kérésì": 5046,
      "▁péárì": 5047,
      "▁Sh": 5048,
      "lie.": 5049,
      "▁ẹ̀yìn,": 5050,
      "▁fìríìjì.": 5051,
      "▁Ṣugbọn": 5052,
      "Qu": 5053,
      "▁Rex.": 5054,
      "▁hockey": 5055,
      "ìsà": 5056,
      "▁ìbéèrè.": 5057,
      "dọ̀fóró": 5058,
      "▁Ọ̀kọ̀ọ̀kan": 5059,
      "▁\"Timmy,": 5060,
      "▁Fífi": 5061,
      "▁àbùùbùtán.": 5062,
      "▁ronú.": 5063,
      "▁máni": 5064,
      "gbàgbé": 5065,
      "▁àpótí.": 5066,
      "▁pàdánù.": 5067,
      "▁òpópónà,": 5068,
      "▁pikiniki.": 5069,
      "▁waffle": 5070,
      "▁mánigbàgbé": 5071,
      "▁Tin": 5072,
      "▁lọ́mọ": 5073,
      "▁yọjú": 5074,
      "▁àṣìṣe,": 5075,
      "▁Th": 5076,
      "▁Bẹ́ẹ̀": 5077,
      "▁Àpò": 5078,
      "▁Timmy!": 5079,
      "▁lílo": 5080,
      "▁kíákíá.": 5081,
      "▁ru": 5082,
      "▁ìmìtìtì": 5083,
      "bòmíì": 5084,
      "▁Jane,": 5085,
      "▁bẹ́ǹṣì.": 5086,
      "▁ọ́n,": 5087,
      "▁\"P": 5088,
      "▁ṣẹlẹ̀!": 5089,
      "▁ọkà": 5090,
      "▁Tru": 5091,
      "▁dájú,": 5092,
      "▁àga,": 5093,
      "▁pípín": 5094,
      "▁ya,": 5095,
      "▁míkírófóònù": 5096,
      "▁nípọn": 5097,
      "▁Joy": 5098,
      "▁àgbájọ": 5099,
      "sọ́nà": 5100,
      "▁délé": 5101,
      "míkà": 5102,
      "▁Sunny": 5103,
      "▁Remy": 5104,
      "▁pizz": 5105,
      "▁ile-i": 5106,
      "èrò": 5107,
      "mie": 5108,
      "▁borí,": 5109,
      "▁dọ́": 5110,
      "▁mẹ́rin,": 5111,
      "ẹ́tì": 5112,
      "▁sọ́tọ̀": 5113,
      "▁ṣòfò.": 5114,
      "▁aṣ": 5115,
      "▁gbèrò": 5116,
      "▁okùn.": 5117,
      "um": 5118,
      "anna": 5119,
      "▁kékeré,": 5120,
      "tùkù": 5121,
      "▁kùtùkù": 5122,
      "▁tútù.": 5123,
      "▁ìdánrawò,": 5124,
      "▁kùtùkùtù": 5125,
      "▁X": 5126,
      "▁yà.": 5127,
      "▁mágínẹ́tì": 5128,
      "▁lóhùn,": 5129,
      "▁sara": 5130,
      "▁Ìfẹ́": 5131,
      "▁Nọ́ọ̀sì": 5132,
      "▁ìmọ̀lára": 5133,
      "▁Pe": 5134,
      "▁bébà,": 5135,
      "▁yọ́.": 5136,
      "ver": 5137,
      "▁àṣeyọrí": 5138,
      "▁bàbá,": 5139,
      "▁lemo": 5140,
      "▁ẹṣin.": 5141,
      "▁kan?": 5142,
      "▁oju": 5143,
      "▁yìnbọn.": 5144,
      "▁\"Yuck": 5145,
      "▁kàmàmà.": 5146,
      "bbles": 5147,
      "▁eéṣú.": 5148,
      "▁Abigail": 5149,
      "!\".": 5150,
      "▁kẹ́yìn": 5151,
      "kòtò": 5152,
      "▁Dá": 5153,
      "▁ìsun": 5154,
      "▁ìwòsàn,": 5155,
      "▁ib": 5156,
      "▁pasta": 5157,
      "ákù": 5158,
      "▁ṣòkòtò": 5159,
      "s.": 5160,
      "▁kẹ́míkà": 5161,
      "▁Irú": 5162,
      "bẹ̀,": 5163,
      "▁Òpópónà": 5164,
      "▁bébà.": 5165,
      "ṣòro": 5166,
      "▁óo": 5167,
      "▁dí.": 5168,
      "room,": 5169,
      "▁láàárọ̀": 5170,
      "▁dókítà,": 5171,
      "sọ̀ọ̀": 5172,
      "-n": 5173,
      "▁sàmì": 5174,
      "▁óákù": 5175,
      "▁ìw": 5176,
      "▁ṣeré?": 5177,
      "▁ṣètìlẹ́yìn": 5178,
      "daràn": 5179,
      "▁ìkọ̀wé": 5180,
      "▁Àdàbà": 5181,
      "-binrin": 5182,
      "▁dígí.": 5183,
      "▁fọn": 5184,
      "▁\"Oru": 5185,
      "park": 5186,
      "▁pákó": 5187,
      "▁àkọ́kọ́.": 5188,
      "▁\"Yay": 5189,
      "▁Snowy": 5190,
      "▁Billy,": 5191,
      "▁ọbẹ̀.": 5192,
      "▁sánsán.": 5193,
      "-a": 5194,
      "ṣí": 5195,
      "▁tó!": 5196,
      "▁sókè!": 5197,
      "▁tíì.": 5198,
      "▁in,": 5199,
      "▁léraléra,": 5200,
      "▁ọ̀yàyà": 5201,
      "▁pada": 5202,
      "▁Ben\".": 5203,
      "dún": 5204,
      "▁fìgbà": 5205,
      "jàgan": 5206,
      "díjàgan": 5207,
      "gídíjàgan": 5208,
      "▁osan.": 5209,
      "▁aláìlera": 5210,
      "▁lemonade": 5211,
      "▁Daisy,": 5212,
      "▁borí!": 5213,
      "▁\"Spot": 5214,
      "▁Aládùúgbò": 5215,
      "bọ̀.": 5216,
      "id": 5217,
      "▁\"o": 5218,
      "▁Brown": 5219,
      "▁bẹ́ẹ̀?": 5220,
      "▁\"Ìyá": 5221,
      "▁un!\"": 5222,
      "▁ìrànlọ́wọ́!\"": 5223,
      "▁wo,": 5224,
      "▁ún,": 5225,
      "▁ìtàn,": 5226,
      "▁Rex!": 5227,
      "▁ẹ̀dọ̀fóró": 5228,
      "▁yẹn\".": 5229,
      "▁ọ̀run!": 5230,
      "▁òkúta,": 5231,
      "▁u,": 5232,
      "inky": 5233,
      "w,": 5234,
      "▁Oli": 5235,
      "iyanju": 5236,
      "▁Ìṣòro": 5237,
      "▁ìlera.": 5238,
      "▁àríyànjiyàn": 5239,
      "▁lọwọ": 5240,
      "▁Òkè": 5241,
      "▁ṣàwàdà,": 5242,
      "▁iléèwé.": 5243,
      "▁Betsy": 5244,
      "je.": 5245,
      "▁ọ̀rẹ́?\"": 5246,
      "▁ranti": 5247,
      "▁padà!": 5248,
      "lia": 5249,
      "▁salalu.": 5250,
      "▁ṣàròyé": 5251,
      "▁fẹ́?\"": 5252,
      "▁mọ́ra\".": 5253,
      "▁ọ̀gẹ̀dẹ̀,": 5254,
      "▁fún.": 5255,
      "▁kíákíá,": 5256,
      "io": 5257,
      "▁án?\"": 5258,
      "▁tèmi.": 5259,
      "▁gbígbóná.": 5260,
      "▁Áńgẹ́lì": 5261,
      "▁Joe,": 5262,
      "ster": 5263,
      "▁àwọ̀,": 5264,
      "kẹlẹ": 5265,
      "▁ayọkẹlẹ": 5266,
      "▁ṣeun.": 5267,
      "▁ìṣúra.": 5268,
      "▁èso.": 5269,
      "▁Dúró": 5270,
      "jàgídíjàgan": 5271,
      "▁wakọ̀,": 5272,
      "▁borí!\"": 5273,
      "▁gbéregbère,": 5274,
      "lùfẹ́": 5275,
      "▁dáa\".": 5276,
      "▁afẹ́fẹ́,": 5277,
      "▁Tilly": 5278,
      "▁Níkẹyìn,": 5279,
      "▁gbà!": 5280,
      "▁olólùfẹ́": 5281,
      "▁bàbà": 5282,
      "▁ẹja,": 5283,
      "tẹ́kẹ́": 5284,
      "▁jóná.": 5285,
      "▁kòkòrò,": 5286,
      "▁Spark": 5287,
      "▁dídùn,": 5288,
      "▁alawọ": 5289,
      "▁ìmọtara-ẹni-nì": 5290,
      "▁járí.": 5291,
      "▁kanlẹ̀": 5292,
      "▁\"\"bí": 5293,
      "tẹ́kẹ́tẹ́": 5294,
      "▁àìsàn": 5295,
      "▁àtùpà": 5296,
      "▁èyí!\"": 5297,
      "▁ṣeun\".": 5298,
      "▁rọrùn.": 5299,
      "?\"\"\"": 5300,
      "▁tálá": 5301,
      "▁gbiyanju": 5302,
      "déhùn": 5303,
      "▁Josh": 5304,
      "▁níbẹ̀!\"": 5305,
      "▁wú.": 5306,
      "▁\"Lẹ́yìn": 5307,
      "▁lákọ̀ọ́kọ́.": 5308,
      "▁lọ́mọdé": 5309,
      "▁kẹ́tẹ́kẹ́tẹ́": 5310,
      "▁kólòlò.": 5311,
      "▁ìyípadà": 5312,
      "▁Eré": 5313,
      "▁Ben!": 5314,
      "▁Bàbá,": 5315,
      "▁nawọ́.": 5316,
      "▁sán-ún": 5317,
      "▁\"ì": 5318,
      "▁Ìràwọ̀": 5319,
      "▁ajá,": 5320,
      "▁ìta,": 5321,
      "▁rere,": 5322,
      "▁rírẹ̀dòdò,": 5323,
      "▁ná": 5324,
      "▁\"\"mo": 5325,
      "ṣẹ̀lẹ̀": 5326,
      "Mo": 5327,
      "▁Sally,": 5328,
      "▁Zoom": 5329,
      "▁kọ̀ọ̀kan,": 5330,
      "▁òní.": 5331,
      "▁ṣàìsàn,": 5332,
      "▁ọmọlangidi,": 5333,
      "▁láìpẹ́,": 5334,
      "jo": 5335,
      "▁oníjàgídíjàgan": 5336,
      "gbóhùn": 5337,
      "▁\"\"ì": 5338,
      "▁nísinsìnyí?\"": 5339,
      "▁olóòótọ́,": 5340,
      "▁ọ̀kọ̀ọ̀kan": 5341,
      "sáfẹ́fẹ́": 5342,
      "gbóhùnsáfẹ́fẹ́": 5343,
      "▁kan:": 5344,
      "▁ìsinsìnyí": 5345,
      "▁sọ́tùn-ún": 5346,
      "▁lónìí?\"": 5347,
      "▁Awọn": 5348,
      "▁ìdọ̀tí.": 5349,
      "▁Nina": 5350,
      "▁pàgọ́": 5351,
      "▁rírẹ̀dòdò.": 5352,
      "▁èké": 5353,
      "▁Ẹnu": 5354,
      "▁May": 5355,
      "mm,": 5356,
      "▁Ben?\"": 5357,
      "▁u.": 5358,
      "▁Beth": 5359,
      "▁sarah": 5360,
      "gbè": 5361,
      "▁ológbò.": 5362,
      "▁lágbàáyé": 5363,
      "▁brow": 5364,
      "▁idì": 5365,
      "▁\"\"à": 5366,
      "▁ọwọ́.": 5367,
      "▁Tu": 5368,
      "▁síléèwé,": 5369,
      "sérì": 5370,
      "▁ẹhànnà.": 5371,
      "▁ìyàlẹ́nu.": 5372,
      "▁sàn.": 5373,
      "▁ńláńlá,": 5374,
      "▁àrùn": 5375,
      "▁lásérì": 5376,
      "▁ọ̀rọ̀.": 5377,
      "▁lé,": 5378,
      "urt": 5379,
      "▁Lulu": 5380,
      "▁\"Sara,": 5381,
      "▁\"Àpótí": 5382,
      "▁ìṣòro,": 5383,
      "▁òdìkejì.": 5384,
      "▁lákòókò": 5385,
      "▁eru": 5386,
      "▁láyé!\"": 5387,
      "-nǹkan": 5388,
      "▁eruku": 5389,
      "ox": 5390,
      "▁idun": 5391,
      "▁pẹ̀lẹ́pẹ̀lẹ́.": 5392,
      "▁Oníṣègùn": 5393,
      "bbit": 5394,
      "▁kọ̀ọ̀kan.": 5395,
      "▁gùn.": 5396,
      "▁idunnu": 5397,
      "▁píìsà": 5398,
      "▁pàǹtírí.": 5399,
      "▁Sammy.": 5400,
      "▁kọ́?\"": 5401,
      "▁Chlo": 5402,
      "▁lóúnjẹ,": 5403,
      "▁Nutty": 5404,
      "▁méjèèjì,": 5405,
      "▁bítúmẹ́nì.": 5406,
      "▁ṣeun!": 5407,
      "▁Steve": 5408,
      "▁sinimá": 5409,
      "ùù": 5410,
      "▁rírìn": 5411,
      "▁gbó.": 5412,
      "▁ṣayẹyẹ": 5413,
      "▁mẹ́wàá": 5414,
      "mé": 5415,
      "▁Ri": 5416,
      "▁bìkítà,": 5417,
      "▁dùbúlẹ̀,": 5418,
      "▁ṣọ̀fọ̀": 5419,
      "▁ápù,": 5420,
      "▁abọ́.": 5421,
      "▁àdàkọ": 5422,
      "▁kun": 5423,
      "▁duro": 5424,
      "▁pa\".": 5425,
      "▁ìtọ́ni": 5426,
      "▁kéré.": 5427,
      "▁kù,": 5428,
      "▁ìyẹ̀fun,": 5429,
      "al": 5430,
      "py.": 5431,
      "▁ṣáájú": 5432,
      "▁wà\".": 5433,
      "▁Squ": 5434,
      "▁pin": 5435,
      "▁Ìgò": 5436,
      "▁mí?\"": 5437,
      "▁wẹ̀,": 5438,
      "eak": 5439,
      "▁àtúnṣe": 5440,
      "▁báyìí!": 5441,
      "▁ab": 5442,
      "▁Lin": 5443,
      "▁lẹ́sẹ̀": 5444,
      "▁padà!\"": 5445,
      "▁òjìji.": 5446,
      "▁\"Dúró!": 5447,
      "▁igbo": 5448,
      "▁\"Mú": 5449,
      "▁agbóhùnsáfẹ́fẹ́": 5450,
      "▁májè": 5451,
      "▁nígbẹ̀yìngbẹ́yín.": 5452,
      "▁góòlù.": 5453,
      "▁ẹ̀jẹ̀.": 5454,
      "▁gbingbin,": 5455,
      "▁ṣere": 5456,
      "▁gó": 5457,
      "▁Àìsàn": 5458,
      "ley": 5459,
      "▁ìbe": 5460,
      "▁ààbò\".": 5461,
      "▁Coco": 5462,
      "▁Luna": 5463,
      "ally": 5464,
      "bel": 5465,
      "▁gbẹ̀": 5466,
      "▁gù": 5467,
      "▁padà\".": 5468,
      "▁sára.": 5469,
      "▁Bubbles": 5470,
      "▁aláy": 5471,
      "▁ha,": 5472,
      "▁àyípadà": 5473,
      "▁\"Ìyàlẹ́nu": 5474,
      "▁lóye.": 5475,
      "▁ma": 5476,
      "Rárá": 5477,
      "▁òye": 5478,
      "▁ọ̀tọ̀ọ̀tọ̀.": 5479,
      "▁lóòótọ́.": 5480,
      "▁sẹpẹ́.": 5481,
      "▁ẹ̀rẹ̀": 5482,
      "▁\"jẹ́": 5483,
      "▁lọ́sàn-án": 5484,
      "▁Jamie": 5485,
      "▁osan,": 5486,
      "▁ṣàkóbá": 5487,
      "▁ẹ̀rẹ̀kẹ́": 5488,
      "▁run.": 5489,
      "▁irọ́": 5490,
      "▁nilo": 5491,
      "▁wọn?\"": 5492,
      "▁Nǹkan": 5493,
      "▁wọlé\".": 5494,
      "▁láyé!": 5495,
      "▁ọ̀sìn.": 5496,
      "▁ìní": 5497,
      "▁òdodo": 5498,
      "▁díb": 5499,
      "▁Jac": 5500,
      "▁gbógun": 5501,
      "lẹnu": 5502,
      "▁Olùtọ́jú": 5503,
      "▁wọ́pọ̀.": 5504,
      "▁òtítọ́": 5505,
      "▁Anne": 5506,
      "▁\"Wow!": 5507,
      "▁léṣe,": 5508,
      "▁Teddy.": 5509,
      "▁ìpè": 5510,
      "▁gbàdúrà.": 5511,
      "▁iyalẹnu": 5512,
      "▁Tá": 5513,
      "▁walẹ̀.": 5514,
      "yèmé": 5515,
      "▁apẹ̀rẹ̀.": 5516,
      "▁àbáwọlé": 5517,
      "▁mí!": 5518,
      "▁Rántí": 5519,
      "▁àlàfo,": 5520,
      "▁lágbàáyé.": 5521,
      "▁níye": 5522,
      "▁imọ": 5523,
      "▁mọ́lẹ̀,": 5524,
      "▁ha": 5525,
      "▁káàbọ̀.": 5526,
      "▁là!\"": 5527,
      "▁hẹlẹhẹlẹ.": 5528,
      "▁Ìlú": 5529,
      "cake": 5530,
      "▁ìgbọ̀nsẹ̀.": 5531,
      "▁dàrú.": 5532,
      "láà": 5533,
      "▁sí?\"": 5534,
      "ile": 5535,
      "▁Gi": 5536,
      "▁odò,": 5537,
      "▁àdàpọ̀": 5538,
      "pán": 5539,
      "▁ìran": 5540,
      "▁\"E": 5541,
      "ris": 5542,
      "▁Fox": 5543,
      "▁àwàdà.": 5544,
      "▁ṣọ̀rẹ́.": 5545,
      "ọ́wọ́": 5546,
      "▁lárọ̀": 5547,
      "▁ọmọdébìnrin.": 5548,
      "▁ìfọwọ́sọ́nà": 5549,
      "▁Chirpy": 5550,
      "ọ́wọ́tó": 5551,
      "▁lárọ̀ọ́wọ́tó": 5552,
      "▁fiyè": 5553,
      "▁Tom\".": 5554,
      "▁yàrá,": 5555,
      "▁ọwọ́,": 5556,
      "room": 5557,
      "▁kàyéfì,": 5558,
      "▁àdéhùn": 5559,
      "▁Lí": 5560,
      "▁lọ́pọ̀": 5561,
      "▁yàtọ̀.": 5562,
      "▁ọ̀ṣọ́.": 5563,
      "chel": 5564,
      "▁Thom": 5565,
      "▁ìmọtara-ẹni-nìkan": 5566,
      "▁àga.": 5567,
      "man": 5568,
      "▁Bọ́": 5569,
      "▁mọ́ra!": 5570,
      "▁ojú.": 5571,
      "▁yọjú,": 5572,
      "▁Sarah,": 5573,
      "▁nitorinaa": 5574,
      "▁pópó,": 5575,
      "▁naa.": 5576,
      "▁kúrú": 5577,
      "▁báni": 5578,
      "dékùnrin": 5579,
      "▁lẹ́tà.": 5580,
      "▁láìpẹ́!\"": 5581,
      "▁tẹlifíṣọ̀n,": 5582,
      "▁\"Òó": 5583,
      "▁lẹ́ẹ̀kọ̀ọ̀kan,": 5584,
      "▁Lọ́nà": 5585,
      "▁Bá": 5586,
      "▁\"\"ṣé": 5587,
      "▁ìmárale.": 5588,
      "▁ṣìnà,": 5589,
      "fọ́": 5590,
      "▁ṣiyèmé": 5591,
      "▁the": 5592,
      "▁Ti": 5593,
      "▁ojútù": 5594,
      "▁sójú": 5595,
      "▁ìgbà.": 5596,
      "▁Erùpẹ̀": 5597,
      "▁àlá.": 5598,
      "▁amú-nǹkan": 5599,
      "▁ọpọlọpọ": 5600,
      "▁jẹrà.": 5601,
      "▁ojútùú": 5602,
      "▁Bir": 5603,
      "▁nǹkan\".": 5604,
      "síni": 5605,
      "▁hello": 5606,
      "▁ajá!\"": 5607,
      "▁iná,": 5608,
      "▁ààfin.": 5609,
      "▁wákàtí,": 5610,
      "▁ọ̀wọ́n\".": 5611,
      "▁níwọ̀ntúnwọ̀nsì.": 5612,
      "▁ẹ̀gún": 5613,
      "▁dara,": 5614,
      "▁ìkówèésí.": 5615,
      "▁Claire": 5616,
      "te": 5617,
      "▁àká": 5618,
      "▁rọrùn,": 5619,
      "▁òwúrọ̀.": 5620,
      "▁\"ẹ": 5621,
      "wọsánmà": 5622,
      "▁oyinbo": 5623,
      "▁òkùnkùn,": 5624,
      "▁ìṣẹ́gun": 5625,
      "▁ńláńlá.": 5626,
      "▁Carl": 5627,
      "dàpọ̀": 5628,
      "▁dáadáa!": 5629,
      "▁Sam!": 5630,
      "▁abàmì": 5631,
      "▁ìbẹ̀rẹ̀": 5632,
      "▁síbikíbi.": 5633,
      "ay,": 5634,
      "dd": 5635,
      "▁Kay": 5636,
      "▁Tues": 5637,
      "▁fèrè,": 5638,
      "▁ga.": 5639,
      "▁\"Ha": 5640,
      "▁True": 5641,
      "ce.": 5642,
      "▁nito": 5643,
      "▁Màmá,": 5644,
      "▁Òùngbẹ": 5645,
      "▁Eé": 5646,
      "▁Susan": 5647,
      "▁òjò,": 5648,
      "▁nísàlẹ̀.": 5649,
      "▁ọmọ.": 5650,
      "▁Sí": 5651,
      "▁mẹ́fà": 5652,
      "▁òótọ́.": 5653,
      "▁\"Ni": 5654,
      "▁tipẹ́tipẹ́.": 5655,
      "ries": 5656,
      "▁\"Ọjọ́": 5657,
      "wòkẹ́kọ̀ọ́": 5658,
      "▁ìnura,": 5659,
      "▁ṣófo": 5660,
      "▁mẹ́wàá,": 5661,
      "▁án\".": 5662,
      "▁níhìn-ín.": 5663,
      "▁Suzy": 5664,
      "▁\"Spot,": 5665,
      "▁àrò": 5666,
      "▁jẹ\".": 5667,
      "▁pẹ̀lú\".": 5668,
      "▁wò!\"": 5669,
      "▁Pọ́ọ̀lù": 5670,
      "▁elé": 5671,
      "▁\"C": 5672,
      "▁ọ̀daràn": 5673,
      "▁Ìṣẹ̀lẹ̀": 5674,
      "▁gbìyànjú\".": 5675,
      "▁dájú!": 5676,
      "▁\"Ibi": 5677,
      "▁pancake": 5678,
      "▁Àwọsánmà": 5679,
      "▁ẹ́!": 5680,
      "▁Thomas": 5681,
      "re.": 5682,
      "▁fò!": 5683,
      "▁ìjẹun.": 5684,
      "▁ẹlòmíì.": 5685,
      "▁mẹ́wàá.": 5686,
      "▁ẹlẹ́gbin.": 5687,
      "▁àsìkò": 5688,
      "▁tó\".": 5689,
      "▁Ọ̀dọ́mọbìnrin": 5690,
      "▁jáwọ́.": 5691,
      "▁lẹ́ẹ̀kọ̀ọ̀kan.": 5692,
      "▁àdììtú.": 5693,
      "▁ìbejì.": 5694,
      "▁Lẹ́ẹ̀": 5695,
      "▁náà.\"": 5696,
      "▁ṣọ́ra!\"": 5697,
      "▁afẹ́,": 5698,
      "▁nìyí!": 5699,
      "tch": 5700,
      "▁wa!": 5701,
      "▁àfikún": 5702,
      "▁Lou": 5703,
      "▁àd": 5704,
      "nie.": 5705,
      "▁Matt": 5706,
      "àrá": 5707,
      "▁ẹ?\"": 5708,
      "rúdàpọ̀": 5709,
      "▁bàtà.": 5710,
      "▁mẹ́rin.": 5711,
      "ilẹ": 5712,
      "▁Ké": 5713,
      "▁lọ́kàn,": 5714,
      "▁darúgbó": 5715,
      "▁panápan": 5716,
      "▁\"Yay,": 5717,
      "▁Dádì": 5718,
      "▁lọ́kàn!": 5719,
      "▁dáhùn.": 5720,
      "▁ìjẹko,": 5721,
      "▁Qu": 5722,
      "▁lèrò": 5723,
      "▁yẹ,": 5724,
      "▁ihò.": 5725,
      "▁Jenny.": 5726,
      "▁Emily.": 5727,
      "▁sùn\".": 5728,
      "▁àsọ": 5729,
      "▁Molly,": 5730,
      "▁gbẹ̀yìn": 5731,
      "ie.": 5732,
      "▁Frank": 5733,
      "wìrì": 5734,
      "▁oun": 5735,
      "▁Odò": 5736,
      "jáwìrì": 5737,
      "▁pàjáwìrì": 5738,
      "▁\"\"kí": 5739,
      "▁naa,": 5740,
      "▁rọ́rọ́,": 5741,
      "▁ẹlẹdẹ": 5742,
      "▁Bákan": 5743,
      "▁búlọ́ọ̀mù": 5744,
      "▁beep": 5745,
      "tilé": 5746,
      "▁un?\"": 5747,
      "▁Hanna": 5748,
      "▁àlùbọ́sà,": 5749,
      "▁Lisa.": 5750,
      "▁láàyè,": 5751,
      "▁àṣetilé": 5752,
      "▁àṣetiléwá": 5753,
      "▁Ẹgbẹ́": 5754,
      "▁ìyẹn.": 5755,
      "▁amó": 5756,
      "ai": 5757,
      "▁Nípa": 5758,
      "▁gbéjà": 5759,
      "▁rọra,": 5760,
      "▁tabi": 5761,
      "waju": 5762,
      "▁Kìkì": 5763,
      "▁\"Ọkùnrin": 5764,
      "▁níhìn-ín\".": 5765,
      "▁bẹrẹ": 5766,
      "▁i?": 5767,
      "▁ìyà": 5768,
      "▁gbogbo\".": 5769,
      "álì": 5770,
      "▁jùlọ": 5771,
      "▁àpótí,": 5772,
      "▁lucy": 5773,
      "▁sii": 5774,
      "▁ọ̀làwọ́.": 5775,
      "▁dópin,": 5776,
      "▁jòhánù": 5777,
      "▁iy": 5778,
      "▁ipá": 5779,
      "▁ìpá": 5780,
      "▁ẹ̀yà": 5781,
      "ni.": 5782,
      "▁mẹ́jọ": 5783,
      "▁sẹ́kún": 5784,
      "▁Leo.": 5785,
      "▁jẹ́ẹ́jẹ́ẹ́.": 5786,
      "pánu": 5787,
      "▁ìpápánu": 5788,
      "▁rìn!": 5789,
      "▁kú,": 5790,
      "▁ṣúgà,": 5791,
      "-ọmọ-ọmọ-ọmọ-ọmọ": 5792,
      "▁Àá": 5793,
      "▁Kẹ̀kẹ́": 5794,
      "▁tẹ̀lé": 5795,
      "▁láìjẹ́": 5796,
      "▁fọ́fọ́": 5797,
      "▁ẹrẹ̀,": 5798,
      "▁wẹ́wẹ́,": 5799,
      "ọọ": 5800,
      "▁nírìí": 5801,
      "▁ahoro": 5802,
      "▁wáyé": 5803,
      "▁Mira": 5804,
      "▁pérépéré.": 5805,
      "▁pizza": 5806,
      "▁pọ": 5807,
      "▁péálì": 5808,
      "▁ibòmíràn": 5809,
      "▁Be": 5810,
      "▁fò!\"": 5811,
      "▁dúpẹ́.": 5812,
      "▁Tiny": 5813,
      "▁pẹ̀lẹ́,": 5814,
      "▁ṣègbéyàwó.": 5815,
      "g,": 5816,
      "▁dàwátì.": 5817,
      "▁Chloe": 5818,
      "▁Linda": 5819,
      "▁\"lily,": 5820,
      "▁iṣẹ́,": 5821,
      "▁\"Ìwà": 5822,
      "▁sọnù,": 5823,
      "ẹ̀ta": 5824,
      "▁pọ́ń": 5825,
      "indy": 5826,
      "parun": 5827,
      "tẹ̀ẹ̀ta": 5828,
      "▁mẹ́tẹ̀ẹ̀ta": 5829,
      "▁òrùka,": 5830,
      "▁kìnnìún.": 5831,
      "▁ìgbafẹ́,": 5832,
      "▁dẹ́kun": 5833,
      "bélé": 5834,
      "▁ná,": 5835,
      "▁wàràkàṣì,": 5836,
      "▁ẹtu.": 5837,
      "▁àjèjì.": 5838,
      "▁ìkésíni": 5839,
      "ger": 5840,
      "ttle": 5841,
      "▁bọ̀!\"": 5842,
      "pé": 5843,
      "ọwọ́": 5844,
      "▁lọ́sọ̀ọ̀": 5845,
      "▁oníw": 5846,
      "ednes": 5847,
      "▁\"Ọkọ̀": 5848,
      "▁jagun": 5849,
      "▁Jessie": 5850,
      "▁pọ́ńbélé": 5851,
      "▁bàjẹ́": 5852,
      "▁ṣí.": 5853,
      "dèrú": 5854,
      "▁Ga": 5855,
      "▁ayédèrú": 5856,
      "▁là!": 5857,
      "▁ọjà,": 5858,
      "▁Rachel": 5859,
      "▁àròsọ": 5860,
      "▁dá.": 5861,
      "▁Julie": 5862,
      "▁jọni": 5863,
      "dìdì": 5864,
      "▁rọra.": 5865,
      "▁àsọyé": 5866,
      "ǹlà": 5867,
      "▁ńkọ́": 5868,
      "▁ńláǹlà": 5869,
      "▁jáde\".": 5870,
      "▁àwọsánmà,": 5871,
      "▁àtàtà,": 5872,
      "▁grẹy": 5873,
      "oof": 5874,
      "jèjì": 5875,
      "▁mì,": 5876,
      "▁gbajúm": 5877,
      "▁bẹ̀bẹ̀": 5878,
      "▁orin,": 5879,
      "▁ìkòkò,": 5880,
      "langba": 5881,
      "▁fẹ́!\"": 5882,
      "▁Wednes": 5883,
      "▁\"Omi": 5884,
      "▁Òkun": 5885,
      "▁wákàtí.": 5886,
      "iolin": 5887,
      "▁èéfín.": 5888,
      "▁wúlò.": 5889,
      "jókòó": 5890,
      "▁ọ?\"": 5891,
      "▁àwọ̀lékè.": 5892,
      "▁síwájú,": 5893,
      "▁láǹfààní.": 5894,
      "▁májèlé": 5895,
      "▁\"Ràn": 5896,
      "▁Jenna": 5897,
      "tty.": 5898,
      "▁\"Mia,": 5899,
      "▁kedere": 5900,
      "▁\"Òótọ́": 5901,
      "▁jáde!": 5902,
      "wùjọ": 5903,
      "▁sánsán,": 5904,
      "▁gbingbin.": 5905,
      "anu": 5906,
      "▁ìgbè": 5907,
      "▁líìmù": 5908,
      "▁ín,": 5909,
      "▁fẹran": 5910,
      "▁lẹ́rìn-ín,": 5911,
      "ègbè": 5912,
      "ẹẹni": 5913,
      "▁Àjèjì": 5914,
      "▁èdìdì": 5915,
      "▁onímọ̀": 5916,
      "▁dáná,": 5917,
      "▁àgbègbè": 5918,
      "▁Jeff": 5919,
      "▁hun": 5920,
      "ríko": 5921,
      "▁daju": 5922,
      "▁oògùn.": 5923,
      "▁ìgbèríko": 5924,
      "▁jọ̀wọ́!": 5925,
      "▁ìtajà.": 5926,
      "▁gíga.": 5927,
      "▁violin": 5928,
      "▁ọ̀dọ́langba": 5929,
      "▁lóru": 5930,
      "▁dún!": 5931,
      "▁\"Hé,": 5932,
      "▁lẹ́bi.": 5933,
      "▁ìbámu": 5934,
      "▁tó!\"": 5935,
      "▁Àgùntàn": 5936,
      "▁Òǹ": 5937,
      "▁màlúù.": 5938,
      "▁fífún": 5939,
      "▁Fluffy,": 5940,
      "▁ọlọ́pàá.": 5941,
      "▁lẹẹ": 5942,
      "▁ṣọ̀fọ̀,": 5943,
      "▁oh": 5944,
      "▁ríra": 5945,
      "▁àkó": 5946,
      "▁\"\"bẹ́ẹ̀": 5947,
      "▁Lucky": 5948,
      "▁àárín.": 5949,
      "▁Onímọ̀": 5950,
      "yster": 5951,
      "ọ́bọ́ọ̀tì": 5952,
      "▁Ọ̀gbẹ́ni.": 5953,
      "▁ìdákẹ́jẹ́ẹ́.": 5954,
      "raka": 5955,
      "▁ọwọ": 5956,
      "▁tiraka": 5957,
      "▁olókù": 5958,
      "▁sọ̀rọ̀\".": 5959,
      "tter": 5960,
      "▁nitori": 5961,
      "▁olókùúta": 5962,
      "▁Tom?\"": 5963,
      "▁Màmá:": 5964,
      "▁lèyí.": 5965,
      "▁mẹta": 5966,
      "gbọ́": 5967,
      "▁ìwa": 5968,
      "▁èyí?": 5969,
      "▁yín?\"": 5970,
      "kùsà": 5971,
      "▁ẹ̀dùn.": 5972,
      "ex": 5973,
      "▁wà!\"": 5974,
      "kàntọ": 5975,
      "▁ibi.": 5976,
      "▁rẹ.\"": 5977,
      "▁tọkàntọ": 5978,
      "▁nìyí\".": 5979,
      "▁erùpẹ̀,": 5980,
      "▁Òrùlé": 5981,
      "▁tọkàntọkàn": 5982,
      "-ra": 5983,
      "han": 5984,
      "▁gbéra": 5985,
      "▁baba": 5986,
      "▁níṣìírí.": 5987,
      "▁Eéṣú": 5988,
      "▁lẹẹkan": 5989,
      "▁àkójọ": 5990,
      "!<unk>": 5991,
      "▁sh": 5992,
      "▁yòò!\"": 5993,
      "ert": 5994,
      "zzy": 5995,
      "▁jowú.": 5996,
      "▁hó.": 5997,
      "▁gbàù,": 5998,
      "▁lómìnira.": 5999,
      "ey.": 6000,
      "ọ́ra,": 6001,
      "▁agbára.": 6002,
      "▁gòjé": 6003,
      "berries": 6004,
      "ika": 6005,
      "▁ayika": 6006,
      "▁gbéregbère.": 6007,
      "▁dáradára,": 6008,
      "▁Floppy": 6009,
      "ẹli": 6010,
      "▁Tes": 6011,
      "▁eyi": 6012,
      "▁Emi": 6013,
      "▁Rọ́bọ́ọ̀tì": 6014,
      "▁wàhálà,": 6015,
      "▁láyè.": 6016,
      "▁lọ?": 6017,
      "▁Ìparun": 6018,
      "kọ̀wé": 6019,
      "▁eléré": 6020,
      "▁lọ́wọ́?": 6021,
      "▁mọ́ra!\"": 6022,
      "▁orí.": 6023,
      "▁ṣàníyàn\".": 6024,
      "lph": 6025,
      "▁márùn-ún,": 6026,
      "▁oníwọra": 6027,
      "sun": 6028,
      "▁ìwọ̀": 6029,
      "▁\"Mmm,": 6030,
      "▁Jones": 6031,
      "▁ọna": 6032,
      "▁lọ́la,": 6033,
      "▁Àgbá": 6034,
      "▁á!\"": 6035,
      "▁láìséwu,": 6036,
      "▁níkẹyìn,": 6037,
      "ana": 6038,
      "▁sẹ́wọ̀n": 6039,
      "▁Kayla": 6040,
      "▁pọkàn": 6041,
      "▁squ": 6042,
      "▁díje.": 6043,
      "▁pọ̀!\"": 6044,
      "▁Rose.": 6045,
      "▁oníwúrà": 6046,
      "▁wà!": 6047,
      "▁ẹ̀bi": 6048,
      "▁mìíràn\".": 6049,
      "▁Èèyàn": 6050,
      "▁Hoppy": 6051,
      "▁Hannah": 6052,
      "by.": 6053,
      "▁wẹ": 6054,
      "▁\"Oh": 6055,
      "▁kà.": 6056,
      "▁ewéko.": 6057,
      "▁ìkà,": 6058,
      "▁ìwakùsà": 6059,
      "fish": 6060,
      "▁Tim!\"": 6061,
      "▁káàkiri!": 6062,
      "▁àb": 6063,
      "▁ìrẹ̀": 6064,
      "▁sí\".": 6065,
      "▁ṣẹlẹ̀\".": 6066,
      "▁\"má": 6067,
      "▁Betty": 6068,
      "▁tálákà": 6069,
      "▁lósì.": 6070,
      "▁Àlà": 6071,
      "▁lójú,": 6072,
      "▁olùṣe": 6073,
      "▁rírẹwà,": 6074,
      "▁nìyí,": 6075,
      "▁X-ra": 6076,
      "▁\"Yay!": 6077,
      "s,": 6078,
      "▁níb": 6079,
      "júsùn": 6080,
      "▁Àwòkẹ́kọ̀ọ́": 6081,
      "▁Jessi": 6082,
      "va": 6083,
      "▁Mò": 6084,
      "jálù": 6085,
      "▁\"Ẹyẹ": 6086,
      "▁ìyára": 6087,
      "▁kún.": 6088,
      "▁Cindy": 6089,
      "▁ẹran,": 6090,
      "▁búburú.": 6091,
      "▁David": 6092,
      "!'": 6093,
      "èmi": 6094,
      "▁jack": 6095,
      "▁\"bẹ́ẹ̀": 6096,
      "▁àtijọ́,": 6097,
      "▁kọ̀.": 6098,
      "bie": 6099,
      "▁láé!\"": 6100,
      "▁pàápàá!": 6101,
      "▁Òṣùmàrè": 6102,
      "▁ori": 6103,
      "▁joh": 6104,
      "▁idan": 6105,
      "▁fipá": 6106,
      "▁onídàájọ́": 6107,
      "▁Gre": 6108,
      "▁irin,": 6109,
      "▁aláìlera.": 6110,
      "▁\"bí": 6111,
      "▁èjìká,": 6112,
      "▁alà": 6113,
      "▁Mom": 6114,
      "míya": 6115,
      "▁ìsálú": 6116,
      "n.": 6117,
      "▁Lọ": 6118,
      "▁rí?\"": 6119,
      "▁\"\"kò": 6120,
      "▁kíláàsì.": 6121,
      "▁Suzie": 6122,
      "▁àbójútó": 6123,
      "ánil": 6124,
      "▁fúnni.": 6125,
      "▁á!": 6126,
      "▁strawberries": 6127,
      "▁So": 6128,
      "fóònù.": 6129,
      "níjà": 6130,
      "ghurt": 6131,
      "▁òmíràn,": 6132,
      "▁ìyanu": 6133,
      "▁àwọ̀lékè,": 6134,
      "▁kẹ́lẹ́kẹ́lẹ́,": 6135,
      "▁iṣẹ": 6136,
      "▁Ba": 6137,
      "▁ṣẹ,": 6138,
      "▁\"\"má": 6139,
      "▁bítúmẹ́nì,": 6140,
      "ilẹ̀ṣẹ̀": 6141,
      "▁\"Joh": 6142,
      "▁ṣàròyé.": 6143,
      "▁\"àwọn": 6144,
      "▁Bo": 6145,
      "▁Abby": 6146,
      "▁gbà\".": 6147,
      "▁dúró\".": 6148,
      "▁láàárọ̀,": 6149,
      "áké": 6150,
      "▁Al": 6151,
      "▁\"\"ní": 6152,
      "▁\"\"Rárá": 6153,
      "▁ọ́!\"": 6154,
      "▁tèmi!\"": 6155,
      "▁ijó.": 6156,
      "▁ṣí,": 6157,
      "▁mu\".": 6158,
      "▁onímọtara-ẹni-nìkan,": 6159,
      "tha": 6160,
      "▁ìṣirò.": 6161,
      "▁súni,": 6162,
      "▁jìyà.": 6163,
      "▁gan-an\",": 6164,
      "▁Wil": 6165,
      "▁Gbọ̀n": 6166,
      "▁nù,": 6167,
      "Hello": 6168,
      "▁lóye,": 6169,
      "▁Momo": 6170,
      "▁rẹ́": 6171,
      "▁\"Màá": 6172,
      "▁wí.": 6173,
      "▁Zip": 6174,
      "▁yàn.": 6175,
      "▁pẹja.": 6176,
      "bọ́ọ̀lù": 6177,
      "▁ẹnikẹ́ni,": 6178,
      "▁ounjẹ": 6179,
      "kúrú": 6180,
      "▁Ká": 6181,
      "▁\"Ẹnì": 6182,
      "▁àgbà\".": 6183,
      "▁Pandy": 6184,
      "▁ig": 6185,
      "▁ọgba": 6186,
      "▁tí,": 6187,
      "▁ṣíṣí": 6188,
      "▁kúkúrú": 6189,
      "▁Lee.": 6190,
      "▁ow,": 6191,
      "ẹrẹ": 6192,
      "▁ọ̀la": 6193,
      "▁wọn!\"": 6194,
      "ila": 6195,
      "▁kékeré!": 6196,
      "▁tìkọ̀": 6197,
      "▁Ca": 6198,
      "▁ìbànújẹ́,": 6199,
      "▁ọ́n\".": 6200,
      "▁ẹ̀ẹ̀rùn,": 6201,
      "▁tiwa.": 6202,
      "▁nírìíra.": 6203,
      "▁Gbọ̀ngàn": 6204,
      "mm": 6205,
      "gbara": 6206,
      "▁mọ́?\"": 6207,
      "▁ọ̀tún": 6208,
      "▁adìyẹ.": 6209,
      "▁àdúrà": 6210,
      "▁Tara": 6211,
      "▁Olúkúlùkù": 6212,
      "▁ìpèníjà": 6213,
      "be": 6214,
      "mma": 6215,
      "òní": 6216,
      "▁àdá": 6217,
      "kòó": 6218,
      "▁ìrọ̀lẹ́.": 6219,
      "▁lẹhin": 6220,
      "ákélì": 6221,
      "▁rèé": 6222,
      "▁gáàsì": 6223,
      "▁Bon": 6224,
      "day,": 6225,
      "▁jellyfish": 6226,
      "▁Kékeré": 6227,
      "loo": 6228,
      "té.": 6229,
      "àyè": 6230,
      "▁oyster": 6231,
      "▁agbá": 6232,
      "▁\"\"L": 6233,
      "▁dáadáa!\"": 6234,
      "▁ìpilẹ̀ṣẹ̀": 6235,
      "▁Àárẹ̀": 6236,
      "▁alààyè": 6237,
      "▁agbábọ́ọ̀lù": 6238,
      "Ẹ̀": 6239,
      "▁rà.": 6240,
      "▁dòní": 6241,
      "▁pọ̀!": 6242,
      "pẹẹrẹ": 6243,
      "▁Olùṣọ́": 6244,
      "▁síta.": 6245,
      "▁yoghurt": 6246,
      "ẹẹni,": 6247,
      "▁wọ́n!": 6248,
      "▁ọta": 6249,
      "òran": 6250,
      "▁pẹ̀lú,": 6251,
      "▁ọkàn.": 6252,
      "▁pínyà.": 6253,
      "▁dọ́gba": 6254,
      "ena": 6255,
      "▁ṣẹlẹ̀?": 6256,
      "▁\"Ẹ̀yin!": 6257,
      "▁ìfìwéránṣẹ́.": 6258,
      "▁ìgbéraga.": 6259,
      "▁ṣàn.": 6260,
      "▁prun": 6261,
      "▁lọ́rà": 6262,
      "▁èso,": 6263,
      "▁èyí\".": 6264,
      "▁ọ̀pá.": 6265,
      "▁ìbẹ̀rẹ̀,": 6266,
      "▁ewébẹ̀,": 6267,
      "▁èbúté.": 6268,
      "láàyè": 6269,
      "▁Jazz": 6270,
      "▁àwàdà,": 6271,
      "▁\"Ọmọkùnrin": 6272,
      "▁Gigi": 6273,
      "▁tòótọ́": 6274,
      "palára": 6275,
      "gùn-ún": 6276,
      "▁Dolly": 6277,
      "▁sẹ́nu": 6278,
      "▁\"Nigba": 6279,
      "▁omíya": 6280,
      "▁sísọ̀": 6281,
      "gbàù": 6282,
      "▁\"Ow,": 6283,
      "▁\"\"T": 6284,
      "▁nísàlẹ̀": 6285,
      "dúró": 6286,
      "g.": 6287,
      "▁dára\".": 6288,
      "▁léraléra": 6289,
      "▁àdàkàdekè.": 6290,
      "▁Sunday": 6291,
      "▁àsùn": 6292,
      "▁ṣiṣẹ́!": 6293,
      "▁ìwàláàyè": 6294,
      "▁gbìn": 6295,
      "rárá": 6296,
      "▁tọju": 6297,
      "▁Àti": 6298,
      "▁Luke": 6299,
      "▁dahun": 6300,
      "▁Amy,": 6301,
      "▁Jimmy.": 6302,
      "▁ṣàkóso.": 6303,
      "▁Lílì": 6304,
      "▁tom": 6305,
      "▁àpa": 6306,
      "▁ní\".": 6307,
      "▁itan": 6308,
      "▁àárọ̀,": 6309,
      "▁ṣúlẹ̀.": 6310,
      "▁bò.": 6311,
      "▁àjàrà.": 6312,
      "▁aláìlá": 6313,
      "▁run": 6314,
      "▁omi\".": 6315,
      "▁Mick": 6316,
      "▁ìnàjú.": 6317,
      "▁fò\".": 6318,
      "▁Ọmọ-binrin": 6319,
      "▁ṣiṣẹ": 6320,
      "▁Rákélì": 6321,
      "▁waffles": 6322,
      "o,": 6323,
      "▁létòlétò,": 6324,
      "▁oníwọra.": 6325,
      "▁àfẹsẹ̀gbá": 6326,
      "▁lọ́fẹ̀ẹ́": 6327,
      "▁lọ́rọ̀": 6328,
      "▁tèmi\".": 6329,
      "▁on": 6330,
      "paa": 6331,
      "ronú": 6332,
      "▁Pí": 6333,
      "▁márùn-ún.": 6334,
      "▁aṣá": 6335,
      "kòóso": 6336,
      "▁Tí": 6337,
      "▁paa": 6338,
      "▁'Ẹ": 6339,
      "▁séwu,": 6340,
      "▁akẹ́rù.": 6341,
      "▁aládé,": 6342,
      "▁afárá.": 6343,
      "▁vroom": 6344,
      "▁lọ́mọdé.": 6345,
      "up": 6346,
      "árín": 6347,
      "▁ìyìn": 6348,
      "▁Àtùpà": 6349,
      "▁ọ̀pá,": 6350,
      "▁Little": 6351,
      "▁Kérésìme": 6352,
      "▁Jake.": 6353,
      "▁sọ́tọ̀.": 6354,
      "▁owó.": 6355,
      "▁sinu": 6356,
      "▁òṣùpá,": 6357,
      "▁tútù,": 6358,
      "▁Flop": 6359,
      "▁pancakes": 6360,
      "▁Jessica": 6361,
      "▁paapaa": 6362,
      "gẹ": 6363,
      "▁dùn\".": 6364,
      "▁Jill,": 6365,
      "▁ẹ̀wà,": 6366,
      "▁tìẹ\".": 6367,
      "▁tọwọ́tẹsẹ̀.": 6368,
      "▁ìdè": 6369,
      "▁Pi": 6370,
      "▁\"Ìd": 6371,
      "▁ṣokoléètì.": 6372,
      "▁àsùnwọ": 6373,
      "▁Benny,": 6374,
      "▁Jim.": 6375,
      "▁Ze": 6376,
      "▁lẹ́ẹ̀kọ̀ọ̀kan": 6377,
      "▁koko.": 6378,
      "▁àì": 6379,
      "▁rìn\".": 6380,
      "▁Wákàtí": 6381,
      "▁igloo": 6382,
      "▁sẹ́ẹ̀lì": 6383,
      "ane": 6384,
      "▁ìbẹ̀wò": 6385,
      "▁lá.": 6386,
      "▁Bes": 6387,
      "▁obìnrin,": 6388,
      "▁wú,": 6389,
      "▁kéèkì,": 6390,
      "▁gómì": 6391,
      "útú": 6392,
      "▁fọ̀rọ̀": 6393,
      "▁dáa!\"": 6394,
      "▁túútú": 6395,
      "▁ìgbọ́kọ̀sí,": 6396,
      "▁\"Ọmọbìnrin": 6397,
      "▁sẹpẹ́,": 6398,
      "▁níbẹ̀rẹ̀,": 6399,
      "▁túútúú": 6400,
      "t.": 6401,
      "en,": 6402,
      "▁Bíi": 6403,
      "▁burúkú!": 6404,
      "▁hù,": 6405,
      "▁ẹ̀ẹ̀rùn.": 6406,
      "▁kọ́lọkọ̀lọ.": 6407,
      "bàà": 6408,
      "▁kojú": 6409,
      "▁dabi": 6410,
      "rel": 6411,
      "▁ìfẹ́.": 6412,
      "▁poppy": 6413,
      "▁oorun.": 6414,
      "▁Ìdárayá": 6415,
      "▁\"Àwòrán": 6416,
      "▁ìṣòro.": 6417,
      "▁wíwá": 6418,
      "▁\"Anna": 6419,
      "▁Àwùjọ": 6420,
      "▁alápàáǹdẹ̀dẹ̀,": 6421,
      "▁là\".": 6422,
      "▁dógùn-ún": 6423,
      "▁\"Ìrànlọ́wọ́!\"": 6424,
      "▁síwájú.": 6425,
      "▁bọ́ọ̀sì.": 6426,
      "ddie": 6427,
      "▁su": 6428,
      "▁Abbi": 6429,
      "oo!\"": 6430,
      "▁\"\"Ṣé": 6431,
      "▁\"Rex": 6432,
      "▁ọba.": 6433,
      "▁ìtàgé,": 6434,
      "-o": 6435,
      "▁\"\"lily,": 6436,
      "▁láìdá": 6437,
      "▁lèyí!": 6438,
      "▁ìdánrawò.": 6439,
      "▁itara": 6440,
      "▁ọkọ̀.": 6441,
      "▁jẹ!\"": 6442,
      "▁wàrà,": 6443,
      "▁aago.": 6444,
      "▁oko.": 6445,
      "▁dá,": 6446,
      "▁Àga": 6447,
      "▁\"\"W": 6448,
      "▁rì.": 6449,
      "▁omíyalé": 6450,
      "▁Ìwọ̀n": 6451,
      "▁gidi,": 6452,
      "▁járí!": 6453,
      "úkàrà": 6454,
      "▁onífẹ̀ẹ́": 6455,
      "wọ́n.": 6456,
      "sánsán": 6457,
      "▁ìtẹ́lọ́rùn.": 6458,
      "▁rírọ̀.": 6459,
      "▁Ìjókòó": 6460,
      "▁fèsì.": 6461,
      "siwaju": 6462,
      "▁ṣàkóso,": 6463,
      "▁\"Ọmọdékùnrin": 6464,
      "▁Orílẹ̀-èdè": 6465,
      "▁Julia": 6466,
      "▁grẹy,": 6467,
      "▁láìdáwọ́": 6468,
      "▁búrẹ́dì\".": 6469,
      "▁\"\"J": 6470,
      "▁mi.\"": 6471,
      "▁àmì.": 6472,
      "▁amún": 6473,
      "▁Lizzie": 6474,
      "▁panápaná.": 6475,
      "▁lálẹ́,": 6476,
      "▁jàǹbá\".": 6477,
      "▁hẹlẹhẹlẹ,": 6478,
      "▁aláyọ̀.": 6479,
      "▁gbajúmọ̀.": 6480,
      "▁nibẹ": 6481,
      "▁Sam!\"": 6482,
      "búgbàù": 6483,
      "▁níta\".": 6484,
      "▁wàhálà\".": 6485,
      "▁ewu,": 6486,
      "▁Èéfín": 6487,
      "irrel": 6488,
      "▁Buzzy": 6489,
      "▁rara.": 6490,
      "▁Tẹli": 6491,
      "▁Níwọ̀n": 6492,
      "▁sókè!\"": 6493,
      "▁Pin": 6494,
      "▁gbọ̀n,": 6495,
      "▁ẹ̀dùn,": 6496,
      "▁jákè": 6497,
      "jádò": 6498,
      "▁yòò\".": 6499,
      "▁ìkòkò.": 6500,
      "▁nìkan,": 6501,
      "▁alẹ́\".": 6502,
      "▁\"Sh": 6503,
      "▁gbágungbàgun.": 6504,
      "▁jákèjádò": 6505,
      "▁rírẹ": 6506,
      "▁lójúko": 6507,
      "▁ẹṣin,": 6508,
      "▁pẹ̀lẹ́pẹ̀lẹ́,": 6509,
      "bogbo": 6510,
      "▁oje": 6511,
      "▁Larry": 6512,
      "en.": 6513,
      "nuko": 6514,
      "▁hòrò": 6515,
      "▁lómìnira": 6516,
      "nukonu": 6517,
      "Ni": 6518,
      "ffin": 6519,
      "▁ọ̀gbẹ́ni": 6520,
      "jáku": 6521,
      "▁rò.": 6522,
      "▁jìnnà.": 6523,
      "▁láàárọ̀.": 6524,
      "▁Kiki": 6525,
      "▁Olè": 6526,
      "▁dákú.": 6527,
      "▁Pep": 6528,
      "▁ọmọkùnrin.": 6529,
      "▁Hoo": 6530,
      "▁Màríà.": 6531,
      "▁àfiyèsí": 6532,
      "▁lójúfò,": 6533,
      "▁amí": 6534,
      "▁Lau": 6535,
      "▁Ash": 6536,
      "▁tẹsiwaju": 6537,
      "▁tíì,": 6538,
      "py,": 6539,
      "ìní": 6540,
      "▁Blu": 6541,
      "▁gbéra,": 6542,
      "▁kékeré\".": 6543,
      "▁ojú,": 6544,
      "▁wò!": 6545,
      "▁\"Lọ": 6546,
      "▁yọ́,": 6547,
      "▁láyé\".": 6548,
      "▁àlàáfíà,": 6549,
      "áwá": 6550,
      "▁ajá!": 6551,
      "▁\"\"èmi": 6552,
      "▁Johnson": 6553,
      "▁àkọ́kọ́,": 6554,
      "▁onírẹ̀lẹ̀.": 6555,
      "▁Òṣùpá": 6556,
      "▁àfẹsẹ̀gb": 6557,
      "▁amúnáwá": 6558,
      "▁ṣá": 6559,
      "▁Sim": 6560,
      "▁ẹyẹ!\"": 6561,
      "pop": 6562,
      "▁bang": 6563,
      "▁grẹy.": 6564,
      "▁Big": 6565,
      "▁uni": 6566,
      "▁okùn,": 6567,
      "▁burúkú!\"": 6568,
      "▁múra,": 6569,
      "▁lónìí!\"": 6570,
      "▁'Mo": 6571,
      "▁ìjẹun,": 6572,
      "ggles": 6573,
      "▁ìbàjẹ́.": 6574,
      "▁alákòóso": 6575,
      "▁Ọ̀dọ́": 6576,
      "▁Max!\"": 6577,
      "anie": 6578,
      "kọ́ṣe": 6579,
      "▁Emmy": 6580,
      "▁gíga,": 6581,
      "gbẹ̀yìngbẹ́yín,": 6582,
      "▁àbáyọ.": 6583,
      "▁ìwòran": 6584,
      "▁sílé!\"": 6585,
      "▁\"\"E": 6586,
      "▁láyọ̀!": 6587,
      "▁sọ̀rọ̀!": 6588,
      "▁àfojúsùn": 6589,
      "▁ìwádìí.": 6590,
      "▁ṣègbọràn,": 6591,
      "▁ìjàkadì.": 6592,
      "▁(Ẹ̀": 6593,
      "▁déédéé.": 6594,
      "▁X-ray": 6595,
      "▁fóònù.": 6596,
      "▁Ìjà": 6597,
      "rick": 6598,
      "▁irùngbọ̀n.": 6599,
      "▁Nick": 6600,
      "▁hockey.": 6601,
      "▁unicorn": 6602,
      "angaroo": 6603,
      "▁oni": 6604,
      "▁igb": 6605,
      "ríyá": 6606,
      "▁ọ̀bẹ.": 6607,
      "▁sam": 6608,
      "▁ìmúra.": 6609,
      "▁\"Hello,": 6610,
      "▁mar": 6611,
      "▁jáde!\"": 6612,
      "▁oníbàá": 6613,
      "▁\"Ìwé": 6614,
      "▁léṣe!\"": 6615,
      "▁fìríìjì,": 6616,
      "▁Láàárín": 6617,
      "▁Nemo.": 6618,
      "▁ìgbọ̀nsẹ̀,": 6619,
      "▁Kódà,": 6620,
      "▁nìṣó.": 6621,
      "▁meji": 6622,
      "▁oníbàárà": 6623,
      "▁oṣù": 6624,
      "▁mi\",": 6625,
      "▁dàbí": 6626,
      "▁bàtà,": 6627,
      "▁Milo": 6628,
      "sie.": 6629,
      "sty": 6630,
      "▁\"Tommy,": 6631,
      "▁òsì": 6632,
      "▁nira": 6633,
      "▁Ìgbé": 6634,
      "▁sósì.": 6635,
      "▁Ṣọ́ra": 6636,
      "▁ìdènà": 6637,
      "▁rẹ́rìn": 6638,
      "▁jo": 6639,
      "▁ọ!": 6640,
      "▁Nígbẹ̀yìngbẹ́yín,": 6641,
      "▁Robert": 6642,
      "▁níṣòro.": 6643,
      "▁nibi": 6644,
      "▁ọmọdékùnrin.": 6645,
      "▁àwòkọ́ṣe": 6646,
      "▁ṣọra": 6647,
      "ucy": 6648,
      "▁rẹ̀?": 6649,
      "▁dé\".": 6650,
      "▁jíjìnnà": 6651,
      "▁lójijì.": 6652,
      "▁ọ́n!\"": 6653,
      "▁ṣọ̀fọ̀.": 6654,
      "▁Àjálù": 6655,
      "▁Jacky": 6656,
      "▁ọlọ́gbọ́n.": 6657,
      "▁síbí!\"": 6658,
      "▁kàwé.": 6659,
      "▁tó?\"": 6660,
      "▁\"\"Ṣ": 6661,
      "▁ọ́n!": 6662,
      "▁adúróṣinṣin.": 6663,
      "▁gbágungbàgun,": 6664,
      "▁ìwúkàrà": 6665,
      "bààwọ́n": 6666,
      "▁9": 6667,
      "▁mọ́ra?\"": 6668,
      "▁jù!\"": 6669,
      "▁ìgbà,": 6670,
      "▁Ewé": 6671,
      "▁wọlé?\"": 6672,
      "▁jíjà": 6673,
      "▁apá,": 6674,
      "▁dírágónì.": 6675,
      "▁isere": 6676,
      "▁ṣánpọ́n": 6677,
      "▁ǹ": 6678,
      "rítì": 6679,
      "▁Timmy?\"": 6680,
      "▁lẹ́nu!": 6681,
      "▁bọ̀!": 6682,
      "▁\"Irú": 6683,
      "▁Ellie.": 6684,
      "▁lọ́la?\"": 6685,
      "▁ẹ̀pà": 6686,
      "▁omi!": 6687,
      "▁gbadun": 6688,
      "▁\"Wá,": 6689,
      "▁ariwo,": 6690,
      "▁apẹ̀rẹ̀,": 6691,
      "▁péré.": 6692,
      "▁ẹlẹ́ṣin": 6693,
      "▁ǹjẹ́": 6694,
      "ọki": 6695,
      "▁silẹ": 6696,
      "▁rọ́ọ̀": 6697,
      "▁Kar": 6698,
      "▁kìló": 6699,
      "▁ewúrẹ́.": 6700,
      "▁ọdun": 6701,
      "▁Sophia": 6702,
      "▁Olive": 6703,
      "▁aṣálẹ̀": 6704,
      "▁àpẹẹrẹ": 6705,
      "▁nílù": 6706,
      "▁Kangaroo": 6707,
      "▁kékeré?\"": 6708,
      "▁jó!": 6709,
      "▁ọkàn,": 6710,
      "▁àṣírí.": 6711,
      "▁alágbára.": 6712,
      "▁\"\"Bẹẹni,": 6713,
      "▁Patch": 6714,
      "▁hó,": 6715,
      "▁Lizzy": 6716,
      "▁kedere.": 6717,
      "▁ata": 6718,
      "nny": 6719,
      "▁dúpẹ́,": 6720,
      "▁tìrítì": 6721,
      "wari": 6722,
      "▁tẹlifóònù.": 6723,
      "▁bear.": 6724,
      "▁lówó.": 6725,
      "▁Squeak": 6726,
      "▁Blue.": 6727,
      "▁atasánsán": 6728,
      "▁tìrítìrí": 6729,
      "àrà": 6730,
      "▁ita": 6731,
      "endy": 6732,
      "▁Oògùn": 6733,
      "▁pínpín": 6734,
      "le,": 6735,
      "▁abọ́,": 6736,
      "▁ìwo.": 6737,
      "▁zo": 6738,
      "▁wọ́n!\"": 6739,
      "kítà": 6740,
      "▁Lákọ̀ọ́kọ́": 6741,
      "▁tààrà": 6742,
      "▁ìfẹ": 6743,
      "▁síbí.": 6744,
      "bòmíì.": 6745,
      "▁okun": 6746,
      "▁ag": 6747,
      "▁\"a": 6748,
      "▁kíkọ́": 6749,
      "▁Ìran": 6750,
      "▁tán?\"": 6751,
      "▁Rárá": 6752,
      "▁àfọwọ́": 6753,
      "▁Stella": 6754,
      "▁nílùú": 6755,
      "▁ìfẹnukonu": 6756,
      "ona": 6757,
      "ánwò": 6758,
      "▁ìdúró": 6759,
      "oo-": 6760,
      "▁ògbóǹkangí,": 6761,
      "▁Ha": 6762,
      "▁ṣọ̀wọ́n.": 6763,
      "▁látàrí": 6764,
      "Bẹ́ẹ̀": 6765,
      "▁kii": 6766,
      "▁pupọ.": 6767,
      "▁\"\"nígbà": 6768,
      "▁in\".": 6769,
      "day.": 6770,
      "▁ayaba.": 6771,
      "▁Mikey": 6772,
      "▁níléèwé,": 6773,
      "▁amú-nǹkan-sí": 6774,
      "ẹ̀bi": 6775,
      "▁kẹta": 6776,
      "▁jẹ̀bi": 6777,
      "▁arúgbó": 6778,
      "▁ṣubú\".": 6779,
      "kugba": 6780,
      "▁ọba,": 6781,
      "▁nigbakugba": 6782,
      "▁Georg": 6783,
      "▁ìdánilójú": 6784,
      "▁Jun": 6785,
      "▁sókè\".": 6786,
      "▁lórí,": 6787,
      "▁Pinky": 6788,
      "▁tì.": 6789,
      "▁Jimmy,": 6790,
      "▁kọ̀wé.": 6791,
      "▁Dúró!\"": 6792,
      "▁fọ́fọ́.": 6793,
      "▁\"John,": 6794,
      "▁dahun,": 6795,
      "▁níṣẹ́": 6796,
      "▁Jack!": 6797,
      "▁wọlé!\"": 6798,
      "▁Pam": 6799,
      "▁atijọ": 6800,
      "▁bínú\".": 6801,
      "▁gàgà.": 6802,
      "▁òtòṣì.": 6803,
      "▁jade": 6804,
      "▁sósì,": 6805,
      "▁\"Gbogbo": 6806,
      "▁sìg": 6807,
      "▁apo": 6808,
      "▁ye": 6809,
      "▁Agbẹjọ́rò": 6810,
      "▁sílé?\"": 6811,
      "▁orísun": 6812,
      "▁\"\"a": 6813,
      "▁ọ̀tọ̀\".": 6814,
      "▁lẹ́wà\".": 6815,
      "▁akọni.": 6816,
      "▁gùdù": 6817,
      "▁ó?\"": 6818,
      "▁Lena": 6819,
      "jijì": 6820,
      "▁àbùùbùtán,": 6821,
      "▁ìmọ́lẹ̀,": 6822,
      "▁ìbéèrè,": 6823,
      "▁ṣàṣeyọrí,": 6824,
      "▁àgbàlá.": 6825,
      "▁lọ.\"": 6826,
      "▁àjò!\"": 6827,
      ".'": 6828,
      "vin": 6829,
      "gbọ̀": 6830,
      "▁Snu": 6831,
      "ókó": 6832,
      "pẹ́lọ": 6833,
      "▁yín!": 6834,
      "bìkítà": 6835,
      "▁dàgbà\".": 6836,
      "▁ṣàṣeyọrí!": 6837,
      "▁Mary.": 6838,
      "▁Mark.": 6839,
      "▁\"\"Màmá,": 6840,
      "▁ẹnubodè.": 6841,
      "▁ile-iwe": 6842,
      "▁Tuesday": 6843,
      "jákulẹ̀": 6844,
      "▁\"mo": 6845,
      "▁mú\".": 6846,
      "▁ọmọ,": 6847,
      "▁òun!": 6848,
      "▁yẹn?": 6849,
      "▁ilẹ̀!": 6850,
      "key": 6851,
      "▁dáńgájíá\".": 6852,
      "▁kíkankíkan!": 6853,
      "▁lọ́la!\"": 6854,
      "▁rẹ̀wẹ̀sì.": 6855,
      "▁díbọ́n": 6856,
      "▁rèé,": 6857,
      "inj": 6858,
      "▁Mabel": 6859,
      "▁ológbò,": 6860,
      "▁ìlù.": 6861,
      "llipop": 6862,
      "▁pátápátá,": 6863,
      "▁alápẹ̀rẹ̀.": 6864,
      "▁ipa": 6865,
      "áni.": 6866,
      "▁Lójijì": 6867,
      "▁ẹyin,": 6868,
      "▁Lia": 6869,
      "▁Bobo.": 6870,
      "▁\"Ọ̀rọ̀": 6871,
      "▁ṣègbọràn.": 6872,
      "▁yii": 6873,
      "ilewu": 6874,
      "▁aginj": 6875,
      "pẹ́lọpẹ́": 6876,
      "kìtì": 6877,
      "▁\"Lá": 6878,
      "▁Sammy,": 6879,
      "▁kankan\".": 6880,
      "▁iwe": 6881,
      "▁lọ́sẹ̀": 6882,
      "▁ere": 6883,
      "yànjú": 6884,
      "ise": 6885,
      "▁Kitty.": 6886,
      "▁Brownie.": 6887,
      "▁Bella.": 6888,
      "▁Rabbit": 6889,
      "▁Todd": 6890,
      "▁ìkóhun-ìṣẹ̀ǹbáyé-sí.": 6891,
      "▁Ọ̀dà": 6892,
      "▁\"Wh": 6893,
      "▁se.": 6894,
      "▁ọ̀rọ̀,": 6895,
      "▁ránṣẹ́,": 6896,
      "▁Tweety.": 6897,
      "▁ow!": 6898,
      "▁Títí": 6899,
      "jẹ̀ẹ́": 6900,
      "▁gẹ́": 6901,
      "▁Maya": 6902,
      "▁èèyàn\".": 6903,
      "▁Òkìtì": 6904,
      "▁lágbára\".": 6905,
      "▁ààfin,": 6906,
      "▁Jen,": 6907,
      "mal": 6908,
      "▁ọmọlangidi.": 6909,
      "hello": 6910,
      "of": 6911,
      "▁lósì": 6912,
      "▁Sta": 6913,
      "▁\"Bọ́ọ̀lù": 6914,
      "▁sunkún?\"": 6915,
      "▁\"Tàbí": 6916,
      "▁tìrẹ\".": 6917,
      "▁kíláàsì,": 6918,
      "▁salalu,": 6919,
      "▁ìjàkadì,": 6920,
      "▁kékeré!\"": 6921,
      "▁\"Rántí": 6922,
      "▁ìfìwéránṣẹ́,": 6923,
      "▁ẹ̀yẹ.": 6924,
      "▁jóná,": 6925,
      "▁èyíkéyìí.": 6926,
      "▁Rover": 6927,
      "▁ríran.": 6928,
      "▁imọlẹ": 6929,
      "hẹ̀": 6930,
      "ẹhẹ̀": 6931,
      "▁ọ̀wọ̀": 6932,
      "▁Wally": 6933,
      "▁Ààrá": 6934,
      "▁hẹ́g": 6935,
      "▁Eli": 6936,
      "▁john": 6937,
      "ẹhẹ̀gẹ": 6938,
      "▁hẹ́gẹhẹ̀gẹ": 6939,
      "▁àjọ": 6940,
      "▁ope": 6941,
      "▁jẹ́jẹ̀ẹ́": 6942,
      "kẹ́gbẹ́": 6943,
      "▁tuntun!\"": 6944,
      "▁búrẹ́dì?\"": 6945,
      "▁lollipop": 6946,
      "▁kọ́kọ́rọ́.": 6947,
      "▁Omijé": 6948,
      "▁ọ̀tọ̀ọ̀tọ̀,": 6949,
      "▁rìrì": 6950,
      "▁àríyá": 6951,
      "-ajo": 6952,
      "▁ṣófo.": 6953,
      "▁Snuggles": 6954,
      "▁kuro": 6955,
      "tim": 6956,
      "▁Ìrì": 6957,
      "▁Bọ́ọ̀sì": 6958,
      "▁lára!\"": 6959,
      "ow,": 6960,
      "▁erin.": 6961,
      "▁Robbie": 6962,
      "▁Síbẹ̀,": 6963,
      "poo": 6964,
      "▁pọ́n": 6965,
      "▁Ìbí": 6966,
      "▁Àlá": 6967,
      "ni,": 6968,
      "▁rẹ\",": 6969,
      "▁nífẹ̀ẹ́.": 6970,
      "▁bọ́rọ̀": 6971,
      "▁kù!": 6972,
      "▁lómìnira,": 6973,
      "▁dọ́là": 6974,
      "▁láìdáwọ́dúró": 6975,
      "▁kan.\"": 6976,
      "▁mẹ́sàn-án": 6977,
      "▁móoru\".": 6978,
      "▁kápẹ́ẹ̀tì.": 6979,
      "▁rú,": 6980,
      "▁lóore,": 6981,
      ".\"\"": 6982,
      "dish": 6983,
      "▁bob": 6984,
      "▁sọ\".": 6985,
      "▁ọ̀dọ́mọ": 6986,
      "▁Ìfun": 6987,
      "▁gan-an.\"": 6988,
      "▁Adìyẹ": 6989,
      "▁omi!\"": 6990,
      "▁Ẹ̀bi": 6991,
      "▁ológun": 6992,
      "▁níbí?": 6993,
      "▁jà?\"": 6994,
      "▁sọ́tọ̀ọ̀": 6995,
      "▁ahoro.": 6996,
      "▁jẹ́?": 6997,
      "▁dáa!": 6998,
      "▁Ẹ̀ka": 6999,
      "▁Ralph": 7000,
      "▁igboya": 7001,
      "réré": 7002,
      "▁Wendy": 7003,
      "▁yà,": 7004,
      "▁ìtànṣán": 7005,
      "▁irin-ajo": 7006,
      "kọta": 7007,
      "ark": 7008,
      "▁lẹ́ẹ̀m": 7009,
      "▁àtàtà\".": 7010,
      "▁ìjẹun": 7011,
      "▁retí.": 7012,
      "▁\"\"àwọn": 7013,
      "xy": 7014,
      "▁kíko": 7015,
      "▁kọ́lé.": 7016,
      "▁díẹ̀!\"": 7017,
      "▁\"Woof": 7018,
      "▁eyín.": 7019,
      "▁gìt": 7020,
      "▁Finn": 7021,
      "pèjú": 7022,
      "▁níṣìírí,": 7023,
      "▁Jackie": 7024,
      "▁ailewu": 7025,
      "▁ọmọdé!": 7026,
      "▁ṣàpèjú": 7027,
      "▁Gina": 7028,
      "▁àsẹ̀yìnbọ̀": 7029,
      "▁kígbe!": 7030,
      "▁àáyá": 7031,
      "▁\"Su": 7032,
      "▁popcorn.": 7033,
      "▁gbàdúrà,": 7034,
      "▁kọ́lọkọ̀lọ,": 7035,
      "▁jíjìnnàréré": 7036,
      "▁kíkorò": 7037,
      "ne": 7038,
      "ila,": 7039,
      "▁\"\"Ì": 7040,
      "▁gogoro.": 7041,
      "▁síbí,": 7042,
      "▁tìẹ.": 7043,
      "▁mẹ́fà,": 7044,
      ",\"\"": 7045,
      "fà.": 7046,
      "jọ̀wọ́": 7047,
      "léru": 7048,
      "▁sọ́tọ̀,": 7049,
      "▁ṣúlẹ̀,": 7050,
      "▁ṣòro,": 7051,
      "▁\"Lucy": 7052,
      "▁pian": 7053,
      "shmal": 7054,
      "▁òmìnira,": 7055,
      "▁àkájọ": 7056,
      "▁Wednesday": 7057,
      "shmallow": 7058,
      "▁mọ̀!": 7059,
      "▁Susie.": 7060,
      "▁lẹ́yìn.": 7061,
      "▁jó!\"": 7062,
      "▁\"Jack,": 7063,
      "▁ìbàdí": 7064,
      "▁yege": 7065,
      "▁ṣàpèjúwe": 7066,
      "ẹhin": 7067,
      "▁gbe": 7068,
      "▁ọmọ-ọmọ": 7069,
      "▁òkú": 7070,
      "▁àpò.": 7071,
      "lide": 7072,
      "▁ọ̀gá,": 7073,
      "▁soke": 7074,
      "gì": 7075,
      "úrẹ́dì": 7076,
      "▁múni": 7077,
      "▁agba": 7078,
      "▁lósì,": 7079,
      "▁padà?\"": 7080,
      "▁\"Bob": 7081,
      "▁\"\"Hello": 7082,
      "▁\"Ọkan,": 7083,
      "▁ìkọ̀kọ̀,": 7084,
      "▁\"Yuck,": 7085,
      "▁\"Yuck!\"": 7086,
      "▁àsùnwọra": 7087,
      "kọtaya": 7088,
      "▁max": 7089,
      "▁wọ́n?\"": 7090,
      "▁béárì.": 7091,
      "▁ẹlẹ́dẹ̀,": 7092,
      "▁láìròtẹ́lẹ̀,": 7093,
      "▁rẹ̀wẹ̀sì": 7094,
      "kèrú": 7095,
      "vo": 7096,
      "kọ̀ọ̀kan,": 7097,
      "▁ẹ́\",": 7098,
      "▁Gẹ̀ẹ́": 7099,
      "▁Ẹ̀jẹ̀": 7100,
      "▁mutí": 7101,
      "▁Emma,": 7102,
      "▁jáwọ́,": 7103,
      "▁àgùntàn.": 7104,
      "▁rúkèrú": 7105,
      "▁Onídàájọ́": 7106,
      "▁van": 7107,
      "▁amóríyá": 7108,
      "▁marshmallow": 7109,
      "▁rúkèrúdò": 7110,
      "r,": 7111,
      "ánú": 7112,
      "ẹsẹ": 7113,
      "▁gbìyànjú!\"": 7114,
      "síjìn": 7115,
      "▁níbí!": 7116,
      "▁ìbí,": 7117,
      "▁Mittens,": 7118,
      "ùùùù": 7119,
      "▁jẹ́jẹ́": 7120,
      "▁abẹ́lẹ̀.": 7121,
      "▁pípa": 7122,
      "▁ìrọ̀rí.": 7123,
      "▁tìrẹ,": 7124,
      "torina": 7125,
      "by,": 7126,
      "▁aládà": 7127,
      "▁dé!": 7128,
      "▁Timmy\".": 7129,
      "▁gbagidi": 7130,
      "▁pín.": 7131,
      "jàkadì": 7132,
      "▁ṣàìsàn\".": 7133,
      "▁ọ̀lẹ.": 7134,
      "▁ìmárale,": 7135,
      "▁Ìbínú": 7136,
      "▁Bàbá!\"": 7137,
      "bàákẹ́gbẹ́": 7138,
      "▁oyin,": 7139,
      "▁ọmọlúwàbí\".": 7140,
      "▁Lẹ́sẹ̀kẹsẹ̀": 7141,
      "▁Judy": 7142,
      "▁90": 7143,
      "dù.": 7144,
      "▁sáyẹ́": 7145,
      "▁ṣiṣẹ́\".": 7146,
      "▁Zara": 7147,
      "▁Alábòójútó": 7148,
      "▁Doggy": 7149,
      "▁Òǹtẹ̀": 7150,
      "▁Laura": 7151,
      "▁sáyẹ́ǹ": 7152,
      "▁alábàákẹ́gbẹ́": 7153,
      "▁gun.": 7154,
      "▁ọ̀run\".": 7155,
      "▁mẹ́nu": 7156,
      "▁pe:": 7157,
      "▁hùwà.": 7158,
      "▁ọbẹ̀,": 7159,
      "fu": 7160,
      "▁Binky": 7161,
      "▁Ow": 7162,
      "▁ọmọdé!\"": 7163,
      "▁'K": 7164,
      "na.": 7165,
      "▁lily.": 7166,
      "▁láàmú,": 7167,
      "▁Zoey": 7168,
      "▁nípọn.": 7169,
      "anujẹ": 7170,
      "▁\"Ìdárayá": 7171,
      "timmy,": 7172,
      "débìnrin": 7173,
      "▁yẹn:": 7174,
      "▁gbàgbé.": 7175,
      "▁tèmi,": 7176,
      "▁Pete.": 7177,
      "▁alágbèéká.": 7178,
      "▁pé:'ẹ": 7179,
      "▁Robby": 7180,
      "▁(Ì": 7181,
      "▁ibanujẹ": 7182,
      "▁Abbie": 7183,
      "▁\"Whee": 7184,
      "pe,": 7185,
      "▁ododo": 7186,
      "▁fẹ́!": 7187,
      "▁pa!": 7188,
      "▁woof": 7189,
      "▁fìtílà.": 7190,
      "▁òtútù,": 7191,
      "▁gìgí": 7192,
      "▁tipẹ́tipẹ́,": 7193,
      "igza": 7194,
      "▁àná,": 7195,
      "▁lẹhinna": 7196,
      "?\".": 7197,
      "bu": 7198,
      "o.": 7199,
      "▁gan-an;": 7200,
      "▁dí,": 7201,
      "▁ìdág": 7202,
      "▁sára,": 7203,
      "tty,": 7204,
      "▁ọlọ́pàá,": 7205,
      "▁pítí": 7206,
      "▁ìdágìrì": 7207,
      "▁\"rárá": 7208,
      "▁nǹkan!": 7209,
      "▁pẹ̀pẹ̀!": 7210,
      "▁lókè,": 7211,
      "▁Búrẹ́dì": 7212,
      "▁wáyé.": 7213,
      "▁Maddy": 7214,
      "▁eku.": 7215,
      "nìí,": 7216,
      "sẹ̀kẹsẹ̀": 7217,
      "▁ṣàwárí.": 7218,
      "▁kíákíá!\"": 7219,
      "bélì": 7220,
      "▁slide": 7221,
      "▁náà\",": 7222,
      "▁ọkan": 7223,
      "▁jẹ?\"": 7224,
      "▁àkókò.": 7225,
      "▁ṣàyẹ̀wò,": 7226,
      "▁sọ̀rọ̀?\"": 7227,
      "▁ẹtu,": 7228,
      "▁pé:'mo": 7229,
      "▁dààmú.": 7230,
      "ine": 7231,
      "▁Bee": 7232,
      "▁ọ̀rẹ́!\"": 7233,
      "▁Ada": 7234,
      "▁Ann.": 7235,
      "▁kún,": 7236,
      "▁jini": 7237,
      "▁lójúfò.": 7238,
      "▁nílẹ̀.": 7239,
      "▁ọlọ": 7240,
      "▁àgbàlagbà.": 7241,
      "▁Fu": 7242,
      "▁\"Òkúta": 7243,
      "▁kìjikìji.": 7244,
      "▁wọ́nwó.": 7245,
      "▁ṣánṣán": 7246,
      "▁Àlàfo": 7247,
      "▁\"Z": 7248,
      "▁lórúkọ": 7249,
      "▁kíríkì": 7250,
      "▁fẹ́ràn,": 7251,
      "▁àgbà!\"": 7252,
      "▁kọrin\".": 7253,
      "▁tímọ́tímọ́\".": 7254,
      "▁jìjàkadì": 7255,
      "▁èéfín,": 7256,
      "▁Lola.": 7257,
      "▁gùdù.": 7258,
      "ilo": 7259,
      "▁lọ́hùn": 7260,
      "▁ọ̀tọ̀!": 7261,
      "▁tán\".": 7262,
      "▁ìrànlọ́wọ́\".": 7263,
      "▁yọ!": 7264,
      "▁sinmi\".": 7265,
      "▁fọ́tò.": 7266,
      "▁ìdàrúdàpọ̀": 7267,
      "▁ṣawari": 7268,
      "▁ìrísí.": 7269,
      "▁sán-ún.": 7270,
      "▁lọ́hùn-ún": 7271,
      "▁ṣáá": 7272,
      "▁awo": 7273,
      "▁ẹ̀fúùfù,": 7274,
      "▁òjìji,": 7275,
      "▁rẹwà.": 7276,
      "▁julọ.": 7277,
      "▁\"\"màmá": 7278,
      "▁díbọ́n.": 7279,
      "bó": 7280,
      "▁níyànjú": 7281,
      "▁gbè": 7282,
      "▁No": 7283,
      "▁Ayé": 7284,
      "lẹ,": 7285,
      "▁ìtajà,": 7286,
      "páà": 7287,
      "ǹtì": 7288,
      "▁nà": 7289,
      "▁jọra": 7290,
      "▁Ẹ̀dá": 7291,
      "kànnì": 7292,
      "▁igbó!": 7293,
      "▁lai": 7294,
      "▁Alice.": 7295,
      "cha": 7296,
      "▁wọ̀nyí.": 7297,
      "▁òfin.": 7298,
      "▁timmy.": 7299,
      "▁jazz.": 7300,
      "▁oníwàkiwà.": 7301,
      "▁kọ́ni": 7302,
      "▁lọ\",": 7303,
      "▁sáré!\"": 7304,
      "▁kọ́ńp": 7305,
      "▁\"\"o": 7306,
      "▁ṣọ́ra!": 7307,
      "▁ọ́síjìn": 7308,
      "▁falẹ̀": 7309,
      "▁olùkọ́.": 7310,
      "▁kìkì.": 7311,
      "▁\"Ṣe": 7312,
      "▁àkáǹtì": 7313,
      "▁kọ́ńpáàsì": 7314,
      "kẹ́ẹ̀tì": 7315,
      "um,": 7316,
      "▁rírorò": 7317,
      "dàrúdàpọ̀": 7318,
      "▁ọkọ̀,": 7319,
      "▁án!\"": 7320,
      "▁Òkùnkùn": 7321,
      "▁Penguin": 7322,
      "▁bẹ̀rù\".": 7323,
      "▁ooru.": 7324,
      "▁Leo,": 7325,
      "▁Ella.": 7326,
      "▁pikiniki,": 7327,
      "▁2": 7328,
      "▁San": 7329,
      "▁Apá": 7330,
      "▁Ke": 7331,
      "▁ṣàánú": 7332,
      "▁Anna\".": 7333,
      "▁nílò,": 7334,
      "▁nọ́ńbà.": 7335,
      "▁wipe,": 7336,
      "▁pupọ,": 7337,
      "▁Sparky": 7338,
      "▁ìyàtọ̀": 7339,
      "▁ìrẹ̀wẹ̀": 7340,
      "birin": 7341,
      "▁Ame": 7342,
      "▁Max\".": 7343,
      "▁òṣùmàrè,": 7344,
      "▁yìnbọn,": 7345,
      "▁ìkówèésí,": 7346,
      "▁mẹ́jọ,": 7347,
      "▁3": 7348,
      "▁amá": 7349,
      "▁ìkànnì": 7350,
      "▁nifẹ": 7351,
      "▁Ibù": 7352,
      "▁ọmọbirin": 7353,
      "▁fò?\"": 7354,
      "▁Gbìyànjú": 7355,
      "▁Elly": 7356,
      "▁Lucy!": 7357,
      "yédẹ": 7358,
      "▁radish": 7359,
      "▁dájú!\"": 7360,
      "▁oníhòòhò.": 7361,
      "▁ìrúwé.": 7362,
      "▁sè.": 7363,
      "▁lójúkojú.": 7364,
      "▁June": 7365,
      "▁Gẹ̀ẹ́sì": 7366,
      "▁gìgísẹ̀": 7367,
      "▁amáyédẹ": 7368,
      "▁amáyédẹrùn": 7369,
      "▁míì?\"": 7370,
      "▁ihò,": 7371,
      "▁etí.": 7372,
      "▁\"Ìgbà": 7373,
      "▁ayẹyẹ.": 7374,
      "▁pàdé,": 7375,
      "▁àkàrà.": 7376,
      "▁ìgbafẹ́.": 7377,
      "chael": 7378,
      "The": 7379,
      "ter": 7380,
      "▁sw": 7381,
      "▁àbààwọ́n": 7382,
      "▁aja": 7383,
      "▁mọṣẹ́": 7384,
      "▁mọ̀!\"": 7385,
      "dóró": 7386,
      "▁méje,": 7387,
      "kúdóró": 7388,
      "▁àṣekúdóró": 7389,
      "▁Lẹ́ẹ̀kan": 7390,
      "▁tààràtà": 7391,
      "▁àṣekúdórógbó": 7392,
      "wù.": 7393,
      "ńbà": 7394,
      "▁sípò": 7395,
      "répè": 7396,
      "▁Sti": 7397,
      "▁mẹ́ńbà": 7398,
      "▁falẹ̀.": 7399,
      "weet": 7400,
      "▁gbígbóná,": 7401,
      "▁níhìn-ín!\"": 7402,
      "▁aláìbìkítà": 7403,
      "▁Fido": 7404,
      "▁kàwé,": 7405,
      "▁lọ́sọ̀ọ̀sẹ̀.": 7406,
      "▁ńkọ́?\"": 7407,
      "▁Ìgbésí": 7408,
      "▁sís": 7409,
      "▁titi": 7410,
      "▁Sadie": 7411,
      "ta,": 7412,
      "▁ṣàṣìṣe": 7413,
      "▁sílẹ̀?\"": 7414,
      "▁léwu\".": 7415,
      "▁gbóná\".": 7416,
      "▁Jim,": 7417,
      "▁lóòótọ́?": 7418,
      "▁ṣòfò,": 7419,
      "ṣánṣán": 7420,
      "▁Jacob": 7421,
      "▁halẹ̀": 7422,
      "▁ìdúróṣánṣán": 7423,
      "▁ìfi": 7424,
      "▁Àtẹ̀gùn": 7425,
      "▁ọ̀rẹ́!": 7426,
      "▁bàbá?\"": 7427,
      "▁Michael": 7428,
      "▁Bluey": 7429,
      "▁vroom,": 7430,
      "▁aláìlágbára": 7431,
      "répèté": 7432,
      "si.": 7433,
      "▁1": 7434,
      "▁Mina": 7435,
      "▁sárà": 7436,
      "▁Ẹsẹ̀kẹsẹ̀": 7437,
      "nie,": 7438,
      "▁yípo": 7439,
      "▁bọ́!": 7440,
      "▁ẹhànnà,": 7441,
      "▁lọ́ṣọ̀ọ́,": 7442,
      "▁Jess": 7443,
      "▁imọran": 7444,
      "t,": 7445,
      "angba": 7446,
      "▁irọ": 7447,
      "▁gbangba": 7448,
      "▁Lily?": 7449,
      "▁Jí": 7450,
      "▁ẹ̀wù.": 7451,
      "▁Sam\".": 7452,
      "▁Ẹ̀wù": 7453,
      "oo,": 7454,
      "▁ibi,": 7455,
      "▁ìrànlọ́wọ́?\"": 7456,
      "▁àforíjì\".": 7457,
      "▁ewéko,": 7458,
      "▁polówó": 7459,
      "▁àníyàn": 7460,
      "▁Patty": 7461,
      "ọọdún": 7462,
      "▁nírìíra": 7463,
      "▁pétérù": 7464,
      "▁\"kò": 7465,
      "▁sọ!": 7466,
      "▁Nan": 7467,
      "▁lẹ́ẹ̀kan.": 7468,
      "ampoo": 7469,
      "sẹẹsẹ": 7470,
      "bòmíràn.": 7471,
      "▁Karen": 7472,
      "▁Ẹ̀fọn": 7473,
      "araló": 7474,
      "▁wọlé!": 7475,
      "▁Ryan": 7476,
      "▁dájú.": 7477,
      "▁àgbàyanu,": 7478,
      "▁Polly.": 7479,
      "▁onírẹ̀lẹ̀,": 7480,
      "▁rírẹlẹ̀": 7481,
      "▁ìrẹ̀wẹ̀sì": 7482,
      "dọọdún": 7483,
      "▁màmá\",": 7484,
      "▁ilé\".": 7485,
      "▁ẹyẹ!": 7486,
      "▁oríire": 7487,
      "▁ìdánwò.": 7488,
      "▁pàápàá,": 7489,
      "▁Tweetie.": 7490,
      "▁oníjàgídíjàgan.": 7491,
      "▁ìgbèríko.": 7492,
      "▁Tess": 7493,
      "fọ": 7494,
      "▁\"V": 7495,
      "▁àwọ̀n.": 7496,
      "▁\"Ha,": 7497,
      "cado": 7498,
      "▁Jerry.": 7499,
      "▁yoga.": 7500,
      "vocado": 7501,
      "lẹ́sẹẹsẹ": 7502,
      "▁pàtó": 7503,
      "tòlẹ́sẹẹsẹ": 7504,
      "▁bulọ": 7505,
      "▁eéṣú,": 7506,
      "▁sanra.": 7507,
      "▁Chris": 7508,
      "▁Stev": 7509,
      "▁ṣọ́ọ̀ṣì.": 7510,
      "▁Frankie": 7511,
      "▁àná.": 7512,
      "▁Quack": 7513,
      "▁gbèjà": 7514,
      "▁látọ": 7515,
      "inur": 7516,
      "▁Bi": 7517,
      "kohun": 7518,
      "▁Kelly": 7519,
      "▁ẹ́?": 7520,
      "▁tọkọtaya": 7521,
      "▁pòórá!\"": 7522,
      "▁\"Sá": 7523,
      "▁bẹru": 7524,
      "▁aláìlera,": 7525,
      "▁pasta.": 7526,
      "▁lẹẹkansi": 7527,
      "▁oninur": 7528,
      "▁\"\"Ṣe": 7529,
      "▁Owl": 7530,
      "ph": 7531,
      "▁láto": 7532,
      "▁\"ọmọ": 7533,
      "▁dé!\"": 7534,
      "▁pẹ̀lú!": 7535,
      "▁fìdí": 7536,
      "▁ṣòro.": 7537,
      "dámù": 7538,
      "▁ìlú,": 7539,
      "▁gbígbé,": 7540,
      "▁díje,": 7541,
      "▁parọ́.": 7542,
      "▁ìbẹ̀rẹ̀.": 7543,
      "▁igbes": 7544,
      "▁Stitch": 7545,
      "▁látọjọ́": 7546,
      "▁látojú": 7547,
      "▁ní!": 7548,
      "▁nílẹ̀": 7549,
      "▁orí,": 7550,
      "▁olórí": 7551,
      "▁Bàbá?\"": 7552,
      "▁rántí.": 7553,
      "▁Cra": 7554,
      "▁bọ̀\".": 7555,
      "▁ìrù.": 7556,
      "▁\"Jo": 7557,
      "▁\"Igi": 7558,
      "▁ìlù,": 7559,
      "▁\"Orukọ": 7560,
      "▁sáyẹ́ǹsì": 7561,
      "▁amy": 7562,
      "únpá": 7563,
      "▁Timmy!\"": 7564,
      "▁Ọ̀bẹ": 7565,
      "▁lẹ́wà!\"": 7566,
      "▁tán!\"": 7567,
      "▁ẹ̀bùn,": 7568,
      "▁ìròyìn.": 7569,
      "▁adé.": 7570,
      "▁ìfúnpá": 7571,
      "▁Fred.": 7572,
      "▁ìrìnnà.": 7573,
      "▁Bessie": 7574,
      "▁du": 7575,
      "▁nínú\".": 7576,
      "▁Ayẹyẹ": 7577,
      "lash": 7578,
      "▁aládùn!": 7579,
      "▁rọ̀\".": 7580,
      "▁ejò.": 7581,
      "▁ìlera,": 7582,
      "▁níwọ̀ntúnwọ̀nsì,": 7583,
      "▁prunes": 7584,
      "▁Adam": 7585,
      "síwájú": 7586,
      "▁èèyàn!": 7587,
      "▁Jay": 7588,
      "▁Ojoojúmọ́,": 7589,
      "▁ṣòroó": 7590,
      "▁Hal": 7591,
      "cada": 7592,
      "▁ìdẹkùn.": 7593,
      "▁òdodo.": 7594,
      "▁lọ́dún": 7595,
      "▁Bri": 7596,
      "▁ohunkohun": 7597,
      "▁màmá?": 7598,
      "▁nǹkan!\"": 7599,
      "▁pàbó": 7600,
      "▁Òrépèté": 7601,
      "▁ìgò.": 7602,
      "▁kùnà": 7603,
      "▁ẹlòmíì,": 7604,
      "▁Ṣọ́ra,": 7605,
      "▁adití.": 7606,
      "▁ìmúrasílẹ̀": 7607,
      "▁dùùrù.": 7608,
      "ricket": 7609,
      "▁opera": 7610,
      "▁aworan": 7611,
      "▁Ìjákulẹ̀": 7612,
      "▁Ìdàrúdàpọ̀": 7613,
      "làsàn": 7614,
      "▁and": 7615,
      "...": 7616,
      "▁Ìdánwò": 7617,
      "▁ìmọ́tótó.": 7618,
      "▁jẹ́jẹ́.": 7619,
      "▁ẹru": 7620,
      "ilé": 7621,
      "▁kálẹ̀": 7622,
      "▁Mia!\"": 7623,
      "▁tì,": 7624,
      "▁tèmi!": 7625,
      "▁jà?": 7626,
      "▁àsíá.": 7627,
      "▁parọ́,": 7628,
      "▁yunifásítì.": 7629,
      "▁kédàárò.": 7630,
      "▁amú-nǹkan-": 7631,
      "▁\"\"Lily,": 7632,
      "▁Í": 7633,
      "▁fàá": 7634,
      "▁iwọ": 7635,
      "▁lẹ́jọ́": 7636,
      "jagun": 7637,
      "▁Dani": 7638,
      "▁Bobby.": 7639,
      "▁kígbe!\"": 7640,
      "▁ọ̀bẹ,": 7641,
      "▁àáké.": 7642,
      "kúfẹ̀ẹ́": 7643,
      "▁ìbòjú.": 7644,
      "▁\"Ọ̀pá": 7645,
      "bracada": 7646,
      "▁Buddy.": 7647,
      "▁dàwátì!": 7648,
      "▁amọ̀.": 7649,
      "▁jagunjagun": 7650,
      "▁aládàáni": 7651,
      "▁ibà": 7652,
      "▁sí!": 7653,
      "▁Janie": 7654,
      "▁òmùgọ̀!\"": 7655,
      "▁dàárọ̀": 7656,
      "▁Snowy.": 7657,
      "▁Meg": 7658,
      "▁baseball.": 7659,
      "ọọlu": 7660,
      "▁\"\"Hello,": 7661,
      "ak": 7662,
      "▁a\".": 7663,
      "▁lógún": 7664,
      "▁Ọ̀kan,": 7665,
      "oon": 7666,
      "▁ṣẹ!": 7667,
      "▁Eva": 7668,
      "ny,": 7669,
      "▁kalẹ̀\".": 7670,
      "▁Hon": 7671,
      "▁rùn,": 7672,
      "▁jowú,": 7673,
      "▁ọ̀gá\".": 7674,
      "▁ṣòwò": 7675,
      "▁Stan": 7676,
      "▁strawberry.": 7677,
      "▁déédéé": 7678,
      "▁\"Yay!\"": 7679,
      "▁Eliza": 7680,
      "jin": 7681,
      "▁bọ": 7682,
      "▁inu": 7683,
      "▁tikẹ́ẹ̀tì": 7684,
      "▁ẹ̀rọ.": 7685,
      "▁òmùgọ̀!": 7686,
      "▁Jake,": 7687,
      "▁\"Màmá!": 7688,
      "▁owú": 7689,
      "▁rẹ̀wẹ̀sì,": 7690,
      "▁Kérésìmesì": 7691,
      "▁àjọṣe": 7692,
      "▁amú-nǹkan-tọ́": 7693,
      "bba": 7694,
      "▁kan\",": 7695,
      "▁e!": 7696,
      "▁Oló": 7697,
      "▁ìṣaraló": 7698,
      "▁Gí": 7699,
      "▁\"\"Èmi": 7700,
      "▁lẹ́yìn,": 7701,
      "▁\"Lila,": 7702,
      "lowe": 7703,
      "▁ìlà.": 7704,
      "▁lẹwa": 7705,
      "▁Davey": 7706,
      "▁ṣoṣo.": 7707,
      "▁beere,": 7708,
      "▁Jean": 7709,
      "▁tọwọ́tẹsẹ̀,": 7710,
      "▁apoti": 7711,
      "▁mẹ": 7712,
      "▁yọ̀.": 7713,
      "kanjú": 7714,
      "▁Àdììtú": 7715,
      "▁ọmọdé?\"": 7716,
      "▁\"Beep": 7717,
      "▁kéékèèké!": 7718,
      "▁rere\".": 7719,
      "ell": 7720,
      "▁'O": 7721,
      "▁ìsinmi,": 7722,
      "ght": 7723,
      "▁ọ́fíìsì.": 7724,
      "▁Bear.": 7725,
      "▁ìdákẹ́jẹ́ẹ́,": 7726,
      "▁Ádámù": 7727,
      "▁òmìnira!": 7728,
      "▁kẹ́yìn,": 7729,
      "▁ńkọ́?": 7730,
      "▁\"Rex,": 7731,
      "▁irọrun": 7732,
      "▁gbogbo!": 7733,
      "▁Saman": 7734,
      "▁bọ́ọ̀lù!\"": 7735,
      "▁Joan": 7736,
      "▁dákẹ́\".": 7737,
      "▁lójoojúmọ́!": 7738,
      "▁rọ̀!": 7739,
      "▁nigbakan": 7740,
      "▁bọ́ọ̀sì,": 7741,
      "▁rédíò.": 7742,
      "▁blueberry.": 7743,
      "▁Pippin": 7744,
      "▁ile-iṣọ": 7745,
      "▁lọ́sàn-án.": 7746,
      "-ọmọ-ọmọ-ọmọ-ọmọ-ọmọ-ọmọ-ọmọ-ọmọ": 7747,
      "▁4": 7748,
      "▁báni.": 7749,
      "▁La": 7750,
      "▁ẹnikẹ́ni\".": 7751,
      "▁Emma!": 7752,
      "▁'Ó": 7753,
      "▁bii": 7754,
      "▁Spide": 7755,
      "▁Frosty": 7756,
      "▁\"bíbélì": 7757,
      "▁Simon": 7758,
      "▁mẹ́sàn-án,": 7759,
      "▁ọ̀dọ́mọdé": 7760,
      "anda": 7761,
      "ẹ̀rù.": 7762,
      "▁lẹ́rù\".": 7763,
      "▁ìlú.": 7764,
      "▁òótọ́,": 7765,
      "fia": 7766,
      "▁púpọ̀.": 7767,
      "▁Rex,": 7768,
      "▁Lẹ́sẹ̀": 7769,
      "▁brown,": 7770,
      "▁Boun": 7771,
      "▁piano": 7772,
      "aju": 7773,
      "bur": 7774,
      "▁wúrà.": 7775,
      "▁\"hello": 7776,
      "▁Tun": 7777,
      "tíbà": 7778,
      "▁Àà": 7779,
      "▁Tim?\"": 7780,
      "▁ẹyẹ\".": 7781,
      "▁fọ́!": 7782,
      "▁dídì!\"": 7783,
      "tẹ́gùn": 7784,
      "▁ìnàjú,": 7785,
      "▁Whiskers.": 7786,
      "▁déédéé,": 7787,
      "▁ibòmíràn.": 7788,
      "péjọ": 7789,
      "▁lẹẹkansi.": 7790,
      "▁lọ́ràá": 7791,
      "▁Ashley": 7792,
      "▁(Ẹ̀dà": 7793,
      "tíbàbà": 7794,
      "▁atẹ́gùn": 7795,
      "▁ìgbẹ́": 7796,
      "▁lábù": 7797,
      "▁ọrọ̀": 7798,
      "▁rìn!\"": 7799,
      "lòfì": 7800,
      "▁\"Ojú": 7801,
      "▁àgbá,": 7802,
      "▁\"Ìjì": 7803,
      "▁ṣọ̀kan,": 7804,
      "áfíà": 7805,
      "▁adúróṣinṣin,": 7806,
      "▁spaghetti.": 7807,
      "▁ṣaaju": 7808,
      "▁àgbàdo.": 7809,
      "▁aláyọ̀,": 7810,
      "▁Birdy": 7811,
      "▁oninurere": 7812,
      "▁Hallowe": 7813,
      "▁náà:": 7814,
      "▁avocado": 7815,
      "▁ríronú": 7816,
      "▁kíkà": 7817,
      "▁aye": 7818,
      "▁jù!": 7819,
      "▁àgbà?\"": 7820,
      "▁méjèèjì!": 7821,
      "▁òkun\".": 7822,
      "▁òfuurufú!": 7823,
      "▁Fai": 7824,
      "▁borí\".": 7825,
      "▁\"màmá,": 7826,
      "▁àbí?": 7827,
      "▁ìdáhùn.": 7828,
      "▁èbúté,": 7829,
      "▁jèmì.": 7830,
      "line": 7831,
      "▁yọjú!": 7832,
      "manda": 7833,
      "▁àtíbàbà": 7834,
      "▁Amanda": 7835,
      "tajà": 7836,
      "▁Mon": 7837,
      "▁méjèèjì\".": 7838,
      "▁méjèèjì!\"": 7839,
      "▁Fa": 7840,
      "▁ìbẹ̀rù.": 7841,
      "eth": 7842,
      "▁\"Ló": 7843,
      "▁Ìbẹ̀rù": 7844,
      "▁Fin.": 7845,
      "▁Lẹ́ẹ̀kọ̀ọ̀kan,": 7846,
      "▁sẹ́kún,": 7847,
      "▁túútúú.": 7848,
      "▁Jíjẹ́": 7849,
      "pọ́n.": 7850,
      "yl": 7851,
      "▁kẹ": 7852,
      "▁oat": 7853,
      "▁aṣi": 7854,
      "▁kọ,": 7855,
      "▁oúnjẹ\".": 7856,
      "▁Anna!\"": 7857,
      "▁àjò!": 7858,
      "▁ìtọ́": 7859,
      "▁Pu": 7860,
      "▁jini.": 7861,
      "▁èjìká.": 7862,
      "▁síbí\".": 7863,
      "▁\"Ọ̀kọ̀": 7864,
      "▁saladi.": 7865,
      "▁ìkìl": 7866,
      "▁ṣègbéyàwó,": 7867,
      "▁igberaga": 7868,
      "▁ṣánpọ́n.": 7869,
      "▁Yàrá": 7870,
      "▁sugbo": 7871,
      "▁Ewéko": 7872,
      "pinnu": 7873,
      "▁bọọlu": 7874,
      "tie": 7875,
      "▁síbì": 7876,
      "▁ọmọde": 7877,
      "▁Ìdá": 7878,
      "▁Ọta": 7879,
      "▁rẹ́rìn-ín!": 7880,
      "▁pọ̀?\"": 7881,
      "▁Mia!": 7882,
      "▁ilẹ̀\".": 7883,
      "▁ìgbàgbọ́": 7884,
      "▁kẹ̀kẹ́!\"": 7885,
      "▁ayé!": 7886,
      "▁pàdánù,": 7887,
      "▁cricket": 7888,
      "▁láyé,": 7889,
      "▁ọ̀làwọ́,": 7890,
      "▁\"Ọ̀rẹ́": 7891,
      "▁kọ̀ǹpútà.": 7892,
      "▁káàbọ̀\".": 7893,
      "▁\"Shh,": 7894,
      "▁rọ́ọ̀bù": 7895,
      "▁agbaye": 7896,
      "▁swing": 7897,
      "▁sugbon": 7898,
      "dá.": 7899,
      "▁tóóró": 7900,
      "▁idi": 7901,
      "▁Tw": 7902,
      "▁lójoojúmọ́\".": 7903,
      "ffe.": 7904,
      "▁Holly": 7905,
      "▁ṣèrànwọ́\".": 7906,
      "▁Liam": 7907,
      "▁ìṣẹ̀dá": 7908,
      "red": 7909,
      "sy.": 7910,
      "ńtán": 7911,
      "iley": 7912,
      "▁Mu": 7913,
      "▁Ìmìtìtì": 7914,
      "▁mia": 7915,
      "▁dà\".": 7916,
      "▁Anna?\"": 7917,
      "▁ajá\".": 7918,
      "▁lẹ́gbẹ̀ẹ́.": 7919,
      "▁dùbúlẹ̀.": 7920,
      "▁àkọlé": 7921,
      "▁wọ̀nyí!\"": 7922,
      "▁pé:'ó": 7923,
      "▁ìbátan": 7924,
      "▁kanlẹ̀kùn": 7925,
      "▁Louise": 7926,
      "▁pítíza": 7927,
      "ńtánẹ́ẹ̀tì": 7928,
      "▁rẹ̀\",": 7929,
      "▁Mous": 7930,
      "▁Ẹ̀rín": 7931,
      "▁olódi": 7932,
      "er.": 7933,
      "▁muffin": 7934,
      "▁burú": 7935,
      "▁àgbá.": 7936,
      "▁jẹun\".": 7937,
      "▁ìbọn.": 7938,
      "▁Sárà,": 7939,
      "▁lákọ̀ọ́kọ́\".": 7940,
      "▁Gẹ̀ẹ́sì)": 7941,
      "ari": 7942,
      "▁sìn": 7943,
      "▁\"U": 7944,
      "ṣẹ́.": 7945,
      "▁yangàn\".": 7946,
      "▁Janey": 7947,
      "▁lẹ́rù!": 7948,
      "▁pòórá\".": 7949,
      "▁àdììtú,": 7950,
      "▁Teddy,": 7951,
      "▁gbọgbẹ́,": 7952,
      "▁Bọ́jọ́": 7953,
      "▁dọ́gba.": 7954,
      "ewu": 7955,
      "▁lily,": 7956,
      "▁pur": 7957,
      "▁ìkẹ́kọ̀ọ́": 7958,
      "▁Min": 7959,
      "▁bákan": 7960,
      "▁kàn.": 7961,
      "▁ọ̀sán\".": 7962,
      "▁tirẹ̀!": 7963,
      "▁líle.": 7964,
      "▁Dípò": 7965,
      "▁àṣẹ.": 7966,
      "▁giraffe.": 7967,
      "▁olóró.": 7968,
      "▁kọfí.": 7969,
      "▁ṣánpọ́n,": 7970,
      "▁àpẹẹrẹ,": 7971,
      "▁\"Vroom,": 7972,
      "▁bulọọki": 7973,
      "▁mọ̀?": 7974,
      "▁rọlẹ̀": 7975,
      "mítà": 7976,
      "▁láyọ̀!\"": 7977,
      "▁jẹun!\"": 7978,
      "▁àgbáyé": 7979,
      "▁ṣọ̀kan.": 7980,
      "▁Jenny,": 7981,
      "▁ọgbọ́n.": 7982,
      "▁pàgọ́.": 7983,
      "▁Caro": 7984,
      "▁Mickey": 7985,
      "▁àfẹsẹ̀gbá.": 7986,
      "xyg": 7987,
      "íròrò": 7988,
      "▁ku": 7989,
      "▁min": 7990,
      "oo!": 7991,
      "▁Jon": 7992,
      "▁ìjíròrò": 7993,
      "▁ọdún.": 7994,
      "líì": 7995,
      "▁Martha": 7996,
      "▁Blue,": 7997,
      "▁julọ,": 7998,
      "▁Smith.": 7999,
      "▁Pippa": 8000,
      "▁Oliv": 8001,
      "▁hello.": 8002,
      "▁Bongo": 8003,
      "dọ": 8004,
      "iyẹ": 8005,
      "▁\"àmọ́": 8006,
      "▁kíkẹ́kọ̀ọ́": 8007,
      "▁\"\"I": 8008,
      "▁mìíràn?\"": 8009,
      "▁Hel": 8010,
      "▁àdàbà.": 8011,
      "▁Johnny,": 8012,
      "▁Kim.": 8013,
      "▁àlìkámà.": 8014,
      "▁meje": 8015,
      "▁Bọ́tìnnì": 8016,
      "ǹgbà": 8017,
      "▁Irin": 8018,
      "▁\"\"À": 8019,
      "▁rọgbọ": 8020,
      "isi": 8021,
      "▁dídì\".": 8022,
      "▁wí,": 8023,
      "▁nìyí?\"": 8024,
      "▁Chi": 8025,
      "▁fíìmù.": 8026,
      "▁ọṣẹ.": 8027,
      "▁\"Èso": 8028,
      "▁Fiona": 8029,
      "▁Àgbájọ": 8030,
      "▁Íńtánẹ́ẹ̀tì": 8031,
      "ld": 8032,
      "▁bù": 8033,
      "ríà": 8034,
      "▁ẹiyẹ": 8035,
      "▁Mel": 8036,
      "▁Ana": 8037,
      "▁Goo": 8038,
      "la,": 8039,
      "▁oòrùn\".": 8040,
      "▁èròǹgbà": 8041,
      "▁kéékèèké\".": 8042,
      "▁kiri\".": 8043,
      "▁rọ̀bì": 8044,
      "▁Bubba": 8045,
      "▁zigza": 8046,
      "▁ṣiyèméjì,": 8047,
      "▁ìṣaralóge": 8048,
      "▁lábùlà": 8049,
      "ash": 8050,
      "eli": 8051,
      "na,": 8052,
      "▁nwọn": 8053,
      "▁agbara": 8054,
      "▁ida": 8055,
      "▁ìk": 8056,
      "▁bófin": 8057,
      "▁ẹnikan": 8058,
      "▁ṣẹ\".": 8059,
      "▁Egungun": 8060,
      "▁ọlọ́rọ̀.": 8061,
      "▁nígbàkigbà.": 8062,
      "▁dáhùn,": 8063,
      "▁dáńgájíá!\"": 8064,
      "▁Vroom,": 8065,
      "▁báni,": 8066,
      "▁shampoo": 8067,
      "▁\"\"Eyi": 8068,
      "bọ": 8069,
      "▁jane": 8070,
      "ùnú": 8071,
      "▁ọmọbinrin": 8072,
      "▁ìtùnú": 8073,
      "▁Din": 8074,
      "▁ọ́!": 8075,
      "▁lẹ́rù!\"": 8076,
      "▁ìró.": 8077,
      "▁iyebíye.": 8078,
      "▁Johnny.": 8079,
      "▁lówó,": 8080,
      "▁Grace.": 8081,
      "▁Andy.": 8082,
      "▁wọ́pọ̀,": 8083,
      "▁gólòfì": 8084,
      "▁àyípadà.": 8085,
      "▁idanilo": 8086,
      "▁àpamọ́": 8087,
      "▁Amelia": 8088,
      "▁idaniloju": 8089,
      "bánil": 8090,
      "pp": 8091,
      "òpọ̀": 8092,
      "▁npe": 8093,
      "▁of": 8094,
      "▁jim": 8095,
      "▁fún?\"": 8096,
      "▁Ìbúgbàù": 8097,
      "▁Bra": 8098,
      "▁èkejì.": 8099,
      "pábánil": 8100,
      "▁\"Oní": 8101,
      "▁ohùn.": 8102,
      "▁méjì!": 8103,
      "▁ẹ̀ka.": 8104,
      "▁aago,": 8105,
      "▁ọ̀ṣọ́,": 8106,
      "▁jọ̀ọ́\".": 8107,
      "▁Rose,": 8108,
      "▁kàmàmà!": 8109,
      "▁dinosaur.": 8110,
      "▁broccoli.": 8111,
      "▁Roger": 8112,
      "▁kẹ́yìn.": 8113,
      "▁George.": 8114,
      "▁gẹ́ẹ́": 8115,
      "pábánilòpọ̀": 8116,
      "ṣeré": 8117,
      "▁mu!": 8118,
      "▁ìgbésẹ̀.": 8119,
      "▁Froggy": 8120,
      "▁sẹ́kún.": 8121,
      "▁Zero": 8122,
      "▁kìlómítà": 8123,
      "nilé": 8124,
      "▁ifẹ": 8125,
      "▁\"Qu": 8126,
      "▁\"jọ̀wọ́": 8127,
      "▁ńlá!": 8128,
      "▁Ben?": 8129,
      "▁Ẹ̀ẹ̀": 8130,
      "▁Olùtajà": 8131,
      "▁Rosie.": 8132,
      "▁jẹ́ẹ́jẹ́ẹ́,": 8133,
      "▁\"Ọ̀pọ̀": 8134,
      "▁tiwọn,": 8135,
      "▁mànàmáná.": 8136,
      "▁nìṣó,": 8137,
      "▁Sha": 8138,
      "▁brown": 8139,
      "nilétí": 8140,
      "ráà": 8141,
      "th,": 8142,
      "▁gbo": 8143,
      "▁ìkan": 8144,
      "▁ṣèpalára": 8145,
      "▁Òjìji": 8146,
      "▁ọ̀run!\"": 8147,
      "▁ìyẹ́.": 8148,
      "▁ọ̀kan?\"": 8149,
      "▁ọtí.": 8150,
      "▁epo.": 8151,
      "▁Ray": 8152,
      "▁káàbọ̀!\"": 8153,
      "▁isa": 8154,
      "▁\"Ṣọ́ra,": 8155,
      "▁miiran.": 8156,
      "▁\"\"àwa": 8157,
      "▁ṣiyèméjì": 8158,
      "▁sẹ́wọ̀n.": 8159,
      "ble": 8160,
      "▁iyanu": 8161,
      "▁ìpa": 8162,
      "▁yè": 8163,
      "▁pẹ̀lú!\"": 8164,
      "▁omi?\"": 8165,
      "▁Anna!": 8166,
      "cky.": 8167,
      "▁òfuurufú!\"": 8168,
      "▁rọ̀!\"": 8169,
      "▁gágá!": 8170,
      "▁ìkówèéránṣẹ́": 8171,
      "▁ìfọṣọ.": 8172,
      "▁darúgbó,": 8173,
      "▁lóru.": 8174,
      "▁Flopsy": 8175,
      "▁gìtá.": 8176,
      "eji": 8177,
      "anì": 8178,
      "▁àǹtí": 8179,
      "▁àsè": 8180,
      "tin": 8181,
      "▁ìpalára": 8182,
      "▁ọgọ́": 8183,
      "▁mú!": 8184,
      "▁Ìyẹ́": 8185,
      "▁Ẹyin": 8186,
      "▁\"Mẹ́": 8187,
      "▁ham": 8188,
      "▁wa\",": 8189,
      "▁ìgbàanì": 8190,
      "▁ẹlòmíràn\".": 8191,
      "▁erin,": 8192,
      "▁\"Sally": 8193,
      "▁bear,": 8194,
      "▁kùnà.": 8195,
      "▁ìrẹsì.": 8196,
      "▁páàpáà": 8197,
      "▁ìríra": 8198,
      "▁ìfọwọ́sowọ́pọ̀.": 8199,
      "▁Irúgbìn": 8200,
      "▁\"Nigbati": 8201,
      "▁ìkankan": 8202,
      "▁níwà": 8203,
      "▁lókun": 8204,
      "▁rẹ̀.\"": 8205,
      "ẹ̀rẹ̀.": 8206,
      "▁mímú": 8207,
      "▁Jax": 8208,
      "▁\"\"S": 8209,
      "▁ada": 8210,
      "▁kéékèèké!\"": 8211,
      "▁ṣàníyàn!": 8212,
      "▁jà\".": 8213,
      "▁Peter.": 8214,
      "▁ọ̀wọ́n?\"": 8215,
      "▁Kate.": 8216,
      "▁dunjú": 8217,
      "▁\"Sue,": 8218,
      "▁ìgbẹ́kẹ̀": 8219,
      "fus": 8220,
      "lda": 8221,
      "▁gbèrú": 8222,
      "▁músẹ́!": 8223,
      "▁jáde?\"": 8224,
      "▁orúkọ.": 8225,
      "▁ọkùnrin.": 8226,
      "▁Pink": 8227,
      "▁Spot!": 8228,
      "▁lero": 8229,
      "▁ọmọkùnrin,": 8230,
      "▁kánjú": 8231,
      "▁Mary,": 8232,
      "▁irúgbìn.": 8233,
      "▁ìránnilétí": 8234,
      "▁ìtìjú.": 8235,
      "▁dààmú,": 8236,
      "▁àparò": 8237,
      "▁igloo.": 8238,
      "▁Peppa": 8239,
      "▁ọ̀sẹ̀,": 8240,
      "▁ọmọ-binrin": 8241,
      "ry.": 8242,
      "▁Àrí": 8243,
      "▁Nọ́ńbà": 8244,
      "▁nípasẹ̀": 8245,
      "▁tẹ̀síwájú": 8246,
      "▁yangàn!": 8247,
      "▁akẹ́rù,": 8248,
      "▁ṣèwádìí!": 8249,
      "▁wa.\"": 8250,
      "▁imú.": 8251,
      "▁Rav": 8252,
      "▁\"\"Kò": 8253,
      "▁táláyé": 8254,
      "▁Tẹlifóònù": 8255,
      "▁Squeaky": 8256,
      "bracadabra": 8257,
      "hy": 8258,
      "▁oxyg": 8259,
      "▁\"bàbá": 8260,
      "▁Ally": 8261,
      "▁Okùn": 8262,
      "▁kọ́lé": 8263,
      "hùnmá": 8264,
      "▁igbó\".": 8265,
      "▁ronu": 8266,
      "▁jíjin": 8267,
      "mù,": 8268,
      "▁rántí,": 8269,
      "▁àràmàǹdà!": 8270,
      "▁yòókù\".": 8271,
      "▁adìyẹ,": 8272,
      "▁\"Ṣọ́ra": 8273,
      "▁aláìsàn.": 8274,
      "▁cherry": 8275,
      "▁amóhùnmá": 8276,
      "▁sìgá": 8277,
      "▁purọ́": 8278,
      "▁mejeeji": 8279,
      "▁amóhùnmáwòrán": 8280,
      "lf": 8281,
      "r.": 8282,
      "▁billy": 8283,
      "▁ní?\"": 8284,
      "▁ìkọ́": 8285,
      "▁\"ọ̀": 8286,
      "▁wá?": 8287,
      "▁Maddie": 8288,
      "▁Pá": 8289,
      "ṣúra": 8290,
      "▁olùṣọ́": 8291,
      "▁'M": 8292,
      "▁ṣokoléètì,": 8293,
      "▁alùpùpù.": 8294,
      "▁ìdọ̀tí,": 8295,
      "▁níṣọ̀kan": 8296,
      "▁láàmú\".": 8297,
      "▁\"Ọ̀g": 8298,
      "▁ẹ̀jẹ̀,": 8299,
      "▁Ọlọ́run.": 8300,
      "▁rẹ́.": 8301,
      "▁Kevin": 8302,
      "▁ọ̀tá": 8303,
      "▁Tim\".": 8304,
      "▁Oru": 8305,
      "▁gbìyànjú?\"": 8306,
      "▁pèpé": 8307,
      "▁sódò!": 8308,
      "▁ayọ̀!": 8309,
      "▁ìfipábánilòpọ̀": 8310,
      "▁\"Uh": 8311,
      "cc": 8312,
      "▁Àgọ́": 8313,
      "▁kọjá!": 8314,
      "▁\"Ìró": 8315,
      "▁tónítóní\".": 8316,
      "▁páálí.": 8317,
      "▁búlọ́ọ̀kù,": 8318,
      "rìṣà.": 8319,
      "▁ìbàjẹ́,": 8320,
      "▁lulẹ̀!": 8321,
      "▁\"Woof,": 8322,
      "úú": 8323,
      "▁òrìṣà.": 8324,
      "▁fihan": 8325,
      "▁dùn!": 8326,
      "▁Ọrùn": 8327,
      "▁Sọ": 8328,
      "▁ṣàǹfààní": 8329,
      "▁ọnà.": 8330,
      "▁owó,": 8331,
      "▁tayọ": 8332,
      "▁gúnni.": 8333,
      "lori": 8334,
      "▁<unk>O": 8335,
      "▁ìdùnnú,": 8336,
      "▁ìgbéraga,": 8337,
      "▁nù\".": 8338,
      "▁\"Ṣugbọn": 8339,
      "▁Squirrel": 8340,
      "▁aginjù": 8341,
      "▁'Kí": 8342,
      "ah": 8343,
      "▁pari": 8344,
      "▁Ìléru": 8345,
      "rẹ́sì": 8346,
      "▁Se": 8347,
      "▁kọrin?\"": 8348,
      "▁kábàámọ̀\".": 8349,
      "▁tirẹ̀\".": 8350,
      "chy": 8351,
      "▁Mandy.": 8352,
      "▁Freddie": 8353,
      "▁Rufus": 8354,
      "▁Mimi.": 8355,
      "▁Frog": 8356,
      "▁rí?": 8357,
      "▁Ìgboyà": 8358,
      "▁Ìyàwó": 8359,
      "▁kéde": 8360,
      "▁\"Me": 8361,
      "▁òkun!": 8362,
      "▁aládùn\".": 8363,
      "dírẹ́sì": 8364,
      "▁ṣẹlẹ̀!\"": 8365,
      "▁tutù\".": 8366,
      "▁dání?\"": 8367,
      "▁Emily,": 8368,
      "▁nírètí.": 8369,
      "▁oògùn,": 8370,
      "▁láìpẹ́!": 8371,
      "▁\"Òjò": 8372,
      "▁dàrú,": 8373,
      "▁\"\"ìwọ": 8374,
      "▁iyara": 8375,
      "▁Samantha": 8376,
      "▁pọ́ọ̀lù": 8377,
      "tidé": 8378,
      "▁pa!\"": 8379,
      "▁Ìṣúra": 8380,
      "▁e\".": 8381,
      "▁Max?\"": 8382,
      "▁Jas": 8383,
      "▁àjò\".": 8384,
      "▁Eddie": 8385,
      "▁òfuurufú\".": 8386,
      "▁mèremère!": 8387,
      "ffy": 8388,
      "▁alárinrin,": 8389,
      "▁lónìí!": 8390,
      "▁káàdì.": 8391,
      "▁yẹ̀.": 8392,
      "▁gidigidi": 8393,
      "▁ìkùukùu.": 8394,
      "▁\"Ọ̀nà": 8395,
      "▁jelly.": 8396,
      "▁Sophie.": 8397,
      "▁Toby.": 8398,
      "▁Red.": 8399,
      "ss": 8400,
      "▁aj": 8401,
      "▁Lily:": 8402,
      "▁Sc": 8403,
      "▁Kai": 8404,
      "▁Òtítọ́": 8405,
      "▁Bob!": 8406,
      "▁jó?\"": 8407,
      "▁\"Wow!\"": 8408,
      "▁\"Ẹ̀rọ": 8409,
      "▁àwòkẹ́kọ̀ọ́.": 8410,
      "▁hot": 8411,
      "inger": 8412,
      "▁tìkọ̀,": 8413,
      "dara": 8414,
      "▁lóde": 8415,
      "▁Àkọsílẹ̀": 8416,
      "▁dídá": 8417,
      "▁Annabel": 8418,
      "▁ọ̀tọ̀!\"": 8419,
      "▁èyí!": 8420,
      "fihàn": 8421,
      "▁ohunkóhun!": 8422,
      "▁Lee,": 8423,
      "▁tìrẹ!\"": 8424,
      "▁síbí?\"": 8425,
      "▁ìyẹ̀fun.": 8426,
      "▁Ìdẹkùn": 8427,
      "▁sinimá.": 8428,
      "▁ṣọ̀fọ̀?\"": 8429,
      "?'": 8430,
      "d.": 8431,
      "▁àdírẹ́sì": 8432,
      "▁ṣan": 8433,
      "▁ìwọ̀n": 8434,
      "▁Ìdùnnú": 8435,
      "▁Barry": 8436,
      "▁ká!": 8437,
      "kita": 8438,
      "▁jọ\".": 8439,
      "▁rọlẹ̀,": 8440,
      "▁mu!\"": 8441,
      "▁Spot!\"": 8442,
      "▁màríà": 8443,
      "▁ìrọ̀rí,": 8444,
      "▁àgọ́.": 8445,
      "▁ibus": 8446,
      "▁oriṣi": 8447,
      "▁ọ̀tún.": 8448,
      "▁Wúrà": 8449,
      "▁òdòdó\".": 8450,
      "▁\"Ban": 8451,
      "▁sọ́wọ́": 8452,
      "▁tọ́\".": 8453,
      "▁báyìí?": 8454,
      "▁gbọ́n\".": 8455,
      "▁Sátidé": 8456,
      "ammy": 8457,
      "▁ìlà,": 8458,
      "▁ẹlòmíì\".": 8459,
      "▁ṣọ̀rẹ́,": 8460,
      "▁lárọ̀ọ́wọ́tó.": 8461,
      "▁ọlọgbọn": 8462,
      "▁ìgbẹ́kẹ̀lé": 8463,
      "-ọn": 8464,
      "Bun": 8465,
      "ssa": 8466,
      "▁Bow": 8467,
      "▁Gẹ́gẹ́": 8468,
      "▁mìíràn!": 8469,
      "\"\"\"\"": 8470,
      "▁síbẹ̀\".": 8471,
      "▁<unk>Bẹ́ẹ̀": 8472,
      "▁ọ̀sìn,": 8473,
      "▁àní,": 8474,
      "▁kédàárò,": 8475,
      "▁náni": 8476,
      "rago": 8477,
      "▁\"b": 8478,
      "ili": 8479,
      "▁lọ́rùn": 8480,
      "▁gbé\".": 8481,
      "ṣere": 8482,
      "▁bọ́\".": 8483,
      "▁òkè!\"": 8484,
      "▁ṣèlérí,": 8485,
      "▁ọrùn.": 8486,
      "▁ìfẹ́kúfẹ̀ẹ́": 8487,
      "▁\"Yum": 8488,
      "▁ṣẹ́jú.": 8489,
      "▁ààrá.": 8490,
      "▁gbàù!": 8491,
      "▁arìndìn.": 8492,
      "▁squash": 8493,
      "▁\"Lucy,": 8494,
      "▁[": 8495,
      "▁ben": 8496,
      "▁nikan": 8497,
      "▁Sam?\"": 8498,
      "▁búrẹ́dì!\"": 8499,
      "▁Jojo": 8500,
      "▁\"Ká": 8501,
      "▁Bàbá!": 8502,
      "▁Bàbá\".": 8503,
      "▁Eṣinṣin": 8504,
      "▁Di": 8505,
      "▁tọ́!": 8506,
      "▁fọ́\".": 8507,
      "▁cat": 8508,
      "▁\"Nwọn": 8509,
      "▁\"Yum,": 8510,
      "▁níkẹyìn!": 8511,
      "▁ìdiwọ̀n.": 8512,
      "▁Paula": 8513,
      "▁lásìkò.": 8514,
      "▁Daniel": 8515,
      "Ní": 8516,
      "bun": 8517,
      "cie": 8518,
      "▁àpéjọ": 8519,
      "▁ẹjọ́": 8520,
      "▁aláìní": 8521,
      "▁Mike.": 8522,
      "mọ̀lára": 8523,
      "▁\"Rárá,": 8524,
      "▁kọrin!": 8525,
      "▁ọdún,": 8526,
      "▁sanra,": 8527,
      "▁àkànṣe.": 8528,
      "▁láàyè!": 8529,
      "▁Oníṣẹ́": 8530,
      "▁kọ̀wé,": 8531,
      "▁Àlàáfíà": 8532,
      "▁Tẹlifíṣọ̀n": 8533,
      "▁Ibùsùn": 8534,
      "▁sáà": 8535,
      "▁iru": 8536,
      "▁Izzy": 8537,
      "▁sílé!": 8538,
      "▁àbùùbùtán!\"": 8539,
      "▁ewúrẹ́,": 8540,
      "▁lúwẹ̀ẹ́!\"": 8541,
      "▁lòdì": 8542,
      "▁ìgò,": 8543,
      "▁sọ̀rọ̀!\"": 8544,
      "▁ìtẹ́.": 8545,
      "▁àgùntàn,": 8546,
      "▁alágbára,": 8547,
      "▁ṣàn,": 8548,
      "▁sanwó.": 8549,
      "▁iwájú,": 8550,
      "▁ẹlẹ́gbin,": 8551,
      "▁onígbọràn.": 8552,
      "▁kìjikìji,": 8553,
      "▁aṣáájú": 8554,
      "▁Zoomy": 8555,
      "▁Brian": 8556,
      "-ọ̀": 8557,
      "d,": 8558,
      "llie": 8559,
      "▁\"timmy,": 8560,
      "▁Jonny": 8561,
      "▁tẹle": 8562,
      "▁hàn!": 8563,
      "▁rọ\".": 8564,
      "urufu": 8565,
      "▁láìronú": 8566,
      "ill,": 8567,
      "▁ohunkóhun,": 8568,
      "▁ìdáná\".": 8569,
      "▁léfòó.": 8570,
      "▁Rudo": 8571,
      "▁ọ̀gágun.": 8572,
      "▁ṣọ̀wọ́n,": 8573,
      "▁ofurufu": 8574,
      "din": 8575,
      "▁pòrò": 8576,
      "▁Ava": 8577,
      "▁kálẹ̀.": 8578,
      "▁dé?\"": 8579,
      "pórò": 8580,
      "▁Maisy": 8581,
      "▁àjò?\"": 8582,
      "▁olu": 8583,
      "▁racc": 8584,
      "▁òǹkọ̀wé": 8585,
      "▁ẹyọ.": 8586,
      "▁ijókòó": 8587,
      "▁Tweet.": 8588,
      "▁nílé\".": 8589,
      "▁abẹ́rẹ́.": 8590,
      "▁onígbọràn,": 8591,
      "▁Meli": 8592,
      "▁squirrel": 8593,
      "▁Honey": 8594,
      "▁pòròpórò": 8595,
      "▁fro": 8596,
      "▁itọ": 8597,
      "ánà": 8598,
      "▁ńlá!\"": 8599,
      "▁àgbà!": 8600,
      "▁Sara?\"": 8601,
      "▁rọlẹ̀.": 8602,
      "▁oòrùn!": 8603,
      "▁yìnyín!\"": 8604,
      "▁\"Àwọ̀": 8605,
      "▁nísinsìnyí!": 8606,
      "▁ẹyin.": 8607,
      "▁jàǹbá,": 8608,
      "▁Smith,": 8609,
      "▁ẹlẹgbẹ́": 8610,
      "▁brown.": 8611,
      "▁ìwàláàyè.": 8612,
      "▁lọ́fẹ̀ẹ́.": 8613,
      "▁i\",": 8614,
      "▁Woof": 8615,
      "▁arakunrin": 8616,
      "▁ẹranko\".": 8617,
      "▁kẹ̀kẹ́\".": 8618,
      "▁tímọ́tímọ́!": 8619,
      "▁pẹ̀pẹ̀\".": 8620,
      "rew": 8621,
      "▁Ọkàn-àyà": 8622,
      "▁ṣàlàyé.": 8623,
      "▁òṣùwọ̀n.": 8624,
      "▁ẹ̀fọn.": 8625,
      "▁rẹpẹtẹ.": 8626,
      "▁ìkóhun-ìṣẹ̀ǹbáyé-sí,": 8627,
      "▁ìrora.": 8628,
      "▁kíkọ.": 8629,
      "▁pínyà,": 8630,
      "ínigbé": 8631,
      "▁Dave.": 8632,
      "▁ṣáájú.": 8633,
      "▁ajínigbé": 8634,
      "cca": 8635,
      "▁ní!\"": 8636,
      "▁ẹgbẹ": 8637,
      "àmọ́ọ̀mù": 8638,
      "▁Ati": 8639,
      "▁ilée": 8640,
      "▁pariwo!": 8641,
      "▁òǹrorò\".": 8642,
      "▁àgbò.": 8643,
      "▁Che": 8644,
      "▁pẹja,": 8645,
      "▁Baby": 8646,
      "mm.": 8647,
      "▁benny": 8648,
      "▁ẹ!": 8649,
      "ry,": 8650,
      "▁dáa\",": 8651,
      "▁bọ́ọ̀lù\".": 8652,
      "kọ́bù": 8653,
      "▁lẹ́wà!": 8654,
      "▁ṣubú!": 8655,
      "kẹle": 8656,
      "▁Lisa,": 8657,
      "▁\"\"Ma": 8658,
      "▁ìkélé,": 8659,
      "ggy.": 8660,
      "▁ṣeyebíye.": 8661,
      "▁Sofia": 8662,
      "▁atijọ,": 8663,
      "ret": 8664,
      "▁sísá": 8665,
      "▁Lina": 8666,
      "▁\"lẹ́yìn": 8667,
      "ton": 8668,
      "▁gbádùn.": 8669,
      "▁Ọmọbinrin": 8670,
      "nì,": 8671,
      "liam": 8672,
      "▁Peep": 8673,
      "▁tán!": 8674,
      "▁ìgboyà\".": 8675,
      "▁ọ̀kan\".": 8676,
      "▁ọlọ́run": 8677,
      "▁Ho": 8678,
      "▁àáké,": 8679,
      "▁ogun.": 8680,
      "▁ọlọ́gbọ́n,": 8681,
      "▁aláràbarà.": 8682,
      "▁lóòótọ́,": 8683,
      "▁you": 8684,
      "▁igbesi": 8685,
      "▁iléeṣẹ́": 8686,
      "▁alẹ": 8687,
      "▁ìránṣẹ́": 8688,
      "▁ọrọ": 8689,
      "▁yán": 8690,
      "▁fún,": 8691,
      "▁ẹ̀dà": 8692,
      "▁é?": 8693,
      "▁\"\"bàbá": 8694,
      "▁ọdọ": 8695,
      "▁dání!": 8696,
      "darí": 8697,
      "nayàn": 8698,
      "▁kàmàmà,": 8699,
      "▁Ṣáájú": 8700,
      "▁góòlù,": 8701,
      "▁Bunny.": 8702,
      "▁Harry.": 8703,
      "▁Snowman": 8704,
      "▁ẹ̀wẹ́.": 8705,
      "▁berry.": 8706,
      "▁Fíìmù": 8707,
      "▁\"Tom!": 8708,
      "▁\"Whee!\"": 8709,
      "▁Fuzzy": 8710,
      "▁raccoon": 8711,
      "▁yánnayàn": 8712,
      "fani": 8713,
      "▁li": 8714,
      "▁níbòmíì": 8715,
      "▁ìtòlẹ́sẹẹsẹ": 8716,
      "▁yọ̀,": 8717,
      "▁sọ?\"": 8718,
      "▁Terry": 8719,
      "▁Ìrànlọ́wọ́": 8720,
      "▁sókè?\"": 8721,
      "▁pẹ́.": 8722,
      "▁\"Arr": 8723,
      "▁anfani": 8724,
      "▁gúnni": 8725,
      "ke,": 8726,
      "▁ife,": 8727,
      "elv": 8728,
      "▁ijó,": 8729,
      "eedy": 8730,
      "▁Millie.": 8731,
      "▁tòmátì.": 8732,
      "▁Oníṣòwò": 8733,
      "▁tọwọ́tẹsẹ̀": 8734,
      "▁ńláǹlà.": 8735,
      "▁zoom": 8736,
      "▁zoom,": 8737,
      "mba": 8738,
      "ọwọ": 8739,
      "▁ṣàmọ́ọ̀mù": 8740,
      "tilda": 8741,
      "rírí": 8742,
      "▁Mmm.": 8743,
      "▁ńlá\".": 8744,
      "▁Am": 8745,
      "▁molly": 8746,
      "▁Matilda": 8747,
      "▁ọ̀bọ!\"": 8748,
      "▁lèyí,": 8749,
      "▁wúlò,": 8750,
      "▁Nigba": 8751,
      "▁Buzz.": 8752,
      "sárà": 8753,
      "▁ṣẹ́gun.": 8754,
      "▁sán-ún,": 8755,
      "▁ìfọwọ́sọ́nà.": 8756,
      "elvet": 8757,
      "sẹ́ẹ̀tì": 8758,
      "íṣe": 8759,
      "▁jé": 8760,
      "▁ìkẹyìn": 8761,
      "▁Tyl": 8762,
      "▁kásẹ́ẹ̀tì": 8763,
      "▁Màmá.": 8764,
      "▁lára!": 8765,
      "▁Panda": 8766,
      "▁lọ́kàn?\"": 8767,
      "▁anna": 8768,
      "▁lẹ́nu\".": 8769,
      "▁lagbara": 8770,
      "illy,": 8771,
      "▁òkùnkùn!": 8772,
      "▁Ìbẹ̀rẹ̀": 8773,
      "▁ṣèbẹ̀wò.": 8774,
      "▁Rudy": 8775,
      "▁níṣòro,": 8776,
      "▁kẹ́lẹ́kẹ́lẹ́.": 8777,
      "▁ìmọ́tótó,": 8778,
      "▁àròsọ.": 8779,
      "ey,": 8780,
      "▁th": 8781,
      "▁ilẹ": 8782,
      "▁Woo": 8783,
      "▁lọ́dọọdún": 8784,
      "▁í!": 8785,
      "▁mọ,": 8786,
      "▁wa?": 8787,
      "▁Gus": 8788,
      "▁án!": 8789,
      "▁dání\".": 8790,
      "▁\"Jim": 8791,
      "▁Olùṣeré": 8792,
      "▁níhìn-ín?\"": 8793,
      "▁bọ́tìnnì.": 8794,
      "▁gbọdọ": 8795,
      "▁ṣiyèméjì.": 8796,
      "▁panápaná,": 8797,
      "▁dógùn-ún.": 8798,
      "▁Pápá": 8799,
      "▁Rudolph": 8800,
      "hil": 8801,
      "hoo": 8802,
      "▁òsì,": 8803,
      "▁gan-an?": 8804,
      "▁ẹkún": 8805,
      "▁Ọpẹ́lọpẹ́": 8806,
      "▁pẹ̀tẹ́": 8807,
      "▁béèrè\".": 8808,
      "ṣẹ́gun": 8809,
      "▁ṣẹlẹ": 8810,
      "▁ìyá.": 8811,
      "roni": 8812,
      "▁òkun!\"": 8813,
      "▁kú!": 8814,
      "▁yìnyín!": 8815,
      "▁lò\".": 8816,
      "▁ibẹ̀\".": 8817,
      "gbọwọ": 8818,
      "▁wọ̀nyí?\"": 8819,
      "▁wúrà,": 8820,
      "▁zip": 8821,
      "▁Aládé": 8822,
      "▁papọ,": 8823,
      "▁Tessa": 8824,
      "▁ìrẹ̀lẹ̀": 8825,
      "▁onigbọwọ": 8826,
      "▁Tig": 8827,
      "▁Ìrírí": 8828,
      "▁Baa": 8829,
      "▁yẹ\".": 8830,
      "▁mítà": 8831,
      "▁Ginger": 8832,
      "▁Sara\".": 8833,
      "▁gbayì": 8834,
      "▁tẹti": 8835,
      "▁Jack!\"": 8836,
      "▁sàn,": 8837,
      "▁ọ̀dọ́mọkùnrin.": 8838,
      "▁ọ̀lẹ,": 8839,
      "▁Nitorinaa": 8840,
      "▁Nitorina": 8841,
      "▁arìnrìn-àjò.": 8842,
      "▁William": 8843,
      "▁ìkìlọ̀.": 8844,
      "▁jíjinlẹ̀": 8845,
      "-rẹ": 8846,
      "ìsí": 8847,
      "▁Àrùn": 8848,
      "▁sáré?\"": 8849,
      "▁kálẹ̀,": 8850,
      "síbẹ̀,": 8851,
      "▁ṣii": 8852,
      "▁béárì,": 8853,
      "▁ìdárayá!\"": 8854,
      "▁yàwòrán?\"": 8855,
      "▁tónítóní!": 8856,
      "▁Arakunrin": 8857,
      "▁Annie.": 8858,
      "▁idà.": 8859,
      "▁pé:'kí": 8860,
      "▁Speedy": 8861,
      "▁\"\"Awọn": 8862,
      "▁Shelly": 8863,
      "▁maṣe": 8864,
      "▁Pepper": 8865,
      "▁lẹ́ẹ̀mẹta": 8866,
      "▁dupẹ": 8867,
      "▁Tuna": 8868,
      "-ọ̀-rẹ": 8869,
      "▁tẹtisi": 8870,
      "-ọ̀-rẹyìn": 8871,
      "▁sp": 8872,
      "▁Tim?": 8873,
      "▁\"Mí": 8874,
      "▁Mae": 8875,
      "▁Ọ̀daràn": 8876,
      "▁Jason": 8877,
      "▁\"Molly": 8878,
      "▁\"\"Ọ": 8879,
      "▁níta!\"": 8880,
      "▁léṣe!": 8881,
      "▁dọ̀tí\".": 8882,
      "▁<unk>Mo": 8883,
      "▁orúnkún.": 8884,
      "▁Màríà,": 8885,
      "▁pé:'m": 8886,
      "▁ìrètí.": 8887,
      "▁kálíọ̀nù.": 8888,
      "▁Nancy": 8889,
      "aker": 8890,
      "▁Helen": 8891,
      "ọmba": 8892,
      "▁réré": 8893,
      "▁Ọkọ": 8894,
      "kalẹ̀": 8895,
      "▁kúrò\".": 8896,
      "▁àṣà": 8897,
      "▁débẹ̀\".": 8898,
      "▁kánjú.": 8899,
      "▁èèrà.": 8900,
      "▁kápẹ́ẹ̀tì,": 8901,
      "▁ẹnubodè,": 8902,
      "▁ẹ̀wọ̀n.": 8903,
      "▁dákú,": 8904,
      "▁Hoot": 8905,
      "▁hẹ́gẹhẹ̀gẹ.": 8906,
      "▁rob": 8907,
      "▁síbòmíràn.": 8908,
      "▁yara": 8909,
      "lẹ̀kú": 8910,
      "▁ni.\"": 8911,
      "▁igi!": 8912,
      "▁Go": 8913,
      "▁\"\"Ni": 8914,
      "▁Mia\".": 8915,
      "▁níta!": 8916,
      "▁kúlẹ̀kú": 8917,
      "rum": 8918,
      "▁tà.": 8919,
      "▁Phil": 8920,
      "▁alápàáǹdẹ̀dẹ̀!\"": 8921,
      "▁ìrànlọ́wọ́!": 8922,
      "▁ayọ̀!\"": 8923,
      "▁òkùnkùn\".": 8924,
      "▁kalẹ̀!\"": 8925,
      "▁agbára,": 8926,
      "▁ẹrù.": 8927,
      "▁akọkọ": 8928,
      "▁balùwẹ̀.": 8929,
      "▁láǹfààní\".": 8930,
      "▁Freddy.": 8931,
      "▁ìrúwé,": 8932,
      "▁Luna.": 8933,
      "▁Megan": 8934,
      "▁oh!": 8935,
      "▁tìrítìrí.": 8936,
      "▁gbagidi,": 8937,
      "▁Sand": 8938,
      "▁látò": 8939,
      "▁Lenny": 8940,
      "▁\"kí": 8941,
      "▁Boo": 8942,
      "▁\"Ẹsẹ̀": 8943,
      "kíkanjú": 8944,
      "▁De": 8945,
      "▁mẹ́fà.": 8946,
      "▁parí\".": 8947,
      "▁\"Awọn": 8948,
      "▁dara.": 8949,
      "▁Cu": 8950,
      "▁Har": 8951,
      "▁cra": 8952,
      "▁irinṣẹ́.": 8953,
      "▁ìwo,": 8954,
      "▁nọ́ọ̀sì.": 8955,
      "▁mímu.": 8956,
      "▁tiwa\".": 8957,
      "▁cauliflower.": 8958,
      "▁ẹlẹsẹ": 8959,
      "▁Erékùṣù": 8960,
      "▁lọ́sàn-án,": 8961,
      "▁lọ́sọ̀ọ̀sẹ̀": 8962,
      "▁látòkè": 8963,
      "p.": 8964,
      "ẹ́kẹ̀": 8965,
      "▁yá?\"": 8966,
      "▁yálà": 8967,
      "▁\"Ma": 8968,
      "▁Gbẹ́kẹ̀": 8969,
      "▁búlúù!": 8970,
      "▁yín?": 8971,
      "▁ẹnu.": 8972,
      "▁gòkè.": 8973,
      "▁akara": 8974,
      "▁tìrẹ?\"": 8975,
      "ack!\"": 8976,
      "▁penguin.": 8977,
      "▁fàájì": 8978,
      "ser": 8979,
      "▁no": 8980,
      "▁jan": 8981,
      "▁irè": 8982,
      "▁lápá": 8983,
      "lára.": 8984,
      "▁Akíkanjú": 8985,
      "▁ìṣọ́ra": 8986,
      "▁\"Ẹni": 8987,
      "dọ̀tí": 8988,
      "▁kẹ̀kẹ́?\"": 8989,
      "▁ọ̀gẹ̀dẹ̀\".": 8990,
      "▁dídì?\"": 8991,
      "▁ìwẹ̀\".": 8992,
      "▁gbẹ\".": 8993,
      "▁Elle": 8994,
      "ṣeyọri": 8995,
      "▁Alice,": 8996,
      "▁popcorn,": 8997,
      "▁káàbọ̀!": 8998,
      "▁Katy": 8999,
      "▁Clara.": 9000,
      "▁wọ̀nyẹn.": 9001,
      "▁wọ́nwó,": 9002,
      "▁àbáwọlé.": 9003,
      "▁prune": 9004,
      "▁\"\"bàbá,": 9005,
      "ckie": 9006,
      "▁kọ̀,": 9007,
      "▁jẹ́wọ́": 9008,
      "▁wò?": 9009,
      "▁\"\"jẹ́": 9010,
      "▁òkè!": 9011,
      "▁ṣiṣẹ́!\"": 9012,
      "▁àgbàlagbà,": 9013,
      "▁ṣọ́ọ̀bù\".": 9014,
      "▁ìdílé.": 9015,
      "▁aládùn!\"": 9016,
      "▁\"Ìtàn": 9017,
      "▁ṣeun\"": 9018,
      "▁páìpù.": 9019,
      "▁Bun-": 9020,
      "▁bẹ̀bẹ̀,": 9021,
      "▁\"\"Kini": 9022,
      "▁Dory": 9023,
      "▁ìsádi.": 9024,
      "▁Becky": 9025,
      "▁àfẹsẹ̀gbá,": 9026,
      "▁sọ́tọ̀ọ̀tọ̀.": 9027,
      "▁Gíláàsì": 9028,
      "▁pèpéle": 9029,
      "fọwọ́": 9030,
      "▁níbì": 9031,
      "▁owo": 9032,
      "▁Lẹhin": 9033,
      "▁bímọ": 9034,
      "riṣi": 9035,
      "sílẹ̀.": 9036,
      "▁igbó!\"": 9037,
      "▁túká": 9038,
      "▁Ed": 9039,
      "▁ààlà": 9040,
      "▁pàtàkì\".": 9041,
      "▁Bobby,": 9042,
      "▁òǹtẹ̀.": 9043,
      "▁Mark,": 9044,
      "▁ho,": 9045,
      "▁sunflower.": 9046,
      "▁tobi": 9047,
      "▁àfọwọ́gbá": 9048,
      "▁láìdáwọ́dúró.": 9049,
      "▁(Ìró": 9050,
      "l,": 9051,
      "rd": 9052,
      "wi": 9053,
      "▁ró": 9054,
      "▁run,": 9055,
      "▁abo": 9056,
      "▁Sk": 9057,
      "▁Kókó": 9058,
      "▁tuna.": 9059,
      "▁dúró?\"": 9060,
      "▁Ọmọọba": 9061,
      "▁jọra.": 9062,
      "▁Gor": 9063,
      "▁\"Oòrùn": 9064,
      "▁tọ́!\"": 9065,
      "▁lẹ́nu!\"": 9066,
      "▁ayé\".": 9067,
      "▁ṣèlérí.": 9068,
      "▁yàwòrán\".": 9069,
      "▁ìrọ̀gbọ̀": 9070,
      "▁tẹ́lẹ̀!": 9071,
      "▁rọ́bọ́ọ̀tì.": 9072,
      "▁ọ̀gá!\"": 9073,
      "▁apẹrẹ": 9074,
      "▁Star": 9075,
      "▁Spidey": 9076,
      "▁Jasm": 9077,
      "▁oriṣiriṣi": 9078,
      "dindi": 9079,
      "▁Melissa": 9080,
      "▁ìrọ̀gbọ̀kú": 9081,
      "ast": 9082,
      "ọ́là": 9083,
      "▁ráyè": 9084,
      "kòyé": 9085,
      "▁\"Ìfẹ́": 9086,
      "▁daradara": 9087,
      "▁lẹ́tà,": 9088,
      "▁ìṣúra!\"": 9089,
      "▁ohunkóhun\".": 9090,
      "▁'Bẹ́ẹ̀": 9091,
      "▁èdèkòyé": 9092,
      "▁pàǹtírí,": 9093,
      "sọfúnni": 9094,
      "▁Paw": 9095,
      "▁gbígbẹ.": 9096,
      "▁Quaker": 9097,
      "▁Gary": 9098,
      "-o-o": 9099,
      "▁ìwòran.": 9100,
      "▁Ààbò": 9101,
      "▁èdèkòyédè": 9102,
      "p,": 9103,
      "▁ọ̀sẹ̀.": 9104,
      "▁ẹmi": 9105,
      "▁sáwọn": 9106,
      "▁gbagbe": 9107,
      "ood": 9108,
      "▁\"Boo!\"": 9109,
      "▁\"\"R": 9110,
      "▁mìíràn!\"": 9111,
      "▁ọ̀gẹ̀dẹ̀!\"": 9112,
      "▁jó\".": 9113,
      "▁dagba": 9114,
      "▁àgbò,": 9115,
      "▁aládùúgbò.": 9116,
      "▁páìì": 9117,
      "▁Ducky.": 9118,
      "▁Snowball": 9119,
      "▁ṣàròyé,": 9120,
      "▁Tábìlì": 9121,
      "▁Lílà": 9122,
      "▁Olórin": 9123,
      "▁isalẹ": 9124,
      "▁Tyler": 9125,
      "▁níbòmíì.": 9126,
      "▁oke": 9127,
      "illie": 9128,
      "▁Ayọ̀": 9129,
      "▁ẹ̀rí": 9130,
      "▁débí": 9131,
      "▁fọ.": 9132,
      "▁Sara!\"": 9133,
      "ye,": 9134,
      "kejì,": 9135,
      "▁ìka.": 9136,
      "llie.": 9137,
      "▁dandan.": 9138,
      "▁\"\"máa": 9139,
      "▁Flora": 9140,
      "▁Spike.": 9141,
      "▁papọ.": 9142,
      "▁nipasẹ": 9143,
      "▁píìsà.": 9144,
      "▁Gabby": 9145,
      "▁lórúkọ.": 9146,
      "▁bọti": 9147,
      "▁oxygen": 9148,
[...]
