{
  "version": "1.0",
  "truncation": null,
  "padding": null,
  "added_tokens": [
    {
      "id": 0,
      "content": "<unk>",
      "single_word": false,
      "lstrip": false,
      "rstrip": false,
      "normalized": false,
      "special": true
    },
    {
      "id": 1,
      "content": "<cls>",
      "single_word": false,
      "lstrip": false,
      "rstrip": false,
      "normalized": false,
      "special": true
    },
    {
      "id": 2,
      "content": "<sep>",
      "single_word": false,
      "lstrip": false,
      "rstrip": false,
      "normalized": false,
      "special": true
    },
    {
      "id": 3,
      "content": "<pad>",
      "single_word": false,
      "lstrip": false,
      "rstrip": false,
      "normalized": false,
      "special": true
    },
    {
      "id": 4,
      "content": "<mask>",
      "single_word": false,
      "lstrip": false,
      "rstrip": false,
      "normalized": false,
      "special": true
    },
    {
      "id": 5,
      "content": "<|endofstory|>",
      "single_word": false,
      "lstrip": false,
      "rstrip": false,
      "normalized": false,
      "special": true
    }
  ],
  "normalizer": null,
  "pre_tokenizer": {
    "type": "ByteLevel",
    "add_prefix_space": false,
    "trim_offsets": true,
    "use_regex": true
  },
  "post_processor": {
    "type": "ByteLevel",
    "add_prefix_space": true,
    "trim_offsets": false,
    "use_regex": true
  },
  "decoder": {
    "type": "ByteLevel",
    "add_prefix_space": true,
    "trim_offsets": true,
    "use_regex": true
  },
  "model": {
    "type": "BPE",
    "dropout": null,
    "unk_token": null,
    "continuing_subword_prefix": null,
    "end_of_word_suffix": null,
    "fuse_unk": false,
    "byte_fallback": false,
    "ignore_merges": false,
    "vocab": {
      "<unk>": 0,
      "<cls>": 1,
      "<sep>": 2,
      "<pad>": 3,
      "<mask>": 4,
      "<|endofstory|>": 5,
      "!": 6,
      "\"": 7,
      "#": 8,
      "$": 9,
      "%": 10,
      "&": 11,
      "'": 12,
      "(": 13,
      ")": 14,
      "*": 15,
      "+": 16,
      ",": 17,
      "-": 18,
      ".": 19,
      "/": 20,
      "0": 21,
      "1": 22,
      "2": 23,
      "3": 24,
      "4": 25,
      "5": 26,
      "6": 27,
      "7": 28,
      "8": 29,
      "9": 30,
      ":": 31,
      ";": 32,
      "<": 33,
      "=": 34,
      ">": 35,
      "?": 36,
      "@": 37,
      "A": 38,
      "B": 39,
      "C": 40,
      "D": 41,
      "E": 42,
      "F": 43,
      "G": 44,
      "H": 45,
      "I": 46,
      "J": 47,
      "K": 48,
      "L": 49,
      "M": 50,
      "N": 51,
      "O": 52,
      "P": 53,
      "Q": 54,
      "R": 55,
      "S": 56,
      "T": 57,
      "U": 58,
      "V": 59,
      "W": 60,
      "X": 61,
      "Y": 62,
      "Z": 63,
      "[": 64,
      "\\": 65,
      "]": 66,
      "^": 67,
      "_": 68,
      "`": 69,
      "a": 70,
      "b": 71,
      "c": 72,
      "d": 73,
      "e": 74,
      "f": 75,
      "g": 76,
      "h": 77,
      "i": 78,
      "j": 79,
      "k": 80,
      "l": 81,
      "m": 82,
      "n": 83,
      "o": 84,
      "p": 85,
      "q": 86,
      "r": 87,
      "s": 88,
      "t": 89,
      "u": 90,
      "v": 91,
      "w": 92,
      "x": 93,
      "y": 94,
      "z": 95,
      "{": 96,
      "|": 97,
      "}": 98,
      "~": 99,
      "¡": 100,
      "¢": 101,
      "£": 102,
      "¤": 103,
      "¥": 104,
      "¦": 105,
      "§": 106,
      "¨": 107,
      "©": 108,
      "ª": 109,
      "«": 110,
      "¬": 111,
      "®": 112,
      "¯": 113,
      "°": 114,
      "±": 115,
      "²": 116,
      "³": 117,
      "´": 118,
      "µ": 119,
      "¶": 120,
      "·": 121,
      "¸": 122,
      "¹": 123,
      "º": 124,
      "»": 125,
      "¼": 126,
      "½": 127,
      "¾": 128,
      "¿": 129,
      "À": 130,
      "Á": 131,
      "Â": 132,
      "Ã": 133,
      "Ä": 134,
      "Å": 135,
      "Æ": 136,
      "Ç": 137,
      "È": 138,
      "É": 139,
      "Ê": 140,
      "Ë": 141,
      "Ì": 142,
      "Í": 143,
      "Î": 144,
      "Ï": 145,
      "Ð": 146,
      "Ñ": 147,
      "Ò": 148,
      "Ó": 149,
      "Ô": 150,
      "Õ": 151,
      "Ö": 152,
      "×": 153,
      "Ø": 154,
      "Ù": 155,
      "Ú": 156,
      "Û": 157,
      "Ü": 158,
      "Ý": 159,
      "Þ": 160,
      "ß": 161,
      "à": 162,
      "á": 163,
      "â": 164,
      "ã": 165,
      "ä": 166,
      "å": 167,
      "æ": 168,
      "ç": 169,
      "è": 170,
      "é": 171,
      "ê": 172,
      "ë": 173,
      "ì": 174,
      "í": 175,
      "î": 176,
      "ï": 177,
      "ð": 178,
      "ñ": 179,
      "ò": 180,
      "ó": 181,
      "ô": 182,
      "õ": 183,
      "ö": 184,
      "÷": 185,
      "ø": 186,
      "ù": 187,
      "ú": 188,
      "û": 189,
      "ü": 190,
      "ý": 191,
      "þ": 192,
      "ÿ": 193,
      "Ā": 194,
      "ā": 195,
      "Ă": 196,
      "ă": 197,
      "Ą": 198,
      "ą": 199,
      "Ć": 200,
      "ć": 201,
      "Ĉ": 202,
      "ĉ": 203,
      "Ċ": 204,
      "ċ": 205,
      "Č": 206,
      "č": 207,
      "Ď": 208,
      "ď": 209,
      "Đ": 210,
      "đ": 211,
      "Ē": 212,
      "ē": 213,
      "Ĕ": 214,
      "ĕ": 215,
      "Ė": 216,
      "ė": 217,
      "Ę": 218,
      "ę": 219,
      "Ě": 220,
      "ě": 221,
      "Ĝ": 222,
      "ĝ": 223,
      "Ğ": 224,
      "ğ": 225,
      "Ġ": 226,
      "ġ": 227,
      "Ģ": 228,
      "ģ": 229,
      "Ĥ": 230,
      "ĥ": 231,
      "Ħ": 232,
      "ħ": 233,
      "Ĩ": 234,
      "ĩ": 235,
      "Ī": 236,
      "ī": 237,
      "Ĭ": 238,
      "ĭ": 239,
      "Į": 240,
      "į": 241,
      "İ": 242,
      "ı": 243,
      "Ĳ": 244,
      "ĳ": 245,
      "Ĵ": 246,
      "ĵ": 247,
      "Ķ": 248,
      "ķ": 249,
      "ĸ": 250,
      "Ĺ": 251,
      "ĺ": 252,
      "Ļ": 253,
      "ļ": 254,
      "Ľ": 255,
      "ľ": 256,
      "Ŀ": 257,
      "ŀ": 258,
      "Ł": 259,
      "ł": 260,
      "Ń": 261,
      "wa": 262,
      "th": 263,
      "la": 264,
      "ku": 265,
      "ng": 266,
      "Ġu": 267,
      "kh": 268,
      "ba": 269,
      "Ġe": 270,
      "thi": 271,
      "le": 272,
      "Ġwa": 273,
      "ka": 274,
      "an": 275,
      "Ġi": 276,
      "zi": 277,
      "ma": 278,
      "ye": 279,
      "si": 280,
      "fu": 281,
      "na": 282,
      "lu": 283,
      "en": 284,
      "nga": 285,
      "ph": 286,
      "ya": 287,
      "Ġuku": 288,
      "li": 289,
      "Ġfu": 290,
      "Ġfuthi": 291,
      "Ġa": 292,
      "ĠU": 293,
      "ni": 294,
      "bu": 295,
      "Ġn": 296,
      "za": 297,
      "yi": 298,
      "om": 299,
      "ke": 300,
      "khu": 301,
      "be": 302,
      "bo": 303,
      "ĠW": 304,
      "sh": 305,
      "sa": 306,
      "lo": 307,
      "da": 308,
      "ĠWa": 309,
      "khe": 310,
      "Ġka": 311,
      "Ġk": 312,
      "Ġba": 313,
      "oku": 314,
      "khulu": 315,
      "Ġng": 316,
      "Ġ\"": 317,
      "yo": 318,
      "hla": 319,
      "ane": 320,
      "bh": 321,
      "we": 322,
      "ja": 323,
      "nd": 324,
      "se": 325,
      "Ġku": 326,
      "Ġwaye": 327,
      "Ng": 328,
      "kho": 329,
      "Ġkakhulu": 330,
      "ze": 331,
      "Ġla": 332,
      "Ġya": 333,
      "ki": 334,
      "dla": 335,
      "ĠB": 336,
      "uku": 337,
      "Ġkwa": 338,
      "nye": 339,
      "to": 340,
      "ĠNg": 341,
      "am": 342,
      "jabu": 343,
      "ly": 344,
      "the": 345,
      "Ġo": 346,
      "kha": 347,
      "Li": 348,
      "ela": 349,
      "Ġum": 350,
      "bi": 351,
      "ĠBa": 352,
      "od": 353,
      "Lily": 354,
      "tha": 355,
      "Ġnga": 356,
      "eni": 357,
      "ĠK": 358,
      "ĠWaye": 359,
      "Ġukuthi": 360,
      "ne": 361,
      "suku": 362,
      "mama": 363,
      "hle": 364,
      "end": 365,
      "bona": 366,
      "anda": 367,
      "Ġno": 368,
      "nge": 369,
      "nt": 370,
      "mi": 371,
      "tho": 372,
      "odwa": 373,
      "Ġesi": 374,
      "sha": 375,
      "Ġizi": 376,
      "on": 377,
      "me": 378,
      "ana": 379,
      "Ġisi": 380,
      "di": 381,
      "dlala": 382,
      "jabule": 383,
      "thanda": 384,
      "pho": 385,
      "ry": 386,
      "ngi": 387,
      "ngu": 388,
      "of": 389,
      "im": 390,
      "pha": 391,
      "ĠI": 392,
      "qa": 393,
      "Ġwakhe": 394,
      "Ġngoku": 395,
      "Ġ<": 396,
      "Ġeli": 397,
      "funa": 398,
      "sto": 399,
      "story": 400,
      "|>": 401,
      "endof": 402,
      "Ġ<|": 403,
      "endofstory": 404,
      "Ġna": 405,
      "kile": 406,
      "phe": 407,
      "ngane": 408,
      "nc": 409,
      "Ġsi": 410,
      "Ġbe": 411,
      "phu": 412,
      "Ġusuku": 413,
      "Ġli": 414,
      "Ġezi": 415,
      "ham": 416,
      "khona": 417,
      "Ġin": 418,
      "zwa": 419,
      "\".": 420,
      "kwa": 421,
      "ula": 422,
      "Ġkwaba": 423,
      "lwa": 424,
      "lunye": 425,
      "Ġaba": 426,
      "Ġom": 427,
      "olunye": 428,
      "phi": 429,
      "Ġama": 430,
      "Ġnge": 431,
      "Ġwathi": 432,
      "onke": 433,
      "zo": 434,
      "ĠL": 435,
      "!\"": 436,
      "Ġsa": 437,
      "Ġkhona": 438,
      "Ġne": 439,
      "Ġen": 440,
      "Ġoku": 441,
      "Tim": 442,
      "enza": 443,
      "Ġem": 444,
      "ncane": 445,
      "so": 446,
      "bhe": 447,
      "Ġkodwa": 448,
      "wo": 449,
      "wu": 450,
      "je": 451,
      "Ġlo": 452,
      "qh": 453,
      "omba": 454,
      "wake": 455,
      "bha": 456,
      "sho": 457,
      "ini": 458,
      "Ġukuba": 459,
      "ĠNgolunye": 460,
      "Kwake": 461,
      "lisa": 462,
      "ngo": 463,
      "Tom": 464,
      "ga": 465,
      "lela": 466,
      "gi": 467,
      "she": 468,
      "ĠULily": 469,
      "my": 470,
      "theka": 471,
      "Ġwam": 472,
      "ombaz": 473,
      "hamba": 474,
      "Ġyayi": 475,
      "Ġle": 476,
      "Ġza": 477,
      "Ben": 478,
      "omo": 479,
      "iya": 480,
      "vu": 481,
      "thola": 482,
      "thu": 483,
      "fi": 484,
      "va": 485,
      "ca": 486,
      "weni": 487,
      "ani": 488,
      "kwazi": 489,
      "Ma": 490,
      "phan": 491,
      "bho": 492,
      "qo": 493,
      "Ġlakhe": 494,
      "ndo": 495,
      "Ġyi": 496,
      "nda": 497,
      "Ġumama": 498,
      "?\"": 499,
      "Ġkwaku": 500,
      "Ġlapho": 501,
      "hlo": 502,
      "lwe": 503,
      "mba": 504,
      "zu": 505,
      "ndi": 506,
      "qala": 507,
      "ĠA": 508,
      "ĠKodwa": 509,
      "khathi": 510,
      "ĠUmama": 511,
      "Ġbabe": 512,
      "gama": 513,
      "ko": 514,
      "de": 515,
      "uma": 516,
      "no": 517,
      "Ġngi": 518,
      "omotheka": 519,
      "Ġizin": 520,
      "gij": 521,
      "Ġukudlala": 522,
      "nde": 523,
      "gc": 524,
      "mu": 525,
      "Ġaye": 526,
      "man": 527,
      "go": 528,
      "ĠBabe": 529,
      "ntu": 530,
      "dawo": 531,
      "Timmy": 532,
      "any": 533,
      "yizi": 534,
      "anyana": 535,
      "Sa": 536,
      "kw": 537,
      "fana": 538,
      "buza": 539,
      "ĠKu": 540,
      "ombazanyana": 541,
      "Ġwe": 542,
      "ra": 543,
      "tsh": 544,
      "andi": 545,
      "mn": 546,
      "pa": 547,
      "kulu": 548,
      "Ġzi": 549,
      "Ġlingu": 550,
      "khaya": 551,
      "kela": 552,
      "thatha": 553,
      "thoyizi": 554,
      "leni": 555,
      "ĠLe": 556,
      "Ġwabona": 557,
      "mbi": 558,
      "Ġnom": 559,
      "zizwa": 560,
      "ĠuLily": 561,
      "Ġse": 562,
      "ben": 563,
      "ĠKwa": 564,
      "Ġnje": 565,
      "yoni": 566,
      "bheka": 567,
      "thile": 568,
      "ube": 569,
      "Ġwayejabule": 570,
      "yela": 571,
      "Ġint": 572,
      "Ġngo": 573,
      "Ġukuze": 574,
      "Ġz": 575,
      "kuthanda": 576,
      "shesha": 577,
      "dabu": 578,
      "phaka": 579,
      "shi": 580,
      "bhaka": 581,
      "Ġyakhe": 582,
      "su": 583,
      "giji": 584,
      "caba": 585,
      "baba": 586,
      "mo": 587,
      "ch": 588,
      "paki": 589,
      "Ġw": 590,
      "ĠKwaku": 591,
      "khi": 592,
      "nya": 593,
      "Ġndawo": 594,
      "Ġs": 595,
      "phansi": 596,
      "\",": 597,
      "siza": 598,
      "qhube": 599,
      "fa": 600,
      "lungi": 601,
      "do": 602,
      "yisi": 603,
      "Ġndawonye": 604,
      "ĠY": 605,
      "zama": 606,
      "bonga": 607,
      "gijima": 608,
      "gu": 609,
      "cabanga": 610,
      "Ġye": 611,
      "gx": 612,
      "Ġlayo": 613,
      "bili": 614,
      "nzi": 615,
      "Ġkusho": 616,
      "nq": 617,
      "Ġwaya": 618,
      "Ġkwe": 619,
      "mnandi": 620,
      "ĠNga": 621,
      "jabulisa": 622,
      "dabukile": 623,
      "manga": 624,
      "dle": 625,
      "phela": 626,
      "kwenza": 627,
      "ti": 628,
      "Ġomu": 629,
      "enze": 630,
      "Ġkanga": 631,
      "ĠUm": 632,
      "Sam": 633,
      "ho": 634,
      "Ġbakhe": 635,
      "zange": 636,
      "ĠN": 637,
      "Ġyini": 638,
      "Ġnoku": 639,
      "Ġepaki": 640,
      "Ġegama": 641,
      "ĠNgoku": 642,
      "gqo": 643,
      "ngc": 644,
      "ĠWathi": 645,
      "ĠLa": 646,
      "ĠUJ": 647,
      "zisa": 648,
      "du": 649,
      "hlala": 650,
      "Ġnezi": 651,
      "nke": 652,
      "ĠUTom": 653,
      "ningi": 654,
      "Ġekhaya": 655,
      "Ġintombazanyana": 656,
      "bangane": 657,
      "ĠZ": 658,
      "Ġolu": 659,
      "Ġwamomotheka": 660,
      "Ġzonke": 661,
      "Ġngokuthi": 662,
      "Ku": 663,
      "nna": 664,
      "fika": 665,
      "nja": 666,
      "jabula": 667,
      "Ġumu": 668,
      "Ġy": 669,
      "lwane": 670,
      "Sara": 671,
      "gci": 672,
      "mp": 673,
      "saba": 674,
      "Ġizinto": 675,
      "seben": 676,
      "moto": 677,
      "Ġeya": 678,
      "Ġomncane": 679,
      "ngena": 680,
      "kwe": 681,
      "ha": 682,
      "nina": 683,
      "Ġwayenga": 684,
      "ĠLapho": 685,
      "Ġokuthile": 686,
      "mbu": 687,
      "phinde": 688,
      "Max": 689,
      "Ġlali": 690,
      "gwa": 691,
      "nesi": 692,
      "ebo": 693,
      "Mi": 694,
      "Ġumfana": 695,
      "Ġelikhulu": 696,
      "Anna": 697,
      "ĠYa": 698,
      "khan": 699,
      "sindo": 700,
      "Ġphansi": 701,
      "ndela": 702,
      "Ġnt": 703,
      "tshela": 704,
      "hlang": 705,
      "mbe": 706,
      "ck": 707,
      "funda": 708,
      "hlu": 709,
      "lile": 710,
      "wi": 711,
      "\"\"": 712,
      "Ġuya": 713,
      "Ġsakhe": 714,
      "Ġese": 715,
      "phakathi": 716,
      "hleka": 717,
      "Ġenga": 718,
      "lungile": 719,
      "buyela": 720,
      "Ġabangane": 721,
      "Ġngokushesha": 722,
      "te": 723,
      "Ġibho": 724,
      "phandle": 725,
      "ĠNgi": 726,
      "zele": 727,
      "Ġenkulu": 728,
      "Ġumuntu": 729,
      "Ġngalo": 730,
      "Ġlokho": 731,
      "re": 732,
      "kisi": 733,
      "Ġind": 734,
      "momotheka": 735,
      "zijabulisa": 736,
      "Ngi": 737,
      "ĠUBen": 738,
      "Ngiya": 739,
      "khethe": 740,
      "ngoku": 741,
      "xo": 742,
      "lekile": 743,
      "Ġwayefuna": 744,
      "phuma": 745,
      "Ġngaphandle": 746,
      "ĠE": 747,
      "ĠuJ": 748,
      "ci": 749,
      "Ġngakho": 750,
      "thini": 751,
      "Ġubu": 752,
      "phezu": 753,
      "thele": 754,
      "lweni": 755,
      "Ġimi": 756,
      "wele": 757,
      "Ġaka": 758,
      "dala": 759,
      "khethekile": 760,
      "mva": 761,
      "cela": 762,
      "Ġwanq": 763,
      "Ġnoma": 764,
      "khala": 765,
      "ĠnoBen": 766,
      "Ġwabuza": 767,
      "Yebo": 768,
      "khanya": 769,
      "dwa": 770,
      "ĠUTimmy": 771,
      "phend": 772,
      "hlale": 773,
      "um": 774,
      "ngoba": 775,
      "vula": 776,
      "Ġakhe": 777,
      "lly": 778,
      "hlan": 779,
      "lele": 780,
      "melwe": 781,
      "Ġwaba": 782,
      "zin": 783,
      "gona": 784,
      "ĠNge": 785,
      "hlahla": 786,
      "ack": 787,
      "ĠWayefuna": 788,
      "Ġnama": 789,
      "ono": 790,
      "fane": 791,
      "meme": 792,
      "enya": 793,
      "qhubeke": 794,
      "sukela": 795,
      "ngazele": 796,
      "ngazelelwe": 797,
      "khanda": 798,
      "Si": 799,
      "phile": 800,
      "qini": 801,
      "Ġomkhulu": 802,
      "beka": 803,
      "Ġphezu": 804,
      "Ġwaqala": 805,
      "boni": 806,
      "Ġeyayi": 807,
      "nika": 808,
      "Ġam": 809,
      "ndiza": 810,
      "Mia": 811,
      "Ġyoku": 812,
      "Ġukudla": 813,
      "Ġzakhe": 814,
      "nama": 815,
      "xa": 816,
      "Ġngen": 817,
      "thuku": 818,
      "imela": 819,
      "buke": 820,
      "Ġloku": 821,
      "keni": 822,
      "Ġisikhathi": 823,
      "ĠYayi": 824,
      "Ġuthi": 825,
      "Ġeku": 826,
      "ombazane": 827,
      "memeza": 828,
      "chi": 829,
      "omu": 830,
      "yise": 831,
      "ĠNgokungazelelwe": 832,
      "ĠNgakho": 833,
      "waye": 834,
      "Ġkuqhubeke": 835,
      "Ġnesi": 836,
      "Ġesikhulu": 837,
      "njalo": 838,
      "po": 839,
      "mula": 840,
      "fanele": 841,
      "Ġsuku": 842,
      "Ġencane": 843,
      "Ġayi": 844,
      "Ġbaya": 845,
      "neni": 846,
      "shaya": 847,
      "buka": 848,
      "qhenya": 849,
      "ta": 850,
      "ĠKusukela": 851,
      "lini": 852,
      "ngcono": 853,
      "kani": 854,
      "ĠF": 855,
      "bom": 856,
      "Ġumsindo": 857,
      "ĠuTom": 858,
      "manzi": 859,
      "Ġ\"\"": 860,
      "Ġemi": 861,
      "uthi": 862,
      "bala": 863,
      "ombe": 864,
      "Ġend": 865,
      "ziqhenya": 866,
      "Ġngoba": 867,
      "hona": 868,
      "Ġngalolo": 869,
      "Ġsasi": 870,
      "wadi": 871,
      "kati": 872,
      "khatha": 873,
      "ngubo": 874,
      "ce": 875,
      "funi": 876,
      "ngokuthi": 877,
      "ĠFuthi": 878,
      "Ġnomu": 879,
      "Ġlwa": 880,
      "ĠKhona": 881,
      "zela": 882,
      "Ġwabo": 883,
      "leka": 884,
      "Ġunina": 885,
      "Ġukuyi": 886,
      "Ġkangangokuthi": 887,
      "qe": 888,
      "ngathi": 889,
      "ĠBaya": 890,
      "andla": 891,
      "pham": 892,
      "uka": 893,
      "lapho": 894,
      "Ġnobaba": 895,
      "ĠWayenga": 896,
      "Ġeziningi": 897,
      "nemi": 898,
      "Ġngaphakathi": 899,
      "Ġsoku": 900,
      "benza": 901,
      "Ġntombazanyana": 902,
      "Ġyo": 903,
      "xolisa": 904,
      "gxuma": 905,
      "bhu": 906,
      "ĠUTim": 907,
      "Ġunga": 908,
      "langa": 909,
      "ngani": 910,
      "hlaba": 911,
      "mbali": 912,
      "Ġbo": 913,
      "Ġkoku": 914,
      "qhubeka": 915,
      "Ġogama": 916,
      "zane": 917,
      "ĠWabona": 918,
      "bukeka": 919,
      "ĠWayejabule": 920,
      "khekhe": 921,
      "Ġngama": 922,
      "Ġikhanda": 923,
      "Ġehla": 924,
      "lala": 925,
      "ene": 926,
      "ĠlinguLily": 927,
      "bhere": 928,
      "ntsha": 929,
      "hlaza": 930,
      "ny": 931,
      "Ġngesi": 932,
      "zunge": 933,
      "thole": 934,
      "Ġejabule": 935,
      "faka": 936,
      "duze": 937,
      "kala": 938,
      "gcineni": 939,
      "Ġumngane": 940,
      "Ġwabe": 941,
      "Ġnaye": 942,
      "Mama": 943,
      "Ġabo": 944,
      "gijimela": 945,
      "nyaka": 946,
      "Ġnen": 947,
      "ve": 948,
      "bonisa": 949,
      "Ġanga": 950,
      "landela": 951,
      "ĠUya": 952,
      "Ġwayi": 953,
      "Ġkancane": 954,
      "Ġsengathi": 955,
      "ĠuBen": 956,
      "Ġkanjalo": 957,
      "Ġbese": 958,
      "nzima": 959,
      "hlangan": 960,
      "gwaja": 961,
      "he": 962,
      "shini": 963,
      "Ġphezulu": 964,
      "Ġwonke": 965,
      "Ġibhola": 966,
      "sebenzi": 967,
      "Ġwanquma": 968,
      "hlola": 969,
      "dini": 970,
      "ngabe": 971,
      "Ġnyoni": 972,
      "Ġwathola": 973,
      "Ġnabangane": 974,
      "co": 975,
      "bindi": 976,
      "Ġendlini": 977,
      "nogwaja": 978,
      "khuphu": 979,
      "ge": 980,
      "Ġiz": 981,
      "ĠNgiya": 982,
      "ĠuTimmy": 983,
      "Ġinja": 984,
      "hleni": 985,
      "babili": 986,
      "ncwadi": 987,
      "dinge": 988,
      "bhakabhaka": 989,
      "Ġesihla": 990,
      "oh": 991,
      "Ġngezi": 992,
      "Ġyilapho": 993,
      "Ġwazizwa": 994,
      "mele": 995,
      "chibi": 996,
      "uc": 997,
      "Ġukwenza": 998,
      "Ġkangaka": 999,
      "Ġnomama": 1000,
      "lula": 1001,
      "Ġbaba": 1002,
      "luhlaza": 1003,
      "wubona": 1004,
      "hambe": 1005,
      "phuku": 1006,
      "Ġela": 1007,
      "mandla": 1008,
      "ĠM": 1009,
      "ĠIsi": 1010,
      "Ġ-": 1011,
      "ĠWayethanda": 1012,
      "Ġwayo": 1013,
      "kame": 1014,
      "and": 1015,
      "Ġakazange": 1016,
      "bomvu": 1017,
      "ohn": 1018,
      "ĠUku": 1019,
      "kaze": 1020,
      "tshe": 1021,
      "Ġm": 1022,
      "Ġomuhle": 1023,
      "thukuthele": 1024,
      "Ġokwe": 1025,
      "kwenze": 1026,
      "Kulungile": 1027,
      "ĠNgemva": 1028,
      "Ġinyoni": 1029,
      "Ġaku": 1030,
      "vi": 1031,
      "dingeka": 1032,
      "khathaze": 1033,
      "Ġwasho": 1034,
      "Ġkwaze": 1035,
      "mangala": 1036,
      "dwe": 1037,
      "jabulo": 1038,
      "Ġnjengoba": 1039,
      "Su": 1040,
      "ĠEku": 1041,
      "ĠnoLily": 1042,
      "hlanzi": 1043,
      "onsa": 1044,
      "zwe": 1045,
      "quma": 1046,
      "ĠUSara": 1047,
      "eku": 1048,
      "yama": 1049,
      "lokhu": 1050,
      "Ġehlathini": 1051,
      "phephile": 1052,
      "umela": 1053,
      "Ġenhle": 1054,
      "gxumela": 1055,
      "yisa": 1056,
      "ucy": 1057,
      "misa": 1058,
      "oli": 1059,
      "Cha": 1060,
      "Sawubona": 1061,
      "ob": 1062,
      "khumbu": 1063,
      "ndoda": 1064,
      "ile": 1065,
      "Ġwawu": 1066,
      "Ġowaye": 1067,
      "bhokisi": 1068,
      "bamba": 1069,
      "Ġimoto": 1070,
      "ĠLily": 1071,
      "lima": 1072,
      "Ġzazi": 1073,
      "tsha": 1074,
      "kisa": 1075,
      "thombe": 1076,
      "sela": 1077,
      "sebenzisa": 1078,
      "ngum": 1079,
      "kazi": 1080,
      "nj": 1081,
      "Lucy": 1082,
      "zini": 1083,
      "shana": 1084,
      "ĠZi": 1085,
      "khwa": 1086,
      "Ġindawo": 1087,
      "phendula": 1088,
      "kamelweni": 1089,
      "manje": 1090,
      "mehlo": 1091,
      "qaphela": 1092,
      "tolo": 1093,
      "dlalo": 1094,
      "Ġamathoyizi": 1095,
      "Ġuma": 1096,
      "Ġwayethanda": 1097,
      "Ġkw": 1098,
      "Ġazi": 1099,
      "ro": 1100,
      "ĠWaya": 1101,
      "doda": 1102,
      "ĠSi": 1103,
      "nyango": 1104,
      "pi": 1105,
      "ĠUSam": 1106,
      "Ġkahle": 1107,
      "bani": 1108,
      "Ġwezwa": 1109,
      "ĠWayi": 1110,
      "ngase": 1111,
      "ĠAba": 1112,
      "Ġinto": 1113,
      "jabulela": 1114,
      "Ġengadini": 1115,
      "ĠuB": 1116,
      "nza": 1117,
      "odoli": 1118,
      "Ġekamelweni": 1119,
      "dlale": 1120,
      "ĠBabona": 1121,
      "Ġngiya": 1122,
      "Ġndoda": 1123,
      "sizo": 1124,
      "Ġezin": 1125,
      "bhod": 1126,
      "is": 1127,
      "Ġkwesi": 1128,
      "Ġbanga": 1129,
      "Ġukuli": 1130,
      "ekuzisa": 1131,
      "Ġngapham": 1132,
      "amu": 1133,
      "hlawu": 1134,
      "Ġukubona": 1135,
      "hlawumbe": 1136,
      "ĠUB": 1137,
      "bone": 1138,
      "khumbula": 1139,
      ".\"\"": 1140,
      "tela": 1141,
      "ĠkaLily": 1142,
      "Ġzabo": 1143,
      "omusa": 1144,
      "ngezi": 1145,
      "Ġbabona": 1146,
      "cha": 1147,
      "Ġwabheka": 1148,
      "Ġlu": 1149,
      "gcina": 1150,
      "Ġbayo": 1151,
      "Ġesihlahleni": 1152,
      "wula": 1153,
      "bile": 1154,
      "ĠUmfana": 1155,
      "Ġkumelwe": 1156,
      "hlwa": 1157,
      "mangalisa": 1158,
      "khanyayo": 1159,
      "ĠLo": 1160,
      "Ngiyabonga": 1161,
      "Ġeyo": 1162,
      "anquma": 1163,
      "phake": 1164,
      "Ġyonke": 1165,
      "bela": 1166,
      "hloni": 1167,
      "balu": 1168,
      "hlanganyela": 1169,
      "Ġeduze": 1170,
      "bhakeni": 1171,
      "bhakabhakeni": 1172,
      "Ġyathi": 1173,
      "Ġlonke": 1174,
      "Ġesibhakabhakeni": 1175,
      "pot": 1176,
      "size": 1177,
      "Ġkwakhe": 1178,
      "Ġene": 1179,
      "nta": 1180,
      "khashana": 1181,
      "ju": 1182,
      "than": 1183,
      "gqoko": 1184,
      "Ġbonke": 1185,
      "Ġwacabanga": 1186,
      "ĠWathatha": 1187,
      "Sue": 1188,
      "Ġwayedabukile": 1189,
      "heka": 1190,
      "fundi": 1191,
      "khuluma": 1192,
      "mamatheka": 1193,
      ".\"\"\"": 1194,
      "yin": 1195,
      "Spot": 1196,
      "thathu": 1197,
      "lise": 1198,
      "sibhakabhaka": 1199,
      "yithanda": 1200,
      "Ġwagijima": 1201,
      "Ġindlela": 1202,
      "ri": 1203,
      "Ġze": 1204,
      "Ġkuna": 1205,
      "gqoka": 1206,
      "ĠUMax": 1207,
      "mpu": 1208,
      "bono": 1209,
      "ambo": 1210,
      "bhulo": 1211,
      "ndle": 1212,
      "god": 1213,
      "nom": 1214,
      "hlanze": 1215,
      "Ġkonke": 1216,
      "Ġemu": 1217,
      "Ġnsuku": 1218,
      "ĠWayekuthanda": 1219,
      "ngeni": 1220,
      "ĠEkugcineni": 1221,
      "ĠWabheka": 1222,
      "loli": 1223,
      "Ġabantu": 1224,
      "nesibindi": 1225,
      "Ġedabukile": 1226,
      ".\"": 1227,
      "kebhe": 1228,
      "Ġokwesibhakabhaka": 1229,
      "Ġobu": 1230,
      "Ġwayekuthanda": 1231,
      "dinga": 1232,
      "Ġibhokisi": 1233,
      "Ġim": 1234,
      "Ġwayazi": 1235,
      "Ġake": 1236,
      "ĠUnga": 1237,
      "ĠNgokushesha": 1238,
      "sebenza": 1239,
      "mpela": 1240,
      "Ġsinga": 1241,
      "mela": 1242,
      "bhuku": 1243,
      "ĠNje": 1244,
      "ngeziwe": 1245,
      "ĠUkuphela": 1246,
      "khon": 1247,
      "nodoli": 1248,
      "Ġukuhamba": 1249,
      "thela": 1250,
      "Ġngayo": 1251,
      "njani": 1252,
      "Ġwamemeza": 1253,
      "ji": 1254,
      "gumbi": 1255,
      "Ġntombazane": 1256,
      "muntu": 1257,
      "Ġsikhathi": 1258,
      "Ġamani": 1259,
      "Ġamaningi": 1260,
      "zonke": 1261,
      "xazonke": 1262,
      "namandla": 1263,
      "Ġnxazonke": 1264,
      "bhola": 1265,
      "Ġmama": 1266,
      "Ġmanje": 1267,
      "fo": 1268,
      "Bheka": 1269,
      "mali": 1270,
      "Ġngale": 1271,
      "pula": 1272,
      "khipha": 1273,
      "Masi": 1274,
      "qabu": 1275,
      "Ġema": 1276,
      "khazi": 1277,
      "ĠNjengoba": 1278,
      "wabo": 1279,
      "Ġizilwane": 1280,
      "Ġithoyizi": 1281,
      "ĠAka": 1282,
      "ll": 1283,
      "khazimula": 1284,
      "Ġunogwaja": 1285,
      "ngazi": 1286,
      "sandla": 1287,
      "gogo": 1288,
      "ĠuTim": 1289,
      "Ġikati": 1290,
      "Unga": 1291,
      "Ġngemva": 1292,
      "phakamisa": 1293,
      "Ġelincane": 1294,
      "nen": 1295,
      "buyise": 1296,
      "gcwele": 1297,
      "Ġukuya": 1298,
      "Ġngom": 1299,
      "cu": 1300,
      "phele": 1301,
      "neminyaka": 1302,
      "ĠnoTom": 1303,
      "Ġamehlo": 1304,
      "Ġyayijabule": 1305,
      "Ġibhere": 1306,
      "gq": 1307,
      "anje": 1308,
      "wini": 1309,
      "Lila": 1310,
      "vela": 1311,
      "yele": 1312,
      "oe": 1313,
      "nze": 1314,
      "Ġufuna": 1315,
      "qinise": 1316,
      "thandi": 1317,
      "sondela": 1318,
      "Ġngenjabulo": 1319,
      "Ġwathatha": 1320,
      "bhukuda": 1321,
      "ĠZiya": 1322,
      "Ġnomunye": 1323,
      "ĠUJack": 1324,
      "Ġyabo": 1325,
      "phawula": 1326,
      "Ġwesi": 1327,
      "lukulu": 1328,
      "lukuluku": 1329,
      "phethe": 1330,
      "Ġbathi": 1331,
      "Ġilanga": 1332,
      "Ġsonke": 1333,
      "ĠIngabe": 1334,
      "ĠuSam": 1335,
      "Lo": 1336,
      "Ġamanzi": 1337,
      "ĠuMax": 1338,
      "themba": 1339,
      "dan": 1340,
      "beni": 1341,
      "Ġubudala": 1342,
      "Ġukuthola": 1343,
      "chibini": 1344,
      "Ġemithathu": 1345,
      "dweba": 1346,
      "Ġkanjani": 1347,
      "khwama": 1348,
      "Ġukusiza": 1349,
      "balulekile": 1350,
      "Ġkuye": 1351,
      "Ġnomusa": 1352,
      "fisa": 1353,
      "Ġebu": 1354,
      "Ġechibini": 1355,
      "Ġwazama": 1356,
      "pu": 1357,
      "zanga": 1358,
      "zoku": 1359,
      "pe": 1360,
      "zwakala": 1361,
      "Ġni": 1362,
      "ĠWonke": 1363,
      "shu": 1364,
      "Ġkanzima": 1365,
      "Ġengcono": 1366,
      "Ġbam": 1367,
      "gcwa": 1368,
      "hlakani": 1369,
      "kwazanga": 1370,
      "Ġlokwazi": 1371,
      "hleke": 1372,
      "bhulokhi": 1373,
      "tham": 1374,
      "gund": 1375,
      "fazane": 1376,
      "Wo": 1377,
      "mathoyizi": 1378,
      "Ġemuva": 1379,
      "fudu": 1380,
      "Ġesitolo": 1381,
      "Ġibha": 1382,
      "Ġwahamba": 1383,
      "Ġkom": 1384,
      "Ġukum": 1385,
      "gundane": 1386,
      "muva": 1387,
      "ĠIn": 1388,
      "Ġngamathoyizi": 1389,
      "zeni": 1390,
      "lilo": 1391,
      "mangalisayo": 1392,
      "Ġwoku": 1393,
      "ĠBathi": 1394,
      "Ġkokuba": 1395,
      "Ġayo": 1396,
      "ĠuSara": 1397,
      "mnyama": 1398,
      "Ġyaba": 1399,
      "swi": 1400,
      "ĠKwakuyi": 1401,
      "lalela": 1402,
      "Ġukuzi": 1403,
      "Ġababe": 1404,
      "Ġukukhala": 1405,
      "nike": 1406,
      "nezi": 1407,
      "Ġkube": 1408,
      "mvu": 1409,
      "Ġngokuba": 1410,
      "Ġkuphela": 1411,
      "zula": 1412,
      "ĠuJack": 1413,
      "Ġomunye": 1414,
      "Ġngaso": 1415,
      "Ġwaphuma": 1416,
      "ĠAke": 1417,
      "Ġisihlahla": 1418,
      "qinile": 1419,
      "Ġizikhathi": 1420,
      "Da": 1421,
      "Ġabe": 1422,
      "Ġkwakuyi": 1423,
      "anini": 1424,
      "Ġbanq": 1425,
      "ĠWazizwa": 1426,
      "jabulisayo": 1427,
      "Ġemo": 1428,
      "noku": 1429,
      "ngayi": 1430,
      "amile": 1431,
      "Ġbabedlala": 1432,
      "ngele": 1433,
      "phonsa": 1434,
      "seni": 1435,
      "nani": 1436,
      "Ġubaba": 1437,
      "vuma": 1438,
      "jwaye": 1439,
      "Ġwanqekuzisa": 1440,
      "Ġkwase": 1441,
      "Ġwamtshela": 1442,
      "Ġikhekhe": 1443,
      "isi": 1444,
      "dolo": 1445,
      "khishini": 1446,
      "bhed": 1447,
      "dy": 1448,
      "obabili": 1449,
      "Ġezinye": 1450,
      "biza": 1451,
      "phelela": 1452,
      "Ġomusha": 1453,
      "Ġngisho": 1454,
      "cophelela": 1455,
      "hlekisa": 1456,
      "Ngolunye": 1457,
      "hli": 1458,
      "Ġngend": 1459,
      "ngaba": 1460,
      "khuphuka": 1461,
      "Ġben": 1462,
      "fudumele": 1463,
      "lwandle": 1464,
      "Ġwakho": 1465,
      "phakeme": 1466,
      "ĠUMia": 1467,
      "phithi": 1468,
      "Ġkuyo": 1469,
      "ĠBobabili": 1470,
      "Ġisandla": 1471,
      "gqoke": 1472,
      "Ġlika": 1473,
      "phuzi": 1474,
      "Ġowa": 1475,
      "zali": 1476,
      "thembi": 1477,
      "thule": 1478,
      "hha": 1479,
      "phepha": 1480,
      "ĠWayene": 1481,
      "ĠManje": 1482,
      "ngen": 1483,
      "dlo": 1484,
      "shisa": 1485,
      "lalele": 1486,
      "yeka": 1487,
      "thambile": 1488,
      "phukuphuku": 1489,
      "Wa": 1490,
      "Ġngokucophelela": 1491,
      "Ġokwa": 1492,
      "ULily": 1493,
      "Ġedlala": 1494,
      "limu": 1495,
      "Ġwayesaba": 1496,
      "Ġlesi": 1497,
      "Ġseku": 1498,
      "zungeza": 1499,
      "ĠWayazi": 1500,
      "Ġefuna": 1501,
      "Ġngaphansi": 1502,
      "bhokisini": 1503,
      "Ġeman": 1504,
      "Ġefika": 1505,
      "ĠBonke": 1506,
      "Ġlokhu": 1507,
      "wuku": 1508,
      "ĠInja": 1509,
      "ĠWagijima": 1510,
      "Ġokukhulu": 1511,
      "ngushe": 1512,
      "Ġwayehlale": 1513,
      "Ġisikhashana": 1514,
      "Ġukuhlola": 1515,
      "yisikhathi": 1516,
      "hlanza": 1517,
      "kanye": 1518,
      "cula": 1519,
      "fuleni": 1520,
      "onda": 1521,
      "mpungushe": 1522,
      "Ngiyaxolisa": 1523,
      "Ġali": 1524,
      "Ġngaleso": 1525,
      "thenga": 1526,
      "hlangana": 1527,
      "ĠS": 1528,
      "dansa": 1529,
      "Ġingubo": 1530,
      "khonko": 1531,
      "lokho": 1532,
      "ĠUthi": 1533,
      "Ġwayese": 1534,
      "Ġyami": 1535,
      "Wow": 1536,
      "phumula": 1537,
      "daweni": 1538,
      "landelayo": 1539,
      "olly": 1540,
      "cinde": 1541,
      "Ġwajabula": 1542,
      "ngakwazi": 1543,
      "qha": 1544,
      "Ġumnyango": 1545,
      "ĠWabuza": 1546,
      "Ġumo": 1547,
      "khonkotha": 1548,
      "Ġababili": 1549,
      "kanyezi": 1550,
      "Ġebona": 1551,
      "Ġwazi": 1552,
      "nomusa": 1553,
      "Ġlwakhe": 1554,
      "isy": 1555,
      "ĠBen": 1556,
      "khathazeki": 1557,
      "qaphele": 1558,
      "ddy": 1559,
      "fundo": 1560,
      "mini": 1561,
      "Ġelisha": 1562,
      "ĠUJohn": 1563,
      "Ġwahleka": 1564,
      "zwi": 1565,
      "ĠNgo": 1566,
      "kwenzeka": 1567,
      "ngco": 1568,
      "Ġko": 1569,
      "qaba": 1570,
      "Ġabakhulu": 1571,
      "Ġwenza": 1572,
      "Ġizwi": 1573,
      "Ġlapha": 1574,
      "Ġindoda": 1575,
      "Ġentsha": 1576,
      "ame": 1577,
      "Ġekhishini": 1578,
      "Ġbadlala": 1579,
      "Ġnjenge": 1580,
      "lungisa": 1581,
      "Sally": 1582,
      "bizwa": 1583,
      "Ġekha": 1584,
      "Ġngempela": 1585,
      "ĠUbaba": 1586,
      "ĠKumelwe": 1587,
      "Ġzoku": 1588,
      "Ġemanzini": 1589,
      "Ġkangakanani": 1590,
      "ter": 1591,
      "bisa": 1592,
      "Ġotsh": 1593,
      "Ġotshanini": 1594,
      "Ġkungani": 1595,
      "thathe": 1596,
      "qhwa": 1597,
      "Ġintombazane": 1598,
      "Ġumoya": 1599,
      "ĠnoSam": 1600,
      "ĠlinguTimmy": 1601,
      "Ġizandla": 1602,
      "omi": 1603,
      "gce": 1604,
      "thakaze": 1605,
      "Ġwami": 1606,
      "Ġusizo": 1607,
      "illy": 1608,
      "Ġelali": 1609,
      "thaka": 1610,
      "Ġlabo": 1611,
      "Ġesa": 1612,
      "Ġebhokisini": 1613,
      "Ġbabenga": 1614,
      "Ġukwa": 1615,
      "nake": 1616,
      "jalo": 1617,
      "Ġendaweni": 1618,
      "qabunga": 1619,
      "ntwa": 1620,
      "boya": 1621,
      "yeni": 1622,
      "phume": 1623,
      "Ġwaphawula": 1624,
      "Ġizingane": 1625,
      "lingo": 1626,
      "ill": 1627,
      "lide": 1628,
      "kili": 1629,
      "Ġsika": 1630,
      "gwababa": 1631,
      "hlela": 1632,
      "Ġngolunye": 1633,
      "Ġlami": 1634,
      "ndaba": 1635,
      "Ġnezin": 1636,
      "kene": 1637,
      "fowabo": 1638,
      "Ġaman": 1639,
      "Ġwafunda": 1640,
      "Ġkufanele": 1641,
      "Ġlakho": 1642,
      "Ġwayeziqhenya": 1643,
      "Ġnombono": 1644,
      "oma": 1645,
      "thiwa": 1646,
      "Ġisifundo": 1647,
      "hl": 1648,
      "theni": 1649,
      "Ġwaphendula": 1650,
      "zile": 1651,
      "ĠIzi": 1652,
      "sila": 1653,
      "Ġeza": 1654,
      "ngaku": 1655,
      "thwa": 1656,
      "Ġekugcineni": 1657,
      "Ġlwe": 1658,
      "zungeze": 1659,
      "Ġizimbali": 1660,
      "ngozi": 1661,
      "Ġwangena": 1662,
      "fasi": 1663,
      "Ġizingubo": 1664,
      "Ġwayene": 1665,
      "Ġnemi": 1666,
      "qu": 1667,
      "Ġbathola": 1668,
      "hlombe": 1669,
      "khuphukela": 1670,
      "Ġezintsha": 1671,
      "Ġegq": 1672,
      "limaza": 1673,
      "ĠNa": 1674,
      "Ġyakho": 1675,
      "Ġwayem": 1676,
      "Ġeside": 1677,
      "Ġbabo": 1678,
      "Ġinga": 1679,
      "khova": 1680,
      "Ġeno": 1681,
      "bhedeni": 1682,
      "Daisy": 1683,
      "nci": 1684,
      "finye": 1685,
      "qi": 1686,
      "Ġbayi": 1687,
      "hlukene": 1688,
      "Ġbedlala": 1689,
      "Ġbobabili": 1690,
      "Ġibhod": 1691,
      "Ġbahamba": 1692,
      "thakazelisa": 1693,
      "phenduka": 1694,
      "Ġembi": 1695,
      "ĠnoMia": 1696,
      "ĠTom": 1697,
      "shaye": 1698,
      "kujabulela": 1699,
      "ĠkaTimmy": 1700,
      "tsheni": 1701,
      "yim": 1702,
      "Ġngaphambi": 1703,
      "nobu": 1704,
      "yisiphukuphuku": 1705,
      "thuthu": 1706,
      "ngenza": 1707,
      "Ġnabo": 1708,
      "nemibala": 1709,
      "khazimulayo": 1710,
      "Ġbefika": 1711,
      "gibela": 1712,
      "vala": 1713,
      "Ġngabe": 1714,
      "Ġwayengakwazi": 1715,
      "gwini": 1716,
      "Ġngaphambili": 1717,
      "bhan": 1718,
      "bonakala": 1719,
      "ntwana": 1720,
      "phutha": 1721,
      "jwayelekile": 1722,
      "Le": 1723,
      "dada": 1724,
      "kele": 1725,
      "ombala": 1726,
      "donsa": 1727,
      "zithanda": 1728,
      "nambi": 1729,
      "Ġez": 1730,
      "Ġuyi": 1731,
      "nikazi": 1732,
      "hlabathini": 1733,
      "Ġwali": 1734,
      "Ġcha": 1735,
      "mv": 1736,
      "Ġiso": 1737,
      "ĠZa": 1738,
      "ĠWam": 1739,
      "ngoma": 1740,
      "Ġkwenze": 1741,
      "andleni": 1742,
      "Ġembhedeni": 1743,
      "khilimu": 1744,
      "gcekeni": 1745,
      "ĠWaba": 1746,
      "Ġezinhle": 1747,
      "Ġukuzama": 1748,
      "ĠWamomotheka": 1749,
      "yona": 1750,
      "hlophe": 1751,
      "tt": 1752,
      "omunye": 1753,
      "leke": 1754,
      "yenza": 1755,
      "buyisela": 1756,
      "Ġaphinde": 1757,
      "Ġwaqhubeka": 1758,
      "hluka": 1759,
      "bolo": 1760,
      "ĠNsuku": 1761,
      "Ġwesifazane": 1762,
      "ĠWazama": 1763,
      "vaka": 1764,
      "luma": 1765,
      "thembisa": 1766,
      "cindezela": 1767,
      "ĠO": 1768,
      "Ġwabonga": 1769,
      "thelo": 1770,
      "ĠUnina": 1771,
      "Ġuzo": 1772,
      "Ġekhethekile": 1773,
      "Ġogwini": 1774,
      "Ġube": 1775,
      "hlamvu": 1776,
      "Ġegcekeni": 1777,
      "Ġl": 1778,
      "hlobo": 1779,
      "meni": 1780,
      "Ġnami": 1781,
      "qapha": 1782,
      "phukile": 1783,
      "wela": 1784,
      "ĠnoJ": 1785,
      "Ġece": 1786,
      "Ġunodoli": 1787,
      "Ġbaqala": 1788,
      "Ġokukhethekile": 1789,
      "Ġwamangala": 1790,
      "hlanzekile": 1791,
      "Molly": 1792,
      "Ġincwadi": 1793,
      "bheke": 1794,
      "Ġawu": 1795,
      "Ġisikhwama": 1796,
      "Ġwaphinde": 1797,
      "ĠWayecabanga": 1798,
      "ff": 1799,
      "qonda": 1800,
      "phila": 1801,
      "ging": 1802,
      "ngeke": 1803,
      "Ġukugijima": 1804,
      "cathu": 1805,
      "Ġisithombe": 1806,
      "Ġngesikhathi": 1807,
      "mvane": 1808,
      "bene": 1809,
      "sana": 1810,
      "vemvane": 1811,
      "letha": 1812,
      "Ġwayengafuni": 1813,
      "Ġakakwazanga": 1814,
      "sihlwa": 1815,
      "Ġindlu": 1816,
      "ĠBabejabule": 1817,
      "thande": 1818,
      "ĠWe": 1819,
      "shiya": 1820,
      "Ġweza": 1821,
      "qedi": 1822,
      "zani": 1823,
      "Ġenze": 1824,
      "Amy": 1825,
      "lahleke": 1826,
      "rry": 1827,
      "Ġwabuyela": 1828,
      "cathulo": 1829,
      "yisikili": 1830,
      "zinto": 1831,
      "Ġkuze": 1832,
      "kotela": 1833,
      "amba": 1834,
      "Ġwen": 1835,
      "sola": 1836,
      "vumela": 1837,
      "bhosho": 1838,
      "ĠWaqala": 1839,
      "ĠMhlawumbe": 1840,
      "hambo": 1841,
      "funde": 1842,
      "geza": 1843,
      "ngcolile": 1844,
      "ngweni": 1845,
      "phendu": 1846,
      "zinye": 1847,
      "limi": 1848,
      "Ġukundiza": 1849,
      "Ġngicela": 1850,
      "banda": 1851,
      "Ġlokuthi": 1852,
      "dlwane": 1853,
      "Yini": 1854,
      "hlukahlukene": 1855,
      "Ġbejabule": 1856,
      "Ġenesi": 1857,
      "sile": 1858,
      "kakhulu": 1859,
      "kuhle": 1860,
      "lovu": 1861,
      "Ġekuseni": 1862,
      "Ġwagona": 1863,
      "Ġkumama": 1864,
      "Ġngezinye": 1865,
      "Ġizinyoni": 1866,
      "umeni": 1867,
      "vungu": 1868,
      "bhisi": 1869,
      "Ġyaqala": 1870,
      "Ġbase": 1871,
      "ĠBabefuna": 1872,
      "Ġukuthatha": 1873,
      "Ġwayedlala": 1874,
      "Kodwa": 1875,
      "ĠAkazange": 1876,
      "UTom": 1877,
      "ĠUnogwaja": 1878,
      "dokotela": 1879,
      "ĠMama": 1880,
      "Ġwavuma": 1881,
      "mbile": 1882,
      "godini": 1883,
      "Ġihlombe": 1884,
      "timela": 1885,
      "Ġbabejabule": 1886,
      "Ġikhe": 1887,
      "Ġolulandelayo": 1888,
      "Ġendala": 1889,
      "Ġindiza": 1890,
      "Ġlezi": 1891,
      "Ġehamba": 1892,
      "Ġwaqaphela": 1893,
      "enye": 1894,
      "Ġes": 1895,
      "tafuleni": 1896,
      "swing": 1897,
      "Ġinduku": 1898,
      "Ġlutho": 1899,
      "Ġeyi": 1900,
      "lla": 1901,
      "phefu": 1902,
      "ĠuLucy": 1903,
      "Ġbanquma": 1904,
      "Ingabe": 1905,
      "Ġnayo": 1906,
      "Ġoluhle": 1907,
      "dlula": 1908,
      "yosi": 1909,
      "Ungakhathazeki": 1910,
      "thula": 1911,
      "thinta": 1912,
      "ami": 1913,
      "vamile": 1914,
      "ume": 1915,
      "ĠBafuna": 1916,
      "Ġyayo": 1917,
      "luni": 1918,
      "nambu": 1919,
      "ĠIkati": 1920,
      "nkulu": 1921,
      "hlangani": 1922,
      "khula": 1923,
      "ĠWanquma": 1924,
      "Ġiyi": 1925,
      "Ġkuyi": 1926,
      "Ġyabona": 1927,
      "ĠBafunda": 1928,
      "phakade": 1929,
      "ngumngane": 1930,
      "layi": 1931,
      "finyelela": 1932,
      "nambuzane": 1933,
      "Ġisikebhe": 1934,
      "Ġnawe": 1935,
      "Ġukuku": 1936,
      "ayisi": 1937,
      "bomv": 1938,
      "ayisikhilimu": 1939,
      "bomvana": 1940,
      "qondo": 1941,
      "Ġbu": 1942,
      "nandi": 1943,
      "Ġiloli": 1944,
      "Ġphakade": 1945,
      "kosi": 1946,
      "Mhlawumbe": 1947,
      "ĠBaba": 1948,
      "qedile": 1949,
      "ĠULucy": 1950,
      "Ġisigqoko": 1951,
      "vuka": 1952,
      "Ġbenza": 1953,
      "Ġumdlalo": 1954,
      "phuza": 1955,
      "wum": 1956,
      "Lokho": 1957,
      "Ġabone": 1958,
      "Ġumkhaya": 1959,
      "ĠAma": 1960,
      "Ġyamomotheka": 1961,
      "qham": 1962,
      "Ġnend": 1963,
      "yesaba": 1964,
      "Ġothile": 1965,
      "mbo": 1966,
      "qhamuka": 1967,
      "ngumuntu": 1968,
      "Ġokuthiwa": 1969,
      "Ġetafuleni": 1970,
      "ĠWenza": 1971,
      "bhoshongo": 1972,
      "khathele": 1973,
      "ĠBabedlala": 1974,
      "hlabathi": 1975,
      "Ġeceleni": 1976,
      "Ġesincane": 1977,
      "swa": 1978,
      "lli": 1979,
      "linde": 1980,
      "Ġezimbi": 1981,
      "ĠUBob": 1982,
      "Ġsami": 1983,
      "fihla": 1984,
      "send": 1985,
      "fula": 1986,
      "Ġiya": 1987,
      "Ġubuso": 1988,
      "andaba": 1989,
      "suka": 1990,
      "Ġkuya": 1991,
      "Ġngenxa": 1992,
      "Ġasi": 1993,
      "daba": 1994,
      "fasitela": 1995,
      "hlakaniphile": 1996,
      "Ġkwesihlahla": 1997,
      "Ġelihle": 1998,
      "ngelela": 1999,
      "Ġkwadingeka": 2000,
      "dwala": 2001,
      "qweni": 2002,
      "Ġngobu": 2003,
      "qoqa": 2004,
      "tshani": 2005,
      "Ġwayeyi": 2006,
      "Ġnomngane": 2007,
      "Ġesihle": 2008,
      "Ġkulo": 2009,
      "nobho": 2010,
      "ĠNgosuku": 2011,
      "ĠBabezijabulisa": 2012,
      "kinobho": 2013,
      "mnene": 2014,
      "Ġukufunda": 2015,
      "Ġeyayithanda": 2016,
      "Ġumsebenzi": 2017,
      "Ġkum": 2018,
      "Ġngokwe": 2019,
      "et": 2020,
      "Ġakho": 2021,
      "hlabe": 2022,
      "namahloni": 2023,
      "buyele": 2024,
      "khomba": 2025,
      "shint": 2026,
      "Ġnaba": 2027,
      "Ġwayezo": 2028,
      "ĠIndoda": 2029,
      "hlekisayo": 2030,
      "jo": 2031,
      "Ġwasi": 2032,
      "ĠNgangi": 2033,
      "ĠAku": 2034,
      "Ġemgodini": 2035,
      "buya": 2036,
      "Ġngokuqinile": 2037,
      "menza": 2038,
      "qiniseka": 2039,
      "thukuthela": 2040,
      "culo": 2041,
      "ndu": 2042,
      "nkwa": 2043,
      "sikhathi": 2044,
      "ĠAwu": 2045,
      "Ġbehamba": 2046,
      "Ġsase": 2047,
      "Ġukulinda": 2048,
      "Ġigumbi": 2049,
      "shela": 2050,
      "bambe": 2051,
      "Ġelangeni": 2052,
      "dade": 2053,
      "Ġuzi": 2054,
      "Ġkwaqhamuka": 2055,
      "gwaqweni": 2056,
      "Ġabanye": 2057,
      "thulu": 2058,
      "thembe": 2059,
      "Ġamakhekhe": 2060,
      "bheni": 2061,
      "Ġkuhle": 2062,
      "vele": 2063,
      "tweni": 2064,
      "ĠBabheka": 2065,
      "Ġwawa": 2066,
      "Ġeminingi": 2067,
      "Ġsiyo": 2068,
      "Ġnonina": 2069,
      "ĠBam": 2070,
      "simbi": 2071,
      "tu": 2072,
      "shayela": 2073,
      "ndleni": 2074,
      "ĠuBob": 2075,
      "ĠULila": 2076,
      "Ġkuqala": 2077,
      "shukela": 2078,
      "kinga": 2079,
      "hlungu": 2080,
      "Ġephethe": 2081,
      "sundu": 2082,
      "Jack": 2083,
      "seduze": 2084,
      "lungise": 2085,
      "cabu": 2086,
      "Ġigundane": 2087,
      "cingo": 2088,
      "fundiso": 2089,
      "ndawo": 2090,
      "Ġuvemvane": 2091,
      "han": 2092,
      "Ġwamnika": 2093,
      "nikeza": 2094,
      "Ġwayezizwa": 2095,
      "ĠIbhere": 2096,
      "lale": 2097,
      "Ġkubalulekile": 2098,
      "Ġwayengazi": 2099,
      "yinto": 2100,
      "Ġukudweba": 2101,
      "ĠuT": 2102,
      "Ġigwababa": 2103,
      "zenza": 2104,
      "Ġbahleka": 2105,
      "Ġukwe": 2106,
      "vakashela": 2107,
      "slide": 2108,
      "phunga": 2109,
      "casha": 2110,
      "Ġnhlanzi": 2111,
      "hlanganyele": 2112,
      "ele": 2113,
      "Ġungi": 2114,
      "sabi": 2115,
      "apula": 2116,
      "nakekela": 2117,
      "Ġadlale": 2118,
      "Ġkwabo": 2119,
      "Ġayenga": 2120,
      "fundisa": 2121,
      "ĠWayeneminyaka": 2122,
      "Ġleli": 2123,
      "kwen": 2124,
      "dlela": 2125,
      "Ġokwaku": 2126,
      "bhamu": 2127,
      "nyama": 2128,
      "Ġugogo": 2129,
      "ende": 2130,
      "hlanhla": 2131,
      "Ġethi": 2132,
      "lambile": 2133,
      "Ġwakhala": 2134,
      "ndla": 2135,
      "ĠuMia": 2136,
      "Ġwama": 2137,
      "mthanda": 2138,
      "Ġyom": 2139,
      "ĠUMa": 2140,
      "ĠH": 2141,
      "Ġsiye": 2142,
      "in": 2143,
      "phiko": 2144,
      "bhala": 2145,
      "belana": 2146,
      "Ġnase": 2147,
      "Ġemgwaqweni": 2148,
      "ĠBabenga": 2149,
      "Ġimbali": 2150,
      "Ġuyise": 2151,
      "Ġumhlaba": 2152,
      "Ġenye": 2153,
      "Ġisidlo": 2154,
      "Ġemoyeni": 2155,
      "sweni": 2156,
      "khohlwa": 2157,
      "Ġwayehamba": 2158,
      "Ġkude": 2159,
      "Ġesikhu": 2160,
      "Ġon": 2161,
      "shintsha": 2162,
      "Ġesho": 2163,
      "Ġephephile": 2164,
      "wangu": 2165,
      "chitha": 2166,
      "thandayo": 2167,
      "bingelela": 2168,
      "Ġngiku": 2169,
      "phelele": 2170,
      "Ġnakakhulu": 2171,
      "Ġbabuyela": 2172,
      "gumbini": 2173,
      "Ġayizange": 2174,
      "Ġisa": 2175,
      "kali": 2176,
      "khwameni": 2177,
      "zungu": 2178,
      "Ġnamathoyizi": 2179,
      "Ġkwafika": 2180,
      "baleka": 2181,
      "zulazula": 2182,
      "pen": 2183,
      "Ġintambo": 2184,
      "zame": 2185,
      "Ġigama": 2186,
      "Ġwamgona": 2187,
      "Ġwesaba": 2188,
      "Ġemotweni": 2189,
      "Ġngaye": 2190,
      "ĠUT": 2191,
      "Ġkomunye": 2192,
      "ĠLesi": 2193,
      "Ġabazali": 2194,
      "qhuma": 2195,
      "ĠIm": 2196,
      "Ġukuhlala": 2197,
      "qeda": 2198,
      "dela": 2199,
      "ĠnoMax": 2200,
      "ngela": 2201,
      "Ġwavula": 2202,
      "zisola": 2203,
      "Ba": 2204,
      "ĠLokho": 2205,
      "Ġathole": 2206,
      "khumbi": 2207,
      "hlabelela": 2208,
      "muhle": 2209,
      "Ġethanda": 2210,
      "ĠUSue": 2211,
      "ngisa": 2212,
      "phuze": 2213,
      "ngemuva": 2214,
      "zayo": 2215,
      "ubesi": 2216,
      "bhubesi": 2217,
      "Ġma": 2218,
      "Ġkuso": 2219,
      "Ġbezijabulisa": 2220,
      "cwadi": 2221,
      "ngom": 2222,
      "Ġemhla": 2223,
      "Ġomdala": 2224,
      "shayeli": 2225,
      "ĠUJane": 2226,
      "hlukile": 2227,
      "gcwala": 2228,
      "Ġngeke": 2229,
      "Kungani": 2230,
      "Ġokunga": 2231,
      "Ġemamatheka": 2232,
      "wukuthi": 2233,
      "Ġelibomvu": 2234,
      "'t": 2235,
      "Ġwagxumela": 2236,
      "khetha": 2237,
      "tebhisi": 2238,
      "handwa": 2239,
      "Ġitshe": 2240,
      "Ġngokwa": 2241,
      "Ġomubi": 2242,
      "khole": 2243,
      "Ġnomkhaya": 2244,
      "ngx": 2245,
      "Ġwezi": 2246,
      "Ġnini": 2247,
      "Ġegumbini": 2248,
      "godi": 2249,
      "ĠBabene": 2250,
      "Ġmuntu": 2251,
      "Ġwacela": 2252,
      "Ġeluhlaza": 2253,
      "Ġyamathoyizi": 2254,
      "Ġbezwa": 2255,
      "phithiphithi": 2256,
      "John": 2257,
      "Umama": 2258,
      "siki": 2259,
      "ĠUJoe": 2260,
      "Ġizincwadi": 2261,
      "Ġleyo": 2262,
      "Ġnosuku": 2263,
      "ĠBanquma": 2264,
      "Ġwafaka": 2265,
      "qembu": 2266,
      "komi": 2267,
      "khululekile": 2268,
      "Em": 2269,
      "ĠuP": 2270,
      "Ġezazi": 2271,
      "ntshi": 2272,
      "Ġichibi": 2273,
      "Ġbabheka": 2274,
      "ĠuF": 2275,
      "ĠUP": 2276,
      "Ġkubo": 2277,
      "Ġenza": 2278,
      "ĠBenza": 2279,
      "linda": 2280,
      "Ġlokuphumula": 2281,
      "gobolo": 2282,
      "nti": 2283,
      "Ġezizwa": 2284,
      "Ġenesibindi": 2285,
      "phawu": 2286,
      "waba": 2287,
      "Ġngokwengeziwe": 2288,
      "Ġesikhwameni": 2289,
      "julile": 2290,
      "Ġazizwe": 2291,
      "ĠAbangane": 2292,
      "muhla": 2293,
      "Ġebomvu": 2294,
      "bweni": 2295,
      "Ġwayelokhu": 2296,
      "khathazekile": 2297,
      "kusihlwa": 2298,
      "ĠUyi": 2299,
      "kawu": 2300,
      "Ġkwesikhashana": 2301,
      "Ġwatshela": 2302,
      "ĠUfuna": 2303,
      "Ġizithombe": 2304,
      "Ġokunye": 2305,
      "Ġbamomotheka": 2306,
      "iza": 2307,
      "Ġayezo": 2308,
      "Ġnobu": 2309,
      "Ġisiphithiphithi": 2310,
      "ĠuSpot": 2311,
      "Ġangi": 2312,
      "Ġngemoto": 2313,
      "obo": 2314,
      "ĠBagijimela": 2315,
      "ĠZazi": 2316,
      "kaza": 2317,
      "Ġimali": 2318,
      "Ġokulula": 2319,
      "hlizi": 2320,
      "Ġuyabuza": 2321,
      "Ġeyayinga": 2322,
      "Ġemnyango": 2323,
      "hlango": 2324,
      "hambweni": 2325,
      "Ġsakusihlwa": 2326,
      "immy": 2327,
      "ĠNoma": 2328,
      "lue": 2329,
      "Ġisitsha": 2330,
      "Ġokumnandi": 2331,
      "Ġkulungile": 2332,
      "hlezi": 2333,
      "Ġisibhakabhaka": 2334,
      "gingqi": 2335,
      "Ġkwakukhona": 2336,
      "Ġonga": 2337,
      "ĠBabekuthanda": 2338,
      "Ġizinwele": 2339,
      "Ġlom": 2340,
      "Ġbangabangane": 2341,
      "Ġimpungushe": 2342,
      "py": 2343,
      "Ġlwalu": 2344,
      "Ġyebo": 2345,
      "mpa": 2346,
      "wesi": 2347,
      "gobolondo": 2348,
      "nyeni": 2349,
      "Ġezincane": 2350,
      "ar": 2351,
      "lutho": 2352,
      "Ġukuphuma": 2353,
      "ĠWabe": 2354,
      "Ġelimnandi": 2355,
      "Emma": 2356,
      "ĠWazi": 2357,
      "Ġbaphinde": 2358,
      "ĠWayeziqhenya": 2359,
      "ĠUSpot": 2360,
      "ĠlinguTim": 2361,
      "Ġajabule": 2362,
      "nqo": 2363,
      "Ġokusha": 2364,
      "gugu": 2365,
      "komo": 2366,
      "nte": 2367,
      "nambitheka": 2368,
      "ĠWajabula": 2369,
      "sini": 2370,
      "Ġibhodlela": 2371,
      "Wathi": 2372,
      "Ġedolo": 2373,
      "Ġyayifuna": 2374,
      "Ġezimbili": 2375,
      "wusuku": 2376,
      "Ġwaku": 2377,
      "ngekho": 2378,
      "ĠUcabanga": 2379,
      "dabukisa": 2380,
      "ffy": 2381,
      "vini": 2382,
      "Ġumsila": 2383,
      "Ġinhlanzi": 2384,
      "Ġamakhulu": 2385,
      "zoba": 2386,
      "ĠuJohn": 2387,
      "sen": 2388,
      "cwe": 2389,
      "Ġelibizwa": 2390,
      "ĠWathola": 2391,
      "nyawo": 2392,
      "ĠNgaphakathi": 2393,
      "hlanganisa": 2394,
      "nyakazisa": 2395,
      "Awu": 2396,
      "fanayo": 2397,
      "Ġan": 2398,
      "Ġlathi": 2399,
      "mawele": 2400,
      "Ġukukhanya": 2401,
      "Ġabazange": 2402,
      "ĠSiya": 2403,
      "ĠUmngane": 2404,
      "onya": 2405,
      "gqolo": 2406,
      "Ġlona": 2407,
      "Ġukugibela": 2408,
      "Ġnamuhla": 2409,
      "ĠuR": 2410,
      "ĠBabethanda": 2411,
      "dlwa": 2412,
      "kholelwa": 2413,
      "sindi": 2414,
      "Ġakwazi": 2415,
      "ĠWafunda": 2416,
      "mise": 2417,
      "ĠSinga": 2418,
      "Ġmnandi": 2419,
      "Ġwahlala": 2420,
      "Ġngendlela": 2421,
      "Ġbazi": 2422,
      "gcwalisa": 2423,
      "ĠWayefisa": 2424,
      "Ġlaba": 2425,
      "hlathi": 2426,
      "Ġeyodwa": 2427,
      "ngce": 2428,
      "ĠUbona": 2429,
      "Ġsekuyisikhathi": 2430,
      "kalo": 2431,
      "yina": 2432,
      "luffy": 2433,
      "ĠWayengakwazi": 2434,
      "Ġwagijimela": 2435,
      "ĠuMa": 2436,
      "Ġohambweni": 2437,
      "ngisiza": 2438,
      "Ġkunga": 2439,
      "pholile": 2440,
      "mpi": 2441,
      "ĠBathola": 2442,
      "Ġabaningi": 2443,
      "Ġamanye": 2444,
      "ngene": 2445,
      "Ġkumnandi": 2446,
      "zom": 2447,
      "Ġingoma": 2448,
      "Ġnokudlala": 2449,
      "xu": 2450,
      "Ġwagxuma": 2451,
      "Ġokwengeziwe": 2452,
      "Ngifuna": 2453,
      "phuka": 2454,
      "Ġekhala": 2455,
      "ĠZiyajabula": 2456,
      "ngxenye": 2457,
      "Ġonodoli": 2458,
      "ĠKwakuyisi": 2459,
      "fe": 2460,
      "Ġezwa": 2461,
      "Ġnent": 2462,
      "Ġsabo": 2463,
      "Ġegqumeni": 2464,
      "Ġolwandle": 2465,
      "Ġukuhlanganyela": 2466,
      "Ġukubamba": 2467,
      "teddy": 2468,
      "Ġsesi": 2469,
      "Ġayethanda": 2470,
      "Ġngebhola": 2471,
      "kiso": 2472,
      "xh": 2473,
      "Ġesaba": 2474,
      "Nami": 2475,
      "Ġnazo": 2476,
      "ĠWayengafuni": 2477,
      "lomo": 2478,
      "hhashi": 2479,
      "Ġikha": 2480,
      "fihlo": 2481,
      "ĠUsuku": 2482,
      "Ġsiyi": 2483,
      "ĠAngi": 2484,
      "Ġngalokho": 2485,
      "Ġahambe": 2486,
      "bye": 2487,
      "enny": 2488,
      "dabuka": 2489,
      "Ġyayinga": 2490,
      "Ġalalele": 2491,
      "bula": 2492,
      "Ġesikhethekile": 2493,
      "thelela": 2494,
      "duma": 2495,
      "nu": 2496,
      "Ġkakhu": 2497,
      "ĠNgifuna": 2498,
      "dlwana": 2499,
      "Ġkakhudlwana": 2500,
      "kulungele": 2501,
      "linye": 2502,
      "Ġizimoto": 2503,
      "Ġnesibindi": 2504,
      "elanga": 2505,
      "gingqika": 2506,
      "ngcezu": 2507,
      "swidi": 2508,
      "Ġwashaya": 2509,
      "cwebe": 2510,
      "shona": 2511,
      "bhede": 2512,
      "buye": 2513,
      "mibala": 2514,
      "dadewabo": 2515,
      "ofa": 2516,
      "Ġkuma": 2517,
      "nokwenzeka": 2518,
      "ĠWayesaba": 2519,
      "Ġukuwa": 2520,
      "ngokunokwenzeka": 2521,
      "Ġngangokunokwenzeka": 2522,
      "Ġkunazo": 2523,
      "pheph": 2524,
      "khali": 2525,
      "st": 2526,
      "hlalo": 2527,
      "Ġnenja": 2528,
      "shalo": 2529,
      "munye": 2530,
      "lahle": 2531,
      "Ġebuka": 2532,
      "Ġsakho": 2533,
      "lahla": 2534,
      "Ġyam": 2535,
      "Ġiga": 2536,
      "Ġukuzijabulisa": 2537,
      "Ġinku": 2538,
      "nwe": 2539,
      "Ġemhlabathini": 2540,
      "entsh": 2541,
      "ĠUyakuthanda": 2542,
      "phelile": 2543,
      "mbiza": 2544,
      "zz": 2545,
      "Ġbheka": 2546,
      "zana": 2547,
      "ĠWacabanga": 2548,
      "ĠUTommy": 2549,
      "mbalwa": 2550,
      "un": 2551,
      "Ġukushaya": 2552,
      "oda": 2553,
      "Ġamabhulokhi": 2554,
      "Ġesandleni": 2555,
      "zwakalayo": 2556,
      "ĠWayengazi": 2557,
      "mhlophe": 2558,
      "yom": 2559,
      "Ġkwenzeka": 2560,
      "Ġnjengesi": 2561,
      "Ġyahamba": 2562,
      "hambi": 2563,
      "zungezile": 2564,
      "Ġbafuna": 2565,
      "lenze": 2566,
      "Ġumdlwane": 2567,
      "Ġsihambe": 2568,
      "kole": 2569,
      "hi": 2570,
      "ndele": 2571,
      "bhentsh": 2572,
      "neke": 2573,
      "Ġubusuku": 2574,
      "ĠUR": 2575,
      "yini": 2576,
      "hlole": 2577,
      "Ġnjalo": 2578,
      "Ġezama": 2579,
      "Ġngokuzwakalayo": 2580,
      "noboya": 2581,
      "komishi": 2582,
      "gxume": 2583,
      "Ġenzeni": 2584,
      "Ġengena": 2585,
      "Ġumfowabo": 2586,
      "ngqo": 2587,
      "ntis": 2588,
      "ĠNgizo": 2589,
      "tholile": 2590,
      "Kwa": 2591,
      "kude": 2592,
      "ĠWavula": 2593,
      "Ġkabi": 2594,
      "phaketheni": 2595,
      "ĠNgiyakuthanda": 2596,
      "Ġuce": 2597,
      "sika": 2598,
      "niki": 2599,
      "amuva": 2600,
      "ĠKamuva": 2601,
      "yoba": 2602,
      "Ġubani": 2603,
      "phupha": 2604,
      "pheka": 2605,
      "Ġbanqekuzisa": 2606,
      "ĠImfundiso": 2607,
      "khelwane": 2608,
      "Ġkuwo": 2609,
      "Ġamsize": 2610,
      "Ġukulala": 2611,
      "ĠUF": 2612,
      "Ġiza": 2613,
      "sofa": 2614,
      "Ġnezinye": 2615,
      "Ġolukhulu": 2616,
      "Ġpham": 2617,
      "Ġwambuza": 2618,
      "ĠWabonga": 2619,
      "simini": 2620,
      "Ġayeku": 2621,
      "Ġengi": 2622,
      "nobungane": 2623,
      "Ġukugxuma": 2624,
      "Ġethola": 2625,
      "Ġnjenga": 2626,
      "nhle": 2627,
      "Ġezo": 2628,
      "Ġngawe": 2629,
      "Ġngifuna": 2630,
      "Ġyenza": 2631,
      "jusi": 2632,
      "Ġinjabulo": 2633,
      "thethelela": 2634,
      "sasa": 2635,
      "ĠKwakumnandi": 2636,
      "zinwele": 2637,
      "Ġesite": 2638,
      "llie": 2639,
      "Ġayeke": 2640,
      "ĠBahamba": 2641,
      "puni": 2642,
      "jazi": 2643,
      "Ġethukuthele": 2644,
      "Ġayeli": 2645,
      "ĠBane": 2646,
      "Ġwamanga": 2647,
      "Ġwakwazi": 2648,
      "Ġimisindo": 2649,
      "Ġsezi": 2650,
      "ĠuJoe": 2651,
      "bukela": 2652,
      "Ġegqamile": 2653,
      "Ġimidlalo": 2654,
      "thukuthe": 2655,
      "ĠZiyakuthanda": 2656,
      "Ġngiyakuthanda": 2657,
      "Ġida": 2658,
      "Nga": 2659,
      "Ġwayengeke": 2660,
      "Ġngiyabonga": 2661,
      "Ġipha": 2662,
      "Ġngephutha": 2663,
      "Ġega": 2664,
      "ĠLona": 2665,
      "Ġipaki": 2666,
      "Ġyabaleka": 2667,
      "Ġibhayisikili": 2668,
      "ĠuMi": 2669,
      "ĠNaye": 2670,
      "hlakaniphe": 2671,
      "phula": 2672,
      "Ġesimnandi": 2673,
      "ngasekho": 2674,
      "wesifazane": 2675,
      "dwebo": 2676,
      "ĠuSarah": 2677,
      "by": 2678,
      "sikidi": 2679,
      "Ġqaphela": 2680,
      "Ġusu": 2681,
      "zinyo": 2682,
      "Ġelingemuva": 2683,
      "hluthule": 2684,
      "Ġyaya": 2685,
      "kede": 2686,
      "hluthulelo": 2687,
      "beke": 2688,
      "msiza": 2689,
      "ĠYi": 2690,
      "Nge": 2691,
      "hliziyo": 2692,
      "Ġumculo": 2693,
      "ĠWabeka": 2694,
      "ncintis": 2695,
      "ĠBazizwa": 2696,
      "Ġeseqedile": 2697,
      "zalwa": 2698,
      "Ġyezi": 2699,
      "hlangothi": 2700,
      "Ġukukhuluma": 2701,
      "Ġezinkulu": 2702,
      "Ġinqaba": 2703,
      "ĠuJane": 2704,
      "dra": 2705,
      "xhwele": 2706,
      "Ġyokudlala": 2707,
      "Ġbajabule": 2708,
      "Ġumxhwele": 2709,
      "endlu": 2710,
      "koleni": 2711,
      "fiso": 2712,
      "bonise": 2713,
      "sie": 2714,
      "ĠNgiyabonga": 2715,
      "Ġuyamomotheka": 2716,
      "nyakaza": 2717,
      "Ġowawu": 2718,
      "Ġsom": 2719,
      "phupho": 2720,
      "lungele": 2721,
      "Ġkuphi": 2722,
      "Ġikhehla": 2723,
      "hho": 2724,
      "Ġathi": 2725,
      "Ġsiya": 2726,
      "limaze": 2727,
      "Ġeliyi": 2728,
      "lingani": 2729,
      "Ġukwazi": 2730,
      "rk": 2731,
      "Ġwafika": 2732,
      "Ġwayekwazi": 2733,
      "sawo": 2734,
      "ĠWatshela": 2735,
      "Ġesihlalweni": 2736,
      "khahlela": 2737,
      "Ġimvula": 2738,
      "Ġngobumnene": 2739,
      "Ġinko": 2740,
      "Ġukucula": 2741,
      "Ġucezu": 2742,
      "shizi": 2743,
      "ĠUBenny": 2744,
      "ĠKwake": 2745,
      "buyisele": 2746,
      "sendle": 2747,
      "philile": 2748,
      "Ġkwakudingeka": 2749,
      "chaza": 2750,
      "yimane": 2751,
      "bekayo": 2752,
      "tasa": 2753,
      "Ġkule": 2754,
      "Ġephaketheni": 2755,
      "Ġebusweni": 2756,
      "Ġakekho": 2757,
      "Ġibe": 2758,
      "Ġeliluhlaza": 2759,
      "Ġinkinobho": 2760,
      "lona": 2761,
      "Ġbeya": 2762,
      "gwaqo": 2763,
      "ĠWahamba": 2764,
      "bisi": 2765,
      "Ġwabamba": 2766,
      "Ġizicathulo": 2767,
      "ĠuS": 2768,
      "Ġemnandi": 2769,
      "qiniso": 2770,
      "ĠAnna": 2771,
      "Ġyesi": 2772,
      "pop": 2773,
      "khom": 2774,
      "ĠWayedabukile": 2775,
      "cebo": 2776,
      "tty": 2777,
      "Ġabahle": 2778,
      "Ġeqh": 2779,
      "cane": 2780,
      "zinyoni": 2781,
      "Ġyena": 2782,
      "Ġijazi": 2783,
      "Ġane": 2784,
      "Ġebhod": 2785,
      "Ġekhabe": 2786,
      "Ġuthanda": 2787,
      "Ġizinhlanzi": 2788,
      "Ġnokuthi": 2789,
      "ĠKuya": 2790,
      "vikela": 2791,
      "pensela": 2792,
      "phoyisa": 2793,
      "Ġukuyo": 2794,
      "lapha": 2795,
      "Ġukubhukuda": 2796,
      "Kwaku": 2797,
      "kelekile": 2798,
      "Ġimibala": 2799,
      "ĠUMi": 2800,
      "Ġbazizwa": 2801,
      "Ġwena": 2802,
      "ĠWayehlale": 2803,
      "ĠSa": 2804,
      "Ġbadlale": 2805,
      "tshalo": 2806,
      "ĠUma": 2807,
      "Ġngizoku": 2808,
      "qwaba": 2809,
      "ngempela": 2810,
      "Ġezungeze": 2811,
      "Ġebha": 2812,
      "Ġesikoleni": 2813,
      "Ġyedwa": 2814,
      "ĠUMolly": 2815,
      "Ġine": 2816,
      "Ġumbhoshongo": 2817,
      "Ġkunoku": 2818,
      "pheleni": 2819,
      "Ġbahlala": 2820,
      "sholo": 2821,
      "Ġkwelanga": 2822,
      "ĠAbazange": 2823,
      "Um": 2824,
      "ru": 2825,
      "ngabangane": 2826,
      "Ġbabefuna": 2827,
      "Ġlama": 2828,
      "ĠWayehlala": 2829,
      "thandeka": 2830,
      "Ġlaqala": 2831,
      "Ġumnikazi": 2832,
      "ngalo": 2833,
      "Ġyale": 2834,
      "ĠBaphinde": 2835,
      "fini": 2836,
      "sizi": 2837,
      "Ġidwala": 2838,
      "Ġkusukela": 2839,
      "Ġngazo": 2840,
      "Ġncwadi": 2841,
      "Ġukukwenza": 2842,
      "Ġlokuzalwa": 2843,
      "Ġbaye": 2844,
      "Ġutshani": 2845,
      "posi": 2846,
      "Ġizindaba": 2847,
      "phefumu": 2848,
      "sand": 2849,
      "Ġyen": 2850,
      "Ġ'": 2851,
      "Ġkuyisikhathi": 2852,
      "qongweni": 2853,
      "ena": 2854,
      "oza": 2855,
      "ntombazane": 2856,
      "cwebezela": 2857,
      "cke": 2858,
      "ĠBadlala": 2859,
      "ĠBaqala": 2860,
      "andy": 2861,
      "Ġaqaphele": 2862,
      "qathe": 2863,
      "Ġbangane": 2864,
      "tshele": 2865,
      "qanda": 2866,
      "Ġwahlangana": 2867,
      "dide": 2868,
      "Ġizaqathe": 2869,
      "Ġwayengum": 2870,
      "onyama": 2871,
      "Ġezihlukahlukene": 2872,
      "Ġamatshe": 2873,
      "gasi": 2874,
      "thakazelisayo": 2875,
      "rn": 2876,
      "bhande": 2877,
      "daka": 2878,
      "linga": 2879,
      "lule": 2880,
      "Ġwafuna": 2881,
      "khulile": 2882,
      "dalwa": 2883,
      "wich": 2884,
      "tten": 2885,
      "ĠUSally": 2886,
      "ĠLeli": 2887,
      "Ġumlilo": 2888,
      "Ġyama": 2889,
      "Ġzakho": 2890,
      "Ġisikhova": 2891,
      "hlukani": 2892,
      "Ġbakho": 2893,
      "yena": 2894,
      "Ġesiqongweni": 2895,
      "lintshi": 2896,
      "hlahleni": 2897,
      "layidini": 2898,
      "son": 2899,
      "Ġuphawu": 2900,
      "Ġngc": 2901,
      "Ġngizo": 2902,
      "swe": 2903,
      "thakathaka": 2904,
      "yoka": 2905,
      "Ġngcono": 2906,
      "USara": 2907,
      "Kuhle": 2908,
      "Ġesilayidini": 2909,
      "valo": 2910,
      "ndlu": 2911,
      "Ġizihlahla": 2912,
      "Ġwalala": 2913,
      "gijime": 2914,
      "bele": 2915,
      "Ġuqaphele": 2916,
      "lahlekelwa": 2917,
      "Ġezandleni": 2918,
      "lahlekelwe": 2919,
      "ngcebo": 2920,
      "Ġow": 2921,
      "Ġimp": 2922,
      "sakwazi": 2923,
      "ĠuSue": 2924,
      "Ġngalunye": 2925,
      "Ġnalo": 2926,
      "Ġkwalokho": 2927,
      "ndilinga": 2928,
      "Ġsokubuyela": 2929,
      "Ġesizayo": 2930,
      "ttens": 2931,
      "kaniphile": 2932,
      "ĠWacela": 2933,
      "ĠWamemeza": 2934,
      "hlwe": 2935,
      "nqoba": 2936,
      "Ġwakhipha": 2937,
      "dongeni": 2938,
      "mily": 2939,
      "Ġibhubesi": 2940,
      "Ġijabule": 2941,
      "Ġodongeni": 2942,
      "Ġekhabetheni": 2943,
      "Ġabasha": 2944,
      "thando": 2945,
      "Ġelikhethekile": 2946,
      "yan": 2947,
      "Ġukwabelana": 2948,
      "Ġphakathi": 2949,
      "bhaluni": 2950,
      "Ġbenze": 2951,
      "ĠSam": 2952,
      "at": 2953,
      "bungu": 2954,
      "mpilo": 2955,
      "ĠuN": 2956,
      "Ġwakhumbula": 2957,
      "Ġelinye": 2958,
      "jabulise": 2959,
      "Ġamaqabunga": 2960,
      "Ġent": 2961,
      "imbi": 2962,
      "ĠHa": 2963,
      "ngayithola": 2964,
      "milingo": 2965,
      "Ġebusuku": 2966,
      "nombala": 2967,
      "ĠuDaisy": 2968,
      "sandwich": 2969,
      "Ġukubuka": 2970,
      "mayo": 2971,
      "Ġnginga": 2972,
      "qondi": 2973,
      "Ġzika": 2974,
      "ngonyama": 2975,
      "Ġekhanda": 2976,
      "Ġ\"\"\"": 2977,
      "bhentshini": 2978,
      "vale": 2979,
      "Ġkwezi": 2980,
      "corn": 2981,
      "ngakusiza": 2982,
      "Ġsayo": 2983,
      "Ġethile": 2984,
      "Ġwabuka": 2985,
      "phefumula": 2986,
      "Ġukugxumela": 2987,
      "Ġiwukuthi": 2988,
      "Ġegijima": 2989,
      "ĠuBenny": 2990,
      "Ġisobho": 2991,
      "Ġizingcezu": 2992,
      "Ġuhambo": 2993,
      "Ġbazo": 2994,
      "Ġesasi": 2995,
      "Ġkuphendula": 2996,
      "Ġezithile": 2997,
      "Ġwethu": 2998,
      "ĠSara": 2999,
      "ĠUS": 3000,
      "bhi": 3001,
      "ngulu": 3002,
      "ĠBayakuthanda": 3003,
      "lume": 3004,
      "bungane": 3005,
      "Emily": 3006,
      "phuzo": 3007,
      "Ġngamabhulokhi": 3008,
      "Ġyizi": 3009,
      "Ġbabengabangane": 3010,
      "Ġkwakungu": 3011,
      "Ġuhlangothi": 3012,
      "phindela": 3013,
      "Ġibhaluni": 3014,
      "kuqonda": 3015,
      "Ġumntwana": 3016,
      "Ġebhentshini": 3017,
      "Ġwamamatheka": 3018,
      "ĠNgale": 3019,
      "ĠWafaka": 3020,
      "sebenzise": 3021,
      "ngeyona": 3022,
      "ntombazanyana": 3023,
      "nduku": 3024,
      "Ġabese": 3025,
      "Ġumbu": 3026,
      "pulazini": 3027,
      "zuzu": 3028,
      "Ġukwakha": 3029,
      "ĠWoza": 3030,
      "san": 3031,
      "bhayisikili": 3032,
      "gcine": 3033,
      "mlilo": 3034,
      "Ġso": 3035,
      "gula": 3036,
      "Angi": 3037,
      "Ġensimini": 3038,
      "bonakali": 3039,
      "ĠNgezinye": 3040,
      "cimbi": 3041,
      "Ġazo": 3042,
      "Ġlase": 3043,
      "Ġkwephuze": 3044,
      "ĠKufanele": 3045,
      "Ġisipho": 3046,
      "ngesabi": 3047,
      "xuba": 3048,
      "Ġngosuku": 3049,
      "Ġkwakumelwe": 3050,
      "Ġnezilwane": 3051,
      "ĠuSally": 3052,
      "vulekile": 3053,
      "thuluzi": 3054,
      "yaka": 3055,
      "sula": 3056,
      "namathi": 3057,
      "berry": 3058,
      "Ġesinga": 3059,
      "Masihambe": 3060,
      "Ġsidlale": 3061,
      "Ġkuwe": 3062,
      "mane": 3063,
      "khumba": 3064,
      "ake": 3065,
      "Ġiphepha": 3066,
      "ĠUBilly": 3067,
      "cibi": 3068,
      "Ġendle": 3069,
      "ĠuBilly": 3070,
      "thembekile": 3071,
      "Ġejabulisayo": 3072,
      "Bob": 3073,
      "Ġkwen": 3074,
      "baluleke": 3075,
      "Ġidayimane": 3076,
      "tter": 3077,
      "Ġkanti": 3078,
      "Ġesikhundleni": 3079,
      "kla": 3080,
      "peni": 3081,
      "Ġwo": 3082,
      "ĠUD": 3083,
      "Ġokukhanyayo": 3084,
      "Ġukuhlanza": 3085,
      "ĠlinguJ": 3086,
      "thandwa": 3087,
      "Ġwamyisa": 3088,
      "Ġwayenesi": 3089,
      "Siya": 3090,
      "Ġukuzizwa": 3091,
      "ĠNjalo": 3092,
      "Ġenku": 3093,
      "tshi": 3094,
      "nelanga": 3095,
      "cibisholo": 3096,
      "ĠLi": 3097,
      "Ġise": 3098,
      "qinisile": 3099,
      "Ġuyo": 3100,
      "Ġkudingeka": 3101,
      "ĠnoSue": 3102,
      "ĠuTommy": 3103,
      "Ġwathembisa": 3104,
      "buhlungu": 3105,
      "Ġesisha": 3106,
      "Ġelikhazimulayo": 3107,
      "mukela": 3108,
      "Ġbaqhubeka": 3109,
      "Ġyazizwa": 3110,
      "ĠUDaisy": 3111,
      "ngulube": 3112,
      "ndlovu": 3113,
      "came": 3114,
      "jaha": 3115,
      "hliwe": 3116,
      "An": 3117,
      "Ġlwabo": 3118,
      "Ġkwama": 3119,
      "Ġwenze": 3120,
      "gquma": 3121,
      "vumele": 3122,
      "Ġkwakumnandi": 3123,
      "uck": 3124,
      "yakazisa": 3125,
      "Ġingadi": 3126,
      "phinda": 3127,
      "Ġuye": 3128,
      "Ġwayethukuthele": 3129,
      "fike": 3130,
      "UBen": 3131,
      "Ġokuningi": 3132,
      "ĠIgama": 3133,
      "Ġonomusa": 3134,
      "Ġwalalela": 3135,
      "ĠNgizoku": 3136,
      "ĠEkupheleni": 3137,
      "Ġidada": 3138,
      "Ġenomusa": 3139,
      "Kufanele": 3140,
      "ĠWayeyi": 3141,
      "Ġbabehamba": 3142,
      "Wen": 3143,
      "ĠNgiyaxolisa": 3144,
      "gxobo": 3145,
      "op": 3146,
      "Ġkamuva": 3147,
      "Ġisitimela": 3148,
      "Ġowayethanda": 3149,
      "Ġwamcela": 3150,
      "shisayo": 3151,
      "Ġidolo": 3152,
      "Ġkuzo": 3153,
      "ĠImoto": 3154,
      "Ġbebuyela": 3155,
      "zandla": 3156,
      "Ġwabeka": 3157,
      "soze": 3158,
      "Ġukuyeka": 3159,
      "ĠIgundane": 3160,
      "kothi": 3161,
      "ĠBe": 3162,
      "ĠWan": 3163,
      "Ġngezimoto": 3164,
      "ĠUyise": 3165,
      "Ġamabili": 3166,
      "lonyeni": 3167,
      "nele": 3168,
      "ĠIsikhova": 3169,
      "ĠTimmy": 3170,
      "Ġyethu": 3171,
      "camelo": 3172,
      "ngwe": 3173,
      "Yi": 3174,
      "ĠBayi": 3175,
      "sabisa": 3176,
      "xazu": 3177,
      "Ġukugqoka": 3178,
      "Ġbehleka": 3179,
      "Nginga": 3180,
      "Ġukudansa": 3181,
      "Ġikhaya": 3182,
      "ĠAbantu": 3183,
      "Ġkwakuyini": 3184,
      "ĠNgesikhathi": 3185,
      "cra": 3186,
      "Ġeye": 3187,
      "ĠkuLily": 3188,
      "ĠInyoni": 3189,
      "Ġyona": 3190,
      "Ġezihlahleni": 3191,
      "Ġleso": 3192,
      "dleke": 3193,
      "Ġengazi": 3194,
      "khoneni": 3195,
      "Uya": 3196,
      "qhi": 3197,
      "didekile": 3198,
      "Ġucingo": 3199,
      "Ġnaphansi": 3200,
      "Ġumgodi": 3201,
      "cabucabu": 3202,
      "ĠuM": 3203,
      "pende": 3204,
      "Ġimnandi": 3205,
      "yithandi": 3206,
      "Ġahlale": 3207,
      "Ġukungena": 3208,
      "shalofini": 3209,
      "susa": 3210,
      "Ġukuwu": 3211,
      "dabukisayo": 3212,
      "Ġawa": 3213,
      "Ġki": 3214,
      "Ġkuka": 3215,
      "ĠUngumngane": 3216,
      "Ġune": 3217,
      "Ġwathukuthela": 3218,
      "vule": 3219,
      "Ġenamandla": 3220,
      "Ġamnandi": 3221,
      "ĠKwakuwusuku": 3222,
      "Ġbagijimela": 3223,
      "Ġisibani": 3224,
      "Ġumshini": 3225,
      "Ġyalendaba": 3226,
      "khunga": 3227,
      "nambitha": 3228,
      "somi": 3229,
      "ĠWayem": 3230,
      "Singa": 3231,
      "Angazi": 3232,
      "yoku": 3233,
      "Ġwabaleka": 3234,
      "matasa": 3235,
      "Ġkwasemini": 3236,
      "Ġoluhlaza": 3237,
      "Ġedolobheni": 3238,
      "Ġifu": 3239,
      "Ġende": 3240,
      "Ġesihlabathini": 3241,
      "ĠYini": 3242,
      "Ġbagijima": 3243,
      "Ġweqhwa": 3244,
      "yithola": 3245,
      "Ġkunabo": 3246,
      "joyina": 3247,
      "Ġkwayo": 3248,
      "Ġkwakunga": 3249,
      "wenze": 3250,
      "meli": 3251,
      "Ġkusasa": 3252,
      "Ġwadabuka": 3253,
      "ĠUK": 3254,
      "sazana": 3255,
      "ĠUSarah": 3256,
      "nie": 3257,
      "tongom": 3258,
      "tongomane": 3259,
      "Ġngemuva": 3260,
      "khutha": 3261,
      "Ġyanquma": 3262,
      "Ġwayezi": 3263,
      "Ġsibe": 3264,
      "ansi": 3265,
      "Ġukubonisa": 3266,
      "ĠBayanga": 3267,
      "ulo": 3268,
      "ĠJ": 3269,
      "Ġyayihamba": 3270,
      "juba": 3271,
      "Ġwabonisa": 3272,
      "zelela": 3273,
      "Ġokhethekile": 3274,
      "Ġwaphakamisa": 3275,
      "ex": 3276,
      "dlali": 3277,
      "Ġzezi": 3278,
      "drako": 3279,
      "kuba": 3280,
      "Ġukuqapha": 3281,
      "hhayi": 3282,
      "Ġhhayi": 3283,
      "shiye": 3284,
      "Ġisilwane": 3285,
      "Ġeze": 3286,
      "eddy": 3287,
      "sindisa": 3288,
      "lom": 3289,
      "Ġepulazini": 3290,
      "ser": 3291,
      "Ġokwenzeka": 3292,
      "Ġndaba": 3293,
      "Lisa": 3294,
      "Ġizinhlobo": 3295,
      "ngenalutho": 3296,
      "khululeke": 3297,
      "Ġukukhuphuka": 3298,
      "phaza": 3299,
      "qola": 3300,
      "Ġino": 3301,
      "gqa": 3302,
      "che": 3303,
      "lane": 3304,
      "Ġimbiza": 3305,
      "Ġemhlane": 3306,
      "hlosile": 3307,
      "khululeka": 3308,
      "Ġinkanyezi": 3309,
      "pule": 3310,
      "Ġukusi": 3311,
      "bandayo": 3312,
      "enzi": 3313,
      "ntambo": 3314,
      "Ġukubuyela": 3315,
      "ngenandaba": 3316,
      "koledi": 3317,
      "ĠTim": 3318,
      "phefumulela": 3319,
      "ĠIngane": 3320,
      "sawoti": 3321,
      "Ġkamnandi": 3322,
      "phethi": 3323,
      "Ġwasondela": 3324,
      "ngqa": 3325,
      "oba": 3326,
      "shokoledi": 3327,
      "sonto": 3328,
      "Ġkungaba": 3329,
      "Ġamakhanda": 3330,
      "Ġngingu": 3331,
      "hlonipha": 3332,
      "Ġekhazimulayo": 3333,
      "busuku": 3334,
      "Ġehlakaniphile": 3335,
      "Ġkunjalo": 3336,
      "solwandle": 3337,
      "kolunye": 3338,
      "ose": 3339,
      "khubeka": 3340,
      "Ġisimanga": 3341,
      "Ġnesikhathi": 3342,
      "Ġukulwa": 3343,
      "nomsindo": 3344,
      "Lokhu": 3345,
      "Ġihamba": 3346,
      "Ġindaba": 3347,
      "Ġngendiza": 3348,
      "ĠUgogo": 3349,
      "Ġbaka": 3350,
      "Ġindlovu": 3351,
      "jiki": 3352,
      "Ġuyayithanda": 3353,
      "vo": 3354,
      "Ġehho": 3355,
      "Ġemlonyeni": 3356,
      "phatha": 3357,
      "Ġkosuku": 3358,
      "Ġmhlawumbe": 3359,
      "tambo": 3360,
      "Ye": 3361,
      "Ġinkawu": 3362,
      "Ġnezimbali": 3363,
      "Ġenoku": 3364,
      "yizivele": 3365,
      "Ġwayodlala": 3366,
      "ngqayizivele": 3367,
      "Ġyabuza": 3368,
      "Ġngokuzu": 3369,
      "Ġngokuzumayo": 3370,
      "sem": 3371,
      "zona": 3372,
      "ĠWaqaphela": 3373,
      "Ġezikhanyayo": 3374,
      "Ġelibi": 3375,
      "hu": 3376,
      "theke": 3377,
      "Ġemfuleni": 3378,
      "thwala": 3379,
      "ĠIgwababa": 3380,
      "Wenzani": 3381,
      "vame": 3382,
      "fihlakalo": 3383,
      "ĠBathatha": 3384,
      "liseki": 3385,
      "ncintiswa": 3386,
      "ĠZonke": 3387,
      "Ġbamemeza": 3388,
      "Ġamaswidi": 3389,
      "Ġlwemali": 3390,
      "enhlanhla": 3391,
      "khadi": 3392,
      "amuhla": 3393,
      "Ġukulalela": 3394,
      "ĠWayelokhu": 3395,
      "Ġwanika": 3396,
      "Ġujabule": 3397,
      "bhula": 3398,
      "weet": 3399,
      "ĠWayengakaze": 3400,
      "Ġsama": 3401,
      "Oh": 3402,
      "fake": 3403,
      "ywa": 3404,
      "kosikazi": 3405,
      "ndlela": 3406,
      "Sarah": 3407,
      "Ġuhlamvu": 3408,
      "Ġumlimi": 3409,
      "Ali": 3410,
      "thandekayo": 3411,
      "lokothi": 3412,
      "ĠIlanga": 3413,
      "Ġisilo": 3414,
      "khathaliseki": 3415,
      "gebe": 3416,
      "thukuthezi": 3417,
      "Ġkwalo": 3418,
      "Ġbagona": 3419,
      "bopha": 3420,
      "ĠBazijabulisa": 3421,
      "Ġisihluthulelo": 3422,
      "ngasese": 3423,
      "phumelela": 3424,
      "fino": 3425,
      "kweni": 3426,
      "Ġbabethanda": 3427,
      "ĠNgeke": 3428,
      "zibuza": 3429,
      "ciko": 3430,
      "thengi": 3431,
      "hembe": 3432,
      "shelele": 3433,
      "limele": 3434,
      "shelelezi": 3435,
      "Ġingane": 3436,
      "Ġzaba": 3437,
      "Ġekhoneni": 3438,
      "ĠBabuyela": 3439,
      "Ġinkomishi": 3440,
      "Ġakufanele": 3441,
      "Ġepha": 3442,
      "thuthuthu": 3443,
      "Ġwayengena": 3444,
      "wethu": 3445,
      "guq": 3446,
      "vunguvungu": 3447,
      "dwaleni": 3448,
      "nikeze": 3449,
      "Ġamaphiko": 3450,
      "Ġbayodlala": 3451,
      "Ngicela": 3452,
      "ĠuK": 3453,
      "Ġkunawo": 3454,
      "Ġwayeka": 3455,
      "Ġkangako": 3456,
      "jolo": 3457,
      "Ġkune": 3458,
      "Ġyan": 3459,
      "Ġangakwazi": 3460,
      "govu": 3461,
      "thambo": 3462,
      "Ġukusebenza": 3463,
      "ĠBagijima": 3464,
      "limala": 3465,
      "dleni": 3466,
      "Ġbabone": 3467,
      "thunzi": 3468,
      "Ġkwakune": 3469,
      "qabula": 3470,
      "mpaphe": 3471,
      "ep": 3472,
      "Ġuhlale": 3473,
      "Ġukuzwa": 3474,
      "gqolozele": 3475,
      "Ġwakubo": 3476,
      "ĠUN": 3477,
      "gebengu": 3478,
      "Ġiqembu": 3479,
      "Ġamandla": 3480,
      "zoo": 3481,
      "Ġayelithanda": 3482,
      "cala": 3483,
      "qhawe": 3484,
      "wn": 3485,
      "Ġwayehlala": 3486,
      "namathoyizi": 3487,
      "lowe": 3488,
      "Ġezimbalwa": 3489,
      "Ġbangena": 3490,
      "ĠWayedlala": 3491,
      "Ġngezinto": 3492,
      "Ġyayisi": 3493,
      "ĠlinguMax": 3494,
      "ĠWayezizwa": 3495,
      "Ġlalijabule": 3496,
      "ĠuLila": 3497,
      "tiye": 3498,
      "bhanana": 3499,
      "Ġkungcono": 3500,
      "Ġokuhle": 3501,
      "?\"\"\"": 3502,
      "kr": 3503,
      "ĠSizo": 3504,
      "khwe": 3505,
      "Ġose": 3506,
      "ĠSasi": 3507,
      "khiphe": 3508,
      "Ġngosizo": 3509,
      "Ġelimnyama": 3510,
      "Ġngezwi": 3511,
      "hhavini": 3512,
      "Ġphambi": 3513,
      "ĠkaTim": 3514,
      "Ġefudumele": 3515,
      "ĠWayenesi": 3516,
      "Ġizinkanyezi": 3517,
      "Ġsebe": 3518,
      "qabeni": 3519,
      "ĠKudingeka": 3520,
      "Ġlalikhanya": 3521,
      "Ġubona": 3522,
      "sau": 3523,
      "Ġuthisha": 3524,
      "Ġebuyela": 3525,
      "Ġukukhuphukela": 3526,
      "Ġiphunga": 3527,
      "Ġngomsebenzi": 3528,
      "Ġnenyoni": 3529,
      "Ġemba": 3530,
      "yifuna": 3531,
      "ĠuC": 3532,
      "ĠLali": 3533,
      "ĠUJill": 3534,
      "Ġyangasese": 3535,
      "mbamba": 3536,
      "sebenze": 3537,
      "Ġolwa": 3538,
      "Ġabuyele": 3539,
      "Ġbafunda": 3540,
      "qhaqha": 3541,
      "Ġwavala": 3542,
      "leli": 3543,
      "Ġolumnandi": 3544,
      "qaleni": 3545,
      "Ġunq": 3546,
      "ĠWagxumela": 3547,
      "Masizo": 3548,
      "kiniki": 3549,
      "xwa": 3550,
      "Ġngakolunye": 3551,
      "Ġzayo": 3552,
      "thetho": 3553,
      "gagasi": 3554,
      "ĠYayinkulu": 3555,
      "ĠNgiyajabula": 3556,
      "Ġkun": 3557,
      "hawu": 3558,
      "pikiniki": 3559,
      "Ġinqwaba": 3560,
      "Ġlihle": 3561,
      "cefe": 3562,
      "ĠUC": 3563,
      "phumu": 3564,
      "Ġyayidabukile": 3565,
      "ĠIzingane": 3566,
      "ĠWamangala": 3567,
      "onse": 3568,
      "mbuza": 3569,
      "ĠBayazijabulisa": 3570,
      "thwane": 3571,
      "Ġolunelanga": 3572,
      "keza": 3573,
      "Ġamahle": 3574,
      "Ġnjengoku": 3575,
      "mbezi": 3576,
      "siwe": 3577,
      "gexo": 3578,
      "Ġukunyakaza": 3579,
      "ĠUM": 3580,
      "qhaqhazela": 3581,
      "khathazeke": 3582,
      "voca": 3583,
      "Ġenkundleni": 3584,
      "Ġyabonga": 3585,
      "yu": 3586,
      "Ġnjengen": 3587,
      "ina": 3588,
      "gatsha": 3589,
      "lodwa": 3590,
      "Ġkusofa": 3591,
      "Ġwambona": 3592,
      "Ġngu": 3593,
      "ĠBacabanga": 3594,
      "Ġamagama": 3595,
      "Ġbene": 3596,
      "gingqa": 3597,
      "Ġwehla": 3598,
      "Hamba": 3599,
      "keka": 3600,
      "misele": 3601,
      "ĠNgaleso": 3602,
      "Ġone": 3603,
      "Ġahlole": 3604,
      "Ġibhakede": 3605,
      "Ġwanyakazisa": 3606,
      "Ġenelukuluku": 3607,
      "Ġinsimbi": 3608,
      "Ġizingoma": 3609,
      "sta": 3610,
      "Ġizithelo": 3611,
      "Ġsaba": 3612,
      "lazi": 3613,
      "khombisa": 3614,
      "Ġenesizungu": 3615,
      "Ġegxuma": 3616,
      "Ġeshalofini": 3617,
      "ndweni": 3618,
      "buso": 3619,
      "gunda": 3620,
      "dli": 3621,
      "Ġemhlabeni": 3622,
      "ĠKungani": 3623,
      "jikijolo": 3624,
      "Ġukuthini": 3625,
      "hlaya": 3626,
      "Ġziya": 3627,
      "ĠWaqhubeka": 3628,
      "ĠUne": 3629,
      "Ġndlela": 3630,
      "ĠuMama": 3631,
      "Ġiqiniso": 3632,
      "Ġyinhle": 3633,
      "Ġngemi": 3634,
      "Ġengalungile": 3635,
      "lower": 3636,
      "lulela": 3637,
      "Ġebhodweni": 3638,
      "Ġyisi": 3639,
      "Ġkuhamba": 3640,
      "wolintshi": 3641,
      "Ġembalwa": 3642,
      "mile": 3643,
      "jaho": 3644,
      "thukile": 3645,
      "Alice": 3646,
      "Ġnawo": 3647,
      "Ġegatsheni": 3648,
      "ĠUmkhaya": 3649,
      "Ġsekufika": 3650,
      "phepho": 3651,
      "zza": 3652,
      "Ġwayenelukuluku": 3653,
      "phindi": 3654,
      "Ġahlanze": 3655,
      "hora": 3656,
      "musa": 3657,
      "Ġwalinda": 3658,
      "bankwa": 3659,
      "Ġbabu": 3660,
      "Ġkwakunzima": 3661,
      "Ġzom": 3662,
      "Ġsokudla": 3663,
      "Ġisipuni": 3664,
      "Ġezimnandi": 3665,
      "Ġenqabeni": 3666,
      "flower": 3667,
      "Ġudabukile": 3668,
      "vim": 3669,
      "Ġekude": 3670,
      "Ġimibu": 3671,
      "Ġebomvana": 3672,
      "ĠNginga": 3673,
      "Ġongcono": 3674,
      "Ġayezi": 3675,
      "ĠAbazali": 3676,
      "Ġinyosi": 3677,
      "pizza": 3678,
      "omona": 3679,
      "ĠUgijimela": 3680,
      "phumule": 3681,
      "qandi": 3682,
      "ĠWayenethemba": 3683,
      "Ġbajabulela": 3684,
      "ĠkaTom": 3685,
      "Ġsingakwazi": 3686,
      "bonakaliso": 3687,
      "Ġabuke": 3688,
      "Ġliya": 3689,
      "langazelela": 3690,
      "Ġihlathi": 3691,
      "vuleka": 3692,
      "Ġkwakuwum": 3693,
      "ĠlinguLucy": 3694,
      "Ġihambe": 3695,
      "ombolo": 3696,
      "Ġukubaleka": 3697,
      "ĠEzinye": 3698,
      "Ġkuyisi": 3699,
      "moya": 3700,
      "Ġisinkwa": 3701,
      "Ġiye": 3702,
      "Ġkwakho": 3703,
      "Ġkangcono": 3704,
      "Ġibhodwe": 3705,
      "Ġezinda": 3706,
      "Ġkokudla": 3707,
      "Ġamazwi": 3708,
      "ĠUba": 3709,
      "ĠWahlala": 3710,
      "amukelekile": 3711,
      "Ġesethi": 3712,
      "gubhu": 3713,
      "khathazeka": 3714,
      "Ġindwangu": 3715,
      "Ġomude": 3716,
      "Ġenom": 3717,
      "bunye": 3718,
      "Ġkulokhu": 3719,
      "golide": 3720,
      "Wamukelekile": 3721,
      "Ġeso": 3722,
      "ndayo": 3723,
      "kebheni": 3724,
      "nayo": 3725,
      "mese": 3726,
      "Ġngezandla": 3727,
      "Ġwom": 3728,
      "ĠBazama": 3729,
      "Ġnentombazane": 3730,
      "Ġokungajwayelekile": 3731,
      "ĠBahleka": 3732,
      "xolise": 3733,
      "Ġbaphuma": 3734,
      "bhedlela": 3735,
      "UJ": 3736,
      "ĠuD": 3737,
      "Ġokumangalisayo": 3738,
      "Ġadle": 3739,
      "Ġyashaya": 3740,
      "kwane": 3741,
      "Ġolwalu": 3742,
      "Ġudokotela": 3743,
      "Ġnezincwadi": 3744,
      "Leo": 3745,
      "phiki": 3746,
      "Ġomnandi": 3747,
      "ĠWagijimela": 3748,
      "Ġyayesaba": 3749,
      "mbewu": 3750,
      "shintshana": 3751,
      "yimfihlo": 3752,
      "ĠKwadingeka": 3753,
      "Ġukuvula": 3754,
      "khulume": 3755,
      "ĠUngumuntu": 3756,
      "ncintiswano": 3757,
      "ĠMia": 3758,
      "Ġbefuna": 3759,
      "Ġsihlahla": 3760,
      "umzane": 3761,
      "Ġkwendlu": 3762,
      "Ġukumsiza": 3763,
      "nto": 3764,
      "Ġephuzi": 3765,
      "Ġyaqhubeka": 3766,
      "Ġmdlalo": 3767,
      "washi": 3768,
      "kila": 3769,
      "phambili": 3770,
      "Ġesiluhlaza": 3771,
      "ĠWani": 3772,
      "Ġoneminyaka": 3773,
      "Ġwaphonsa": 3774,
      "bantu": 3775,
      "Ake": 3776,
      "Ġinge": 3777,
      "Ġeliphuzi": 3778,
      "Ġngesikebhe": 3779,
      "ĠP": 3780,
      "Ġwakhohlwa": 3781,
      "Ġeyodlala": 3782,
      "wenza": 3783,
      "Ġngiyi": 3784,
      "Ġathathe": 3785,
      "ĠWezwa": 3786,
      "Ġaphume": 3787,
      "Ġbazama": 3788,
      "teleni": 3789,
      "Ngizo": 3790,
      "Ġukuzidela": 3791,
      "qale": 3792,
      "fasiteleni": 3793,
      "Ġesitsheni": 3794,
      "khafu": 3795,
      "Ġsalokho": 3796,
      "ĠNomaphi": 3797,
      "Wena": 3798,
      "Ġonsomi": 3799,
      "ĠBabeka": 3800,
      "ĠWayethukuthele": 3801,
      "Ġwasiza": 3802,
      "zima": 3803,
      "simu": 3804,
      "Ġamasha": 3805,
      "Ġkwemi": 3806,
      "Ġami": 3807,
      "Ġlamathoyizi": 3808,
      "babayo": 3809,
      "khuthaza": 3810,
      "Ġbaphila": 3811,
      "Ġnathi": 3812,
      "jelly": 3813,
      "Ġudrako": 3814,
      "Ġngefasitela": 3815,
      "ntuthwane": 3816,
      "Ġwenzani": 3817,
      "Ġyaphendula": 3818,
      "Ġizinya": 3819,
      "ĠMax": 3820,
      "kathi": 3821,
      "bhuloho": 3822,
      "ĠUngum": 3823,
      "kamelo": 3824,
      "Ġwayethole": 3825,
      "wen": 3826,
      "Ġbazijabulisa": 3827,
      "Ġeyisiphukuphuku": 3828,
      "Ġesibalulekile": 3829,
      "bukhali": 3830,
      "Ġyayithanda": 3831,
      "lisekile": 3832,
      "Ġyathola": 3833,
      "Ġobomvana": 3834,
      "Ngiyazi": 3835,
      "Ġezimangalisayo": 3836,
      "fafa": 3837,
      "ĠUJimmy": 3838,
      "crab": 3839,
      "aba": 3840,
      "Ġobuhle": 3841,
      "ĠUMary": 3842,
      "ven": 3843,
      "nyembezi": 3844,
      "cuc": 3845,
      "Ġesikebheni": 3846,
      "Ġngamanzi": 3847,
      "Ġekhanyayo": 3848,
      "Ġbadla": 3849,
      "qhele": 3850,
      "ngcola": 3851,
      "cucu": 3852,
      "zodlala": 3853,
      "Ġukuhleka": 3854,
      "lahlekile": 3855,
      "Ġkanye": 3856,
      "omoya": 3857,
      "namathela": 3858,
      "Ġwayengumfana": 3859,
      "Ġzibe": 3860,
      "wenya": 3861,
      "Ġkwakuyisi": 3862,
      "khiwo": 3863,
      "kuseni": 3864,
      "fune": 3865,
      "ĠBabefisa": 3866,
      "ĠAwukwazi": 3867,
      "kwenzile": 3868,
      "Ġukugcina": 3869,
      "Ġedwaleni": 3870,
      "Ġumshayeli": 3871,
      "puleti": 3872,
      "Ġolukhethekile": 3873,
      "Ġbaben": 3874,
      "Ġngamunye": 3875,
      "ball": 3876,
      "nosau": 3877,
      "Ġeba": 3878,
      "Ġsenze": 3879,
      "guqu": 3880,
      "Ġeqhweni": 3881,
      "khono": 3882,
      "thakathi": 3883,
      "nosaur": 3884,
      "Ġumzi": 3885,
      "Ġibhande": 3886,
      "ĠUmnikazi": 3887,
      "Ġegqoke": 3888,
      "Ġayodlala": 3889,
      "ucky": 3890,
      "Ġehlukahlukene": 3891,
      "Ġigobolondo": 3892,
      "andatho": 3893,
      "qeku": 3894,
      "Ġepheph": 3895,
      "Ġsen": 3896,
      "thumela": 3897,
      "humeni": 3898,
      "Ġeneminyaka": 3899,
      "Ġlokulala": 3900,
      "Ġwaze": 3901,
      "Ġelidala": 3902,
      "dinosaur": 3903,
      "Ġkuno": 3904,
      "Ġithi": 3905,
      "itty": 3906,
      "Susie": 3907,
      "Ġuzizwa": 3908,
      "Ġephuma": 3909,
      "ed": 3910,
      "Ġesibi": 3911,
      "Be": 3912,
      "thengela": 3913,
      "Ġisidleke": 3914,
      "ĠWayegqoke": 3915,
      "Ġbabesaba": 3916,
      "thom": 3917,
      "Ġbathatha": 3918,
      "filimu": 3919,
      "Ġwazijabulisa": 3920,
      "Ġayithandayo": 3921,
      "Ġaluhlaza": 3922,
      "vivi": 3923,
      "Ġuse": 3924,
      "buthakathaka": 3925,
      "ss": 3926,
      "Ġyayibukeka": 3927,
      "Ġizwe": 3928,
      "Ġehleka": 3929,
      "tie": 3930,
      "cishe": 3931,
      "ĠBahlala": 3932,
      "ay": 3933,
      "Ġubisi": 3934,
      "yingozi": 3935,
      "Ġseli": 3936,
      "tafula": 3937,
      "Ġikhala": 3938,
      "Ġiro": 3939,
      "liwe": 3940,
      "Ġbabedabukile": 3941,
      "Ġejabulela": 3942,
      "Ġluka": 3943,
      "kemba": 3944,
      "sondo": 3945,
      "Ġinkosazana": 3946,
      "phuthu": 3947,
      "cwebezelayo": 3948,
      "fuc": 3949,
      "Ġkwaqala": 3950,
      "Ġyizicucu": 3951,
      "Ġenezi": 3952,
      "Ġamafu": 3953,
      "Ġlethu": 3954,
      "gile": 3955,
      "nakho": 3956,
      "eter": 3957,
      "fucum": 3958,
      "Ġwayenesibindi": 3959,
      "gqolozela": 3960,
      "fucu": 3961,
      "Ġushizi": 3962,
      "manye": 3963,
      "Ġwayeneminyaka": 3964,
      "Ġezinemibala": 3965,
      "bhasikidi": 3966,
      "Ġnabantu": 3967,
      "UJohn": 3968,
      "valelisa": 3969,
      "thama": 3970,
      "fucumfucu": 3971,
      "ble": 3972,
      "Ġazame": 3973,
      "Ġkungakhathaliseki": 3974,
      "qaphe": 3975,
      "phephandaba": 3976,
      "koku": 3977,
      "Ġwachaza": 3978,
      "phathi": 3979,
      "Ġkwakusihlwa": 3980,
      "ngilazi": 3981,
      "Ġbedabukile": 3982,
      "Ġalizange": 3983,
      "sabekayo": 3984,
      "Ġnamanje": 3985,
      "ĠuMolly": 3986,
      "pheshe": 3987,
      "ĠWabamba": 3988,
      "bhamuza": 3989,
      "ĠUthatha": 3990,
      "sinye": 3991,
      "ĠUG": 3992,
      "Ġbathanda": 3993,
      "Ġbangamawele": 3994,
      "osha": 3995,
      "phezulu": 3996,
      "khumbuza": 3997,
      "layidi": 3998,
      "Ġumlomo": 3999,
      "zwela": 4000,
      "Ġekhathele": 4001,
      "Ġbabengamawele": 4002,
      "Qa": 4003,
      "Ġwayezithanda": 4004,
      "Ġngokuthola": 4005,
      "gela": 4006,
      "Ġzazo": 4007,
      "khathala": 4008,
      "dlu": 4009,
      "ĠUyazi": 4010,
      "Ġosekhulile": 4011,
      "kelela": 4012,
      "ĠWabuye": 4013,
      "Ġizingalo": 4014,
      "Ġefasiteleni": 4015,
      "anta": 4016,
      "Ġsale": 4017,
      "jini": 4018,
      "Ġemhumeni": 4019,
      "ngwenya": 4020,
      "Ġisiphuzo": 4021,
      "Ġngiyaxolisa": 4022,
      "Ġngokwakhe": 4023,
      "nene": 4024,
      "Ġingcebo": 4025,
      "Ġwayenze": 4026,
      "Ġnokudla": 4027,
      "Ġekhumbula": 4028,
      "ĠBan": 4029,
      "Ġwalandela": 4030,
      "Aku": 4031,
      "La": 4032,
      "Ġnesigqoko": 4033,
      "Ġbusuku": 4034,
      "Bathi": 4035,
      "Ġukufinyelela": 4036,
      "Ġenobungane": 4037,
      "ngana": 4038,
      "Ġumqondo": 4039,
      "Ġzinga": 4040,
      "Ġudlale": 4041,
      "Ġnezinyoni": 4042,
      "zenze": 4043,
      "ĠNamuhla": 4044,
      "Ġukuna": 4045,
      "Manje": 4046,
      "Ġwayibeka": 4047,
      "Ġukukholelwa": 4048,
      "Ġagijime": 4049,
      "ĠWayiphakamisa": 4050,
      "qekuzisa": 4051,
      "thand": 4052,
      "Ha": 4053,
      "Ġkwefasitela": 4054,
      "ĠNgobunye": 4055,
      "Ġnamandla": 4056,
      "hlonipho": 4057,
      "Ġeyayihlala": 4058,
      "Ġkomhlaba": 4059,
      "Ġzami": 4060,
      "ĠWabuyela": 4061,
      "Ġwambonga": 4062,
      "buko": 4063,
      "Ġupende": 4064,
      "aneni": 4065,
      "zulu": 4066,
      "Ġbabezijabulisa": 4067,
      "Ġyemilingo": 4068,
      "Ġanemibala": 4069,
      "Ġwayesa": 4070,
      "Ġsathi": 4071,
      "Ġnanga": 4072,
      "bethe": 4073,
      "ĠWahleka": 4074,
      "nuka": 4075,
      "Ġbaku": 4076,
      "Ġukusebenzisa": 4077,
      "Ġisihlalo": 4078,
      "ad": 4079,
      "Ġngokum": 4080,
      "sheshe": 4081,
      "bhulu": 4082,
      "Ġnodoli": 4083,
      "Ġingabe": 4084,
      "Ġendleleni": 4085,
      "zekile": 4086,
      "ĠWakhipha": 4087,
      "Ġakuyona": 4088,
      "Ġisitebhisi": 4089,
      "ĠUmlimi": 4090,
      "Ġwayengase": 4091,
      "ĠWagxuma": 4092,
      "Ġifuna": 4093,
      "Ġukubukela": 4094,
      "bonile": 4095,
      "kukhu": 4096,
      "unk": 4097,
      "Ġuvela": 4098,
      "Ġiphephile": 4099,
      "Ġngokukhazimulayo": 4100,
      "Ġenombala": 4101,
      "Ġokuse": 4102,
      "ĠLokhu": 4103,
      "Ġinyama": 4104,
      "Ġeyayingaphakathi": 4105,
      "He": 4106,
      "Qaphela": 4107,
      "Ġsaqala": 4108,
      "thuli": 4109,
      "Ġudadewabo": 4110,
      "ĠUmshayeli": 4111,
      "ĠuFluffy": 4112,
      "ĠBabenethemba": 4113,
      "Ġkombhede": 4114,
      "Ġyacabanga": 4115,
      "Ġawukwazi": 4116,
      "Ngiyajabula": 4117,
      "ladi": 4118,
      "Ġlelo": 4119,
      "ukane": 4120,
      "Ġujusi": 4121,
      "Ġizinyembezi": 4122,
      "Ġisivunguvungu": 4123,
      "ventu": 4124,
      "lindele": 4125,
      "hloniphe": 4126,
      "Ġongena": 4127,
      "Ġbabehlale": 4128,
      "fafaza": 4129,
      "Ġbami": 4130,
      "Ġemangalisayo": 4131,
      "ek": 4132,
      "Ġasize": 4133,
      "Ġzemali": 4134,
      "Ġwadla": 4135,
      "Ġiphutha": 4136,
      "Ġbhokisi": 4137,
      "ĠWagona": 4138,
      "bhulukwe": 4139,
      "Ġehlekisayo": 4140,
      "hlobi": 4141,
      "fudla": 4142,
      "beleni": 4143,
      "yami": 4144,
      "clo": 4145,
      "Ġizinambuzane": 4146,
      "Ġezijabulisayo": 4147,
      "kwenzekani": 4148,
      "Ġumbukiso": 4149,
      "nki": 4150,
      "qhe": 4151,
      "ngqondo": 4152,
      "Ġitha": 4153,
      "gubha": 4154,
      "ĠZenza": 4155,
      "xoxa": 4156,
      "Ġesibhedlela": 4157,
      "cimi": 4158,
      "Ġngokuziqhenya": 4159,
      "venture": 4160,
      "sipho": 4161,
      "ĠBafaka": 4162,
      "Ġamadada": 4163,
      "endiza": 4164,
      "Ġiqhwa": 4165,
      "kethe": 4166,
      "Ġlibe": 4167,
      "hambisa": 4168,
      "Ġnabanye": 4169,
      "Ġukuqoqa": 4170,
      "Ġentan": 4171,
      "ĠBaben": 4172,
      "fly": 4173,
      "Ġyabe": 4174,
      "pele": 4175,
      "yimfihlakalo": 4176,
      "thuba": 4177,
      "phikisana": 4178,
      "bhothi": 4179,
      "Ġwayithatha": 4180,
      "Ġsizo": 4181,
      "nokuthile": 4182,
      "thiwani": 4183,
      "Ġzamathoyizi": 4184,
      "landele": 4185,
      "ĠWaphinde": 4186,
      "boleka": 4187,
      "Ġwayekujabulela": 4188,
      "phesheya": 4189,
      "gcoba": 4190,
      "Ġkwakunge": 4191,
      "Ġubuhlungu": 4192,
      "Ġabakwazanga": 4193,
      "buyisa": 4194,
      "Ġzethu": 4195,
      "ngqongqo": 4196,
      "Ġucabanga": 4197,
      "ony": 4198,
      "Ġnekati": 4199,
      "bhaneni": 4200,
      "Ġisivalo": 4201,
      "Ġizinsuku": 4202,
      "hide": 4203,
      "Ġihhashi": 4204,
      "Ġyase": 4205,
      "Ġnjengo": 4206,
      "Ġbahambe": 4207,
      "Ġelimangalisayo": 4208,
      "Ġwayemthanda": 4209,
      "Ġapula": 4210,
      "ĠWayekwazi": 4211,
      "Ġngokujabula": 4212,
      "clown": 4213,
      "khukhi": 4214,
      "Ġamantongomane": 4215,
      "Ġwaphefumulela": 4216,
      "Ġukuyibona": 4217,
      "per": 4218,
      "ĠBabazi": 4219,
      "tini": 4220,
      "Ġesebona": 4221,
      "Ġethu": 4222,
      "ĠlinguJack": 4223,
      "Ġngokwanele": 4224,
      "Ġemuhle": 4225,
      "ĠBazi": 4226,
      "kuthandi": 4227,
      "Ġukuyithatha": 4228,
      "Ġnomfana": 4229,
      "Ġbajabula": 4230,
      "Ġnamahloni": 4231,
      "Ġnjengesidlo": 4232,
      "ĠBabengazi": 4233,
      "laleli": 4234,
      "Ġutha": 4235,
      "Ġlishona": 4236,
      "ĠUdokotela": 4237,
      "Ġkuhhavini": 4238,
      "Ġisite": 4239,
      "Ġiba": 4240,
      "Ġnamanzi": 4241,
      "hlukanisa": 4242,
      "nje": 4243,
      "Ġwayecabanga": 4244,
      "jwayeza": 4245,
      "elo": 4246,
      "mnya": 4247,
      "Ġngomusa": 4248,
      "ĠWayezi": 4249,
      "Ġyisikhathi": 4250,
      "kulungi": 4251,
      "Ġenen": 4252,
      "Ġngezinyawo": 4253,
      "Ġwadlala": 4254,
      "Ġungakwenza": 4255,
      "Ġngomkhumbi": 4256,
      "Ġwesitolo": 4257,
      "phahleni": 4258,
      "Ġephepheni": 4259,
      "Ġizindawo": 4260,
      "ĠUyamomotheka": 4261,
      "UTim": 4262,
      "anoma": 4263,
      "Ġeyayifuna": 4264,
      "Ġesiphakeme": 4265,
      "ĠuSammy": 4266,
      "ĠkaJ": 4267,
      "Ġedolobhaneni": 4268,
      "Ġahlanganyele": 4269,
      "TV": 4270,
      "Ġeyayingalungile": 4271,
      "then": 4272,
      "adventure": 4273,
      "Ġegcwele": 4274,
      "ĠWayehamba": 4275,
      "mandleni": 4276,
      "Ġizo": 4277,
      "or": 4278,
      "ĠuG": 4279,
      "ndleleni": 4280,
      "Ġokusemandleni": 4281,
      "ĠAsi": 4282,
      "bhulashi": 4283,
      "Ġbathole": 4284,
      "khale": 4285,
      "Ġalale": 4286,
      "Ġengajwayelekile": 4287,
      "Ġbye": 4288,
      "Ġngithole": 4289,
      "car": 4290,
      "khandlela": 4291,
      "uli": 4292,
      "Ġnangoku": 4293,
      "Ġkwakubonakala": 4294,
      "hlama": 4295,
      "dawonye": 4296,
      "Ġnalapho": 4297,
      "ngqongqoza": 4298,
      "bushelelezi": 4299,
      "Ġowesifazane": 4300,
      "ĠWayengumuntu": 4301,
      "hlelo": 4302,
      "Ngiyakuthanda": 4303,
      "Ġkocingo": 4304,
      "Ġumgexo": 4305,
      "Lu": 4306,
      "ĠYayibukeka": 4307,
      "Ġidabukile": 4308,
      "Ġesitebeleni": 4309,
      "tch": 4310,
      "Ġizitsha": 4311,
      "Ġeliseduze": 4312,
      "sheshayo": 4313,
      "hlele": 4314,
      "Ġinkinga": 4315,
      "Ġbafika": 4316,
      "tape": 4317,
      "qiniseki": 4318,
      "Ġbayajabula": 4319,
      "Ġefanele": 4320,
      "Ġenamahloni": 4321,
      "Ġindi": 4322,
      "Ġsibone": 4323,
      "gqonyeni": 4324,
      "khethi": 4325,
      "lekela": 4326,
      "bhodi": 4327,
      "Ġubhanana": 4328,
      "ĠKwakuwum": 4329,
      "Ġwezilwane": 4330,
      "Ġkunzima": 4331,
      "Ġyazama": 4332,
      "Ġonzima": 4333,
      "ĠWayenelukuluku": 4334,
      "Ġwavuka": 4335,
      "sebenzini": 4336,
      "khuni": 4337,
      "namathise": 4338,
      "Ġukuphumula": 4339,
      "Ġngawo": 4340,
      "Ġigatsha": 4341,
      "Ellie": 4342,
      "Ġuba": 4343,
      "Ġlabona": 4344,
      "Ġindodakazi": 4345,
      "Billy": 4346,
      "Ġsithole": 4347,
      "red": 4348,
      "Ġngaphesheya": 4349,
      "Ġkubangane": 4350,
      "kithi": 4351,
      "ĠEndleleni": 4352,
      "klom": 4353,
      "ĠUmoya": 4354,
      "ĠIsikebhe": 4355,
      "klomelo": 4356,
      "phendule": 4357,
      "Ġuphephile": 4358,
      "Ġukugingqika": 4359,
      "Ġnesineke": 4360,
      "len": 4361,
      "Ġukubheka": 4362,
      "Ġbakwazi": 4363,
      "Ġuju": 4364,
      "Ġuboya": 4365,
      "odana": 4366,
      "Ġzama": 4367,
      "Ġayibone": 4368,
      "shushu": 4369,
      "Ġukuphila": 4370,
      "ngokwa": 4371,
      "Ġngethoyizi": 4372,
      "ĠKwakungu": 4373,
      "kwethen": 4374,
      "Ġukuyibamba": 4375,
      "khathini": 4376,
      "mulo": 4377,
      "Ġmi": 4378,
      "xaba": 4379,
      "Ġkwakuwuku": 4380,
      "lungiselela": 4381,
      "Ġisifiso": 4382,
      "Ġayem": 4383,
      "Ġesibomvu": 4384,
      "thri": 4385,
      "shushulu": 4386,
      "jabuli": 4387,
      "Ġunyawo": 4388,
      "Uku": 4389,
      "Ġkudokotela": 4390,
      "shushuluza": 4391,
      "shumi": 4392,
      "ngenxa": 4393,
      "Hey": 4394,
      "sesi": 4395,
      "Ġiyo": 4396,
      "cebile": 4397,
      "ĠkuTom": 4398,
      "Ġamancane": 4399,
      "kk": 4400,
      "jelwa": 4401,
      "Ġuyaba": 4402,
      "yane": 4403,
      "ĠWayebukeka": 4404,
      "kwethenjelwa": 4405,
      "Ġelele": 4406,
      "Ġbebona": 4407,
      "Ġukushona": 4408,
      "Ġyokubuyela": 4409,
      "rt": 4410,
      "Ġwayenen": 4411,
      "ĠWasebenzisa": 4412,
      "ngahlosile": 4413,
      "Ġnebhere": 4414,
      "ĠuMary": 4415,
      "ĠUyabona": 4416,
      "Ġamajikijolo": 4417,
      "USam": 4418,
      "Ġumcibisholo": 4419,
      "Ġokujabulisayo": 4420,
      "Ġungayi": 4421,
      "ĠWayegijima": 4422,
      "phule": 4423,
      "Ġleposi": 4424,
      "?\"\"": 4425,
      "ĠWavala": 4426,
      "Ġlowo": 4427,
      "Ġkwenye": 4428,
      "ĠWambamba": 4429,
      "godlo": 4430,
      "sando": 4431,
      "Ġobomvu": 4432,
      "Ġsokuba": 4433,
      "nqu": 4434,
      "Ġukunqoba": 4435,
      "Ġyayinkulu": 4436,
      "Ġwalo": 4437,
      "Ġsasemini": 4438,
      "Ġukuqhaqhazela": 4439,
      "ĠOmunye": 4440,
      "Ġisibhamu": 4441,
      "Ġngesandla": 4442,
      "ĠBadla": 4443,
      "nonya": 4444,
      "Ġngokumangala": 4445,
      "ete": 4446,
      "ĠNdawonye": 4447,
      "Kwenze": 4448,
      "Ġkuzwakala": 4449,
      "Ġngokungazelelwe": 4450,
      "Ġsizi": 4451,
      "zip": 4452,
      "bhavu": 4453,
      "Ġingalo": 4454,
      "Ġimibuzo": 4455,
      "Ġyathatha": 4456,
      "Ġbabene": 4457,
      "nquma": 4458,
      "llar": 4459,
      "Ġukubala": 4460,
      "Ġwasebenzisa": 4461,
      "dumala": 4462,
      "vundla": 4463,
      "mbuzi": 4464,
      "Ġukuyithola": 4465,
      "ĠWayese": 4466,
      "gone": 4467,
      "nsundu": 4468,
      "Ġamahora": 4469,
      "Ġnendlela": 4470,
      "Ġeligcwele": 4471,
      "dubula": 4472,
      "Ġisondo": 4473,
      "Ġkamama": 4474,
      "Ġyaphinde": 4475,
      "thusa": 4476,
      "ĠWanika": 4477,
      "Ġemgqonyeni": 4478,
      "Ġmuhle": 4479,
      "Ġwakhuphukela": 4480,
      "Ġyafika": 4481,
      "thinte": 4482,
      "Ġukuzenza": 4483,
      "ĠWayekujabulela": 4484,
      "nyamalala": 4485,
      "Ġkuwum": 4486,
      "Ġeline": 4487,
      "ĠAmanzi": 4488,
      "khule": 4489,
      "Ġini": 4490,
      "gibele": 4491,
      "Ella": 4492,
      "Ġukujoyina": 4493,
      "Ġukuthinta": 4494,
      "Ġelinga": 4495,
      "ste": 4496,
      "Ġnjengom": 4497,
      "ĠNgaso": 4498,
      "Ġngokusiza": 4499,
      "Ġzindiza": 4500,
      "Ġesabekayo": 4501,
      "ĠIsifundiso": 4502,
      "Ġimbewu": 4503,
      "Ġkimi": 4504,
      "jikele": 4505,
      "ngeza": 4506,
      "Ġayesi": 4507,
      "Ġsokudlala": 4508,
      "Ġnezingubo": 4509,
      "Ġeningi": 4510,
      "Ġinyoka": 4511,
      "Ġenokuziqhenya": 4512,
      "Ġezinde": 4513,
      "ngeli": 4514,
      "Ġbangaba": 4515,
      "losi": 4516,
      "Ġizim": 4517,
      "ngenze": 4518,
      "ngubani": 4519,
      "kom": 4520,
      "ĠWayezithanda": 4521,
      "Ġsokuthi": 4522,
      "Ġakukho": 4523,
      "ĠNami": 4524,
      "Ġbeza": 4525,
      "Ġbuka": 4526,
      "Ġngokumomotheka": 4527,
      "cabange": 4528,
      "Ġukuyenza": 4529,
      "ndy": 4530,
      "bhubhi": 4531,
      "mpunga": 4532,
      "khaphethi": 4533,
      "Ġukugeza": 4534,
      "Ġesondela": 4535,
      "qaphile": 4536,
      "finyelele": 4537,
      "ĠKwakubonakala": 4538,
      "Ġeliyigugu": 4539,
      "linganisa": 4540,
      "laji": 4541,
      "Ġophahleni": 4542,
      "Ġwamsiza": 4543,
      "Ġdolo": 4544,
      "zidela": 4545,
      "Ġbacabanga": 4546,
      "Ġkwakuyinto": 4547,
      "thezekile": 4548,
      "ĠUJim": 4549,
      "Ġwaphenduka": 4550,
      "Ġonamandla": 4551,
      "Ġlalinga": 4552,
      "ĠuJill": 4553,
      "ĠuMittens": 4554,
      "Ġnezinto": 4555,
      "qhingi": 4556,
      "emo": 4557,
      "geze": 4558,
      "Ġwayengakaze": 4559,
      "Ġkwenzekani": 4560,
      "Ġumbala": 4561,
      "mema": 4562,
      "Ġukuyithinta": 4563,
      "ĠKwakune": 4564,
      "Ġukulungisa": 4565,
      "Ġnobabili": 4566,
      "Ġesidala": 4567,
      "Ġihembe": 4568,
      "Ġebonga": 4569,
      "Ġwaqiniseka": 4570,
      "Ġkukuhle": 4571,
      "Ġelilodwa": 4572,
      "Ġuthole": 4573,
      "Ġbasebenza": 4574,
      "lando": 4575,
      "Ġwezincwadi": 4576,
      "cimbini": 4577,
      "ndeni": 4578,
      "Ġesikhanyayo": 4579,
      "ĠIbhola": 4580,
      "Ġamanga": 4581,
      "yanga": 4582,
      "endoda": 4583,
      "Ġbezi": 4584,
      "ĠUbheka": 4585,
      "pulazi": 4586,
      "Ġukwehla": 4587,
      "Ġushokoledi": 4588,
      "cket": 4589,
      "Ġnelukuluku": 4590,
      "Ġengakwazi": 4591,
      "Ġabheke": 4592,
      "Ġngokuphinda": 4593,
      "ĠLaba": 4594,
      "thombo": 4595,
      "phindiwe": 4596,
      "pofu": 4597,
      "Ġwayekhathele": 4598,
      "sondele": 4599,
      "Ġobukhulu": 4600,
      "dingi": 4601,
      "Ġojabula": 4602,
      "ĠIloli": 4603,
      "Ġukuthenga": 4604,
      "khosi": 4605,
      "Ġonsundu": 4606,
      "Ġikhadi": 4607,
      "ĠWanyakazisa": 4608,
      "Ġecabanga": 4609,
      "Ġbabezo": 4610,
      "raw": 4611,
      "Ġngokuphindaphindiwe": 4612,
      "makhelwane": 4613,
      "Ġzidlala": 4614,
      "ĠBabengafuni": 4615,
      "Ġngokujulile": 4616,
      "Ġemhlophe": 4617,
      "limale": 4618,
      "gwe": 4619,
      "bambo": 4620,
      "Ġetho": 4621,
      "khomo": 4622,
      "ĠkaBen": 4623,
      "ĠlinguTom": 4624,
      "ig": 4625,
      "nelukuluku": 4626,
      "Ġesinye": 4627,
      "Ġbuthule": 4628,
      "gilebhisi": 4629,
      "dlekeni": 4630,
      "Ġelo": 4631,
      "ĠNgicela": 4632,
      "tterfly": 4633,
      "Ġenecala": 4634,
      "Ġwayenom": 4635,
      "khohliwe": 4636,
      "guquka": 4637,
      "rawberry": 4638,
      "cwi": 4639,
      "Ġokumelwe": 4640,
      "Ġakukuhle": 4641,
      "ĠEsi": 4642,
      "Ġukuzibamba": 4643,
      "Ġiphinde": 4644,
      "Ġngamandla": 4645,
      "Ġkwakunen": 4646,
      "Ġkwakukuhle": 4647,
      "glue": 4648,
      "Ġijuba": 4649,
      "Ġnakho": 4650,
      "Ġemnyama": 4651,
      "goqa": 4652,
      "balo": 4653,
      "Ġbantwana": 4654,
      "gcwalise": 4655,
      "ĠAkufanele": 4656,
      "Ġbamanga": 4657,
      "ash": 4658,
      "Ġimifino": 4659,
      "Baba": 4660,
      "thekile": 4661,
      "ĠBabecabanga": 4662,
      "ĠUSammy": 4663,
      "Ġzokudlala": 4664,
      "qonde": 4665,
      "nikina": 4666,
      "Ġojabulayo": 4667,
      "senze": 4668,
      "Ġngangi": 4669,
      "Ġinetha": 4670,
      "Ġmnyama": 4671,
      "ĠNgelinye": 4672,
      "donga": 4673,
      "cele": 4674,
      "casuka": 4675,
      "ĠUzama": 4676,
      "Ġukuzungeza": 4677,
      "ntweni": 4678,
      "namathiselo": 4679,
      "Ġevula": 4680,
      "Ġizinhlamvu": 4681,
      "Ġekhathazekile": 4682,
      "Ġwakhubeka": 4683,
      "qandisini": 4684,
      "nawo": 4685,
      "Ġbenga": 4686,
      "yenze": 4687,
      "visi": 4688,
      "yindilinga": 4689,
      "ĠWama": 4690,
      "holela": 4691,
      "nqumo": 4692,
      "ĠUbani": 4693,
      "cindezele": 4694,
      "ĠSiyakuthanda": 4695,
      "Ġesidlekeni": 4696,
      "Ġkwechibi": 4697,
      "Dave": 4698,
      "mpumulo": 4699,
      "Ġsasekuseni": 4700,
      "hume": 4701,
      "xazulula": 4702,
      "Ġagxume": 4703,
      "thengisa": 4704,
      "phethini": 4705,
      "pikili": 4706,
      "Ġesinama": 4707,
      "meza": 4708,
      "ĠBamomotheka": 4709,
      "strawberry": 4710,
      "ĠYe": 4711,
      "Ġababethanda": 4712,
      "Ġphambili": 4713,
      "Ġafunde": 4714,
      "Ġakulona": 4715,
      "mvula": 4716,
      "Ġumkhumbi": 4717,
      "Ġinkunzi": 4718,
      "zen": 4719,
      "Ġohlakaniphile": 4720,
      "ndlebe": 4721,
      "bra": 4722,
      "spa": 4723,
      "ĠBabonga": 4724,
      "Ġipa": 4725,
      "Ngingayi": 4726,
      "Ġisibungu": 4727,
      "Ġzase": 4728,
      "fudlana": 4729,
      "Ġangene": 4730,
      "ĠnoJen": 4731,
      "yazi": 4732,
      "qamba": 4733,
      "Ġnto": 4734,
      "Ġbezungeza": 4735,
      "dumile": 4736,
      "khungatheka": 4737,
      "zivikela": 4738,
      "Ġzijabule": 4739,
      "bie": 4740,
      "ĠWayithatha": 4741,
      "Ġukuqhubeka": 4742,
      "khokhe": 4743,
      "tholi": 4744,
      "Ġesiqandisini": 4745,
      "Ġazungeze": 4746,
      "phikelela": 4747,
      "Ġayefuna": 4748,
      "Ġbem": 4749,
      "hlobisa": 4750,
      "ĠUyam": 4751,
      "weety": 4752,
      "nk": 4753,
      "Ġethambile": 4754,
      "Ġwagqoka": 4755,
      "Ġzaqala": 4756,
      "Ġinkomo": 4757,
      "guqa": 4758,
      "ĠNakuba": 4759,
      "ĠkuBen": 4760,
      "qotho": 4761,
      "yisicefe": 4762,
      "Ġsikamama": 4763,
      "kakhulukazi": 4764,
      "khukh": 4765,
      "ngikazi": 4766,
      "shwa": 4767,
      "nziwe": 4768,
      "dudu": 4769,
      "inike": 4770,
      "Ġsilwane": 4771,
      "qinisekile": 4772,
      "guquguquka": 4773,
      "ai": 4774,
      "thengisi": 4775,
      "Ġememeza": 4776,
      "butterfly": 4777,
      "Ġnendoda": 4778,
      "Ġzo": 4779,
      "Ġummese": 4780,
      "Ġnale": 4781,
      "kwini": 4782,
      "omuntu": 4783,
      "Ġmn": 4784,
      "Ġnezihlahla": 4785,
      "ĠUngakwazi": 4786,
      "gqeni": 4787,
      "ĠUthisha": 4788,
      "Ġngenkathi": 4789,
      "Ġuko": 4790,
      "Ġophuzi": 4791,
      "noshukela": 4792,
      "Ġzenze": 4793,
      "khohlwe": 4794,
      "balazwe": 4795,
      "Ġkwenza": 4796,
      "tshingo": 4797,
      "mati": 4798,
      "thuthumela": 4799,
      "Ġukufuna": 4800,
      "ĠBangena": 4801,
      "Ġukungcola": 4802,
      "Ġsiwukuthi": 4803,
      "cho": 4804,
      "Ġmu": 4805,
      "Ġayenze": 4806,
      "Ġlahamba": 4807,
      "Ġyazi": 4808,
      "ĠBangabangane": 4809,
      "ĠUzizwa": 4810,
      "oy": 4811,
      "ĠBheka": 4812,
      "Ġnjengezi": 4813,
      "Ġuyajabula": 4814,
      "ĠWamtshela": 4815,
      "Ġesis": 4816,
      "Ġnenjabulo": 4817,
      "Ġesondweni": 4818,
      "endulo": 4819,
      "Ġsikwenze": 4820,
      "Ġiwashi": 4821,
      "Ġukuchitha": 4822,
      "hlengikazi": 4823,
      "hlobiso": 4824,
      "Ġekhomba": 4825,
      "Ġukubhala": 4826,
      "Ġongajwayelekile": 4827,
      "Ġkaningi": 4828,
      "Ġikakhulukazi": 4829,
      "Ġokhanyayo": 4830,
      "lphi": 4831,
      "ĠWayeyithanda": 4832,
      "chazela": 4833,
      "vunguza": 4834,
      "Ġekhululekile": 4835,
      "sun": 4836,
      "ĠKulokhu": 4837,
      "culi": 4838,
      "ĠHamba": 4839,
      "popcorn": 4840,
      "ophi": 4841,
      "ĠNgalo": 4842,
      "xwayisa": 4843,
      "Ġisigxobo": 4844,
      "Ġbahleke": 4845,
      "ĠWena": 4846,
      "Ġibhulokhi": 4847,
      "ĠnoJill": 4848,
      "ĠWayenom": 4849,
      "Ġinqola": 4850,
      "ĠNgiyayithanda": 4851,
      "mbobo": 4852,
      "ĠWayephethe": 4853,
      "nganisela": 4854,
      "lphin": 4855,
      "qede": 4856,
      "Ġimbo": 4857,
      "Uma": 4858,
      "ĠIzin": 4859,
      "!\"\"": 4860,
      "Ġyahlala": 4861,
      "yingi": 4862,
      "Ġbahlale": 4863,
      "Ġyamangala": 4864,
      "ĠBaqhubeka": 4865,
      "bhakede": 4866,
      "Ġkumngane": 4867,
      "Ġwaletha": 4868,
      "phethelweni": 4869,
      "salo": 4870,
      "thenge": 4871,
      "Ġkwakungekho": 4872,
      "Ġeqhosha": 4873,
      "Ġwayengasa": 4874,
      "Ġudinga": 4875,
      "Ġefanayo": 4876,
      "Ġayeyi": 4877,
      "Ġipeni": 4878,
      "Ġbakhala": 4879,
      "njini": 4880,
      "pillar": 4881,
      "Ġmnumzane": 4882,
      "odo": 4883,
      "Ġeseyi": 4884,
      "thelevi": 4885,
      "terpillar": 4886,
      "thelevishini": 4887,
      "Ġamazinyo": 4888,
      "Ġufunde": 4889,
      "Ġizigqoko": 4890,
      "ndondo": 4891,
      "ĠUJenny": 4892,
      "ULila": 4893,
      "pom": 4894,
      "kheka": 4895,
      "Ġwayebukeka": 4896,
      "komele": 4897,
      "Ġbali": 4898,
      "Ġamagagasi": 4899,
      "Ubani": 4900,
      "zili": 4901,
      "yenzayo": 4902,
      "thululela": 4903,
      "vuleni": 4904,
      "Ġbadabukile": 4905,
      "Ġwabiza": 4906,
      "now": 4907,
      "Ġungum": 4908,
      "ĠuJimmy": 4909,
      "thelene": 4910,
      "Ġngalokhu": 4911,
      "Ġonesibindi": 4912,
      "kale": 4913,
      "kingeni": 4914,
      "Ġenama": 4915,
      "vikele": 4916,
      "ster": 4917,
      "Ġamabhola": 4918,
      "Ġemgqeni": 4919,
      "wusizo": 4920,
      "khonkwane": 4921,
      "Ġomningi": 4922,
      "Ġukucabanga": 4923,
      "Ġelikhanyayo": 4924,
      "Ġsiku": 4925,
      "Ġezweni": 4926,
      "Ġelolini": 4927,
      "Ġuzama": 4928,
      "Ġehlola": 4929,
      "Ġyaphuka": 4930,
      "phathe": 4931,
      "Ġungcono": 4932,
      "Ġoyi": 4933,
      "eor": 4934,
      "Ġuthathe": 4935,
      "ĠKuyi": 4936,
      "er": 4937,
      "caterpillar": 4938,
      "zzle": 4939,
      "Ġyazo": 4940,
      "nenhlanhla": 4941,
      "oby": 4942,
      "Ġsijabule": 4943,
      "Ġenqo": 4944,
      "Ġikhanya": 4945,
      "beli": 4946,
      "Lola": 4947,
      "nokumangala": 4948,
      "Ġulwandle": 4949,
      "ĠBazwa": 4950,
      "weleni": 4951,
      "mbulela": 4952,
      "puzzle": 4953,
      "Ġlikhanya": 4954,
      "ĠUzo": 4955,
      "Ġsasendle": 4956,
      "Ġemvuleni": 4957,
      "fihliwe": 4958,
      "Ġngiyayithanda": 4959,
      "Ġegalaji": 4960,
      "Ġngokwenza": 4961,
      "Ġimfucumfucu": 4962,
      "ntshisi": 4963,
      "khanyisa": 4964,
      "dingeki": 4965,
      "Ġbabazi": 4966,
      "Ġwambonisa": 4967,
      "lezo": 4968,
      "lethe": 4969,
      "Ġemaphethelweni": 4970,
      "mpawu": 4971,
      "nakekele": 4972,
      "Ġnebhola": 4973,
      "ĠNo": 4974,
      "Ġkuyini": 4975,
      "xabana": 4976,
      "sukuma": 4977,
      "midlalo": 4978,
      "Ġbamangala": 4979,
      "kulungile": 4980,
      "valiwe": 4981,
      "Ġumakhelwane": 4982,
      "Ġipuleti": 4983,
      "nabangane": 4984,
      "Ġukwakheka": 4985,
      "fowethu": 4986,
      "ĠBasebenzisa": 4987,
      "Ann": 4988,
      "phuthe": 4989,
      "bhontshisi": 4990,
      "al": 4991,
      "Ġekhululeke": 4992,
      "Ġekila": 4993,
      "Ġyamamatheka": 4994,
      "?\".": 4995,
      "lunga": 4996,
      "Ġuyakwazi": 4997,
      "ofi": 4998,
      "Ġwaphindela": 4999,
      "Ġkufika": 5000,
      "Ġbesaba": 5001,
      "Ġeqala": 5002,
      "thandana": 5003,
      "Ġumqhele": 5004,
      "Ġukuza": 5005,
      "Ġbear": 5006,
      ",\"\"": 5007,
      "Ġezinga": 5008,
      "shalofu": 5009,
      "ĠUJen": 5010,
      "khame": 5011,
      "Ġisaladi": 5012,
      "Ġekhuluma": 5013,
      "Ġukucasha": 5014,
      "Ġumbhede": 5015,
      "Ġwamu": 5016,
      "Ġuthango": 5017,
      "Ġekhuphuka": 5018,
      "Ġbadle": 5019,
      "Ġbashaya": 5020,
      "Ġyayindiza": 5021,
      "Ġkubukeka": 5022,
      "ĠuBe": 5023,
      "ĠWayenen": 5024,
      "Ġbeno": 5025,
      "Ġambalwa": 5026,
      "des": 5027,
      "Ġwakhomba": 5028,
      "phazamisa": 5029,
      "Ġungumngane": 5030,
      "Ġiphephandaba": 5031,
      "Ġkwezihlahla": 5032,
      "eorge": 5033,
      "khamera": 5034,
      "Ġlam": 5035,
      "Ġinkulu": 5036,
      "eli": 5037,
      "nandaba": 5038,
      "Ġbayeka": 5039,
      "hlane": 5040,
      "Ġkwakuhlala": 5041,
      "Ġsemali": 5042,
      "Yekani": 5043,
      "mzungezile": 5044,
      "ngaziwa": 5045,
      "Ġngokungi": 5046,
      "time": 5047,
      "vumelana": 5048,
      "Ġusi": 5049,
      "jani": 5050,
      "Ġkwabanye": 5051,
      "sele": 5052,
      "ĠNokho": 5053,
      "Ġowayehlala": 5054,
      "nguin": 5055,
      "Ġinkosi": 5056,
      "file": 5057,
      "Ġyeka": 5058,
      "Ġezengeziwe": 5059,
      "Ġkwemizuzu": 5060,
      "Ġesibu": 5061,
      "erry": 5062,
      "khasa": 5063,
      "Ġwanikina": 5064,
      "Ġinhliziyo": 5065,
      "Ġuthando": 5066,
      "llipop": 5067,
      "Ġngezin": 5068,
      "Ġukunambitheka": 5069,
      "goni": 5070,
      "ngadi": 5071,
      "Ġlinga": 5072,
      "Ġnomaphi": 5073,
      "ak": 5074,
      "sham": 5075,
      "qiniseke": 5076,
      "nsalo": 5077,
      "sunflower": 5078,
      "phuthuma": 5079,
      "buze": 5080,
      "ĠBathanda": 5081,
      "ĠBakhohlwa": 5082,
      "row": 5083,
      "Ġehlale": 5084,
      "ĠWangena": 5085,
      "Ġendod": 5086,
      "Ġwayeqinisile": 5087,
      "ow": 5088,
      "Ġungangi": 5089,
      "kokuqala": 5090,
      "Ġngokuphepha": 5091,
      "Ġyayingasekho": 5092,
      "rs": 5093,
      "Ġokufanele": 5094,
      "ĠBabekujabulela": 5095,
      "Ġzesi": 5096,
      "Ġevuka": 5097,
      "ncibili": 5098,
      "squ": 5099,
      "ĠUBe": 5100,
      "Ġewa": 5101,
      "sizange": 5102,
      "ĠYenza": 5103,
      "rose": 5104,
      "Ġngenduku": 5105,
      "Ġizinyawo": 5106,
      "Ġbephuma": 5107,
      "ĠnoJack": 5108,
      "ĠUFluffy": 5109,
      "Ġezikhethekile": 5110,
      "fihle": 5111,
      "Ġezithakazelisayo": 5112,
      "ĠT": 5113,
      "Ġuyisiphukuphuku": 5114,
      "memeze": 5115,
      "ĠWakhumbula": 5116,
      "thako": 5117,
      "Ġnamatshe": 5118,
      "Ġukulinganisela": 5119,
      "lollipop": 5120,
      "ĠIntombazanyana": 5121,
      "shintshe": 5122,
      "dlule": 5123,
      "Ġmpungushe": 5124,
      "kuphi": 5125,
      ".'": 5126,
      "Ġemomotheka": 5127,
      "penguin": 5128,
      "jezi": 5129,
      "kosana": 5130,
      "ĠUjabule": 5131,
      "Ġsihle": 5132,
      "Ġnezicathulo": 5133,
      "matisi": 5134,
      "Ġemzi": 5135,
      "Ġwayothola": 5136,
      "Ġnentombazanyana": 5137,
      "hlabeka": 5138,
      "Ngizoku": 5139,
      "qhekeka": 5140,
      "Ow": 5141,
      "Ġedla": 5142,
      "Ġiqabunga": 5143,
      "tamatisi": 5144,
      "Ġizinku": 5145,
      "Ġezinweleni": 5146,
      "Ġukuphinde": 5147,
      "Ġizikhwama": 5148,
      "gibeli": 5149,
      "Ġmfana": 5150,
      "Woza": 5151,
      "Ġwenzeni": 5152,
      "ĠNgangifuna": 5153,
      "rot": 5154,
      "ĠR": 5155,
      "ĠIzilwane": 5156,
      "ĠUH": 5157,
      "Ġemsebenzini": 5158,
      "ĠAngifuni": 5159,
      "Ġeqinile": 5160,
      "Ġinambuzane": 5161,
      "Ġithambo": 5162,
      "ĠBagona": 5163,
      "krini": 5164,
      "bble": 5165,
      "shayi": 5166,
      "Ġumjaho": 5167,
      "ĠAkafuni": 5168,
      "kwenzi": 5169,
      "Ġukuvu": 5170,
      "Ġamaqanda": 5171,
      "Ġyokuthi": 5172,
      "ĠkaMax": 5173,
      "Ġbabonga": 5174,
      "Ġebuya": 5175,
      "Ġngayi": 5176,
      "Ġuyakuqonda": 5177,
      "namathisela": 5178,
      "Ġendiza": 5179,
      "Ġngabo": 5180,
      "namathele": 5181,
      "Ġwayeyintombazane": 5182,
      "tti": 5183,
      "Ġzezinto": 5184,
      "duck": 5185,
      "njeni": 5186,
      "Ġukupheka": 5187,
      "ngezona": 5188,
      "shayisa": 5189,
      "Ġumuthi": 5190,
      "penda": 5191,
      "Ġmkhulu": 5192,
      "Ġinkukhu": 5193,
      "kade": 5194,
      "Ġisikhafu": 5195,
      "Ġlwayo": 5196,
      "thembiso": 5197,
      "Ġsawubona": 5198,
      "Ġizinja": 5199,
      "Ġezindaweni": 5200,
      "lege": 5201,
      "Ġezenza": 5202,
      "Ġintaba": 5203,
      "Ġudaka": 5204,
      "Ġithuba": 5205,
      "Ġumcamelo": 5206,
      "sendulo": 5207,
      "Ġnjeng": 5208,
      "banzi": 5209,
      "phephela": 5210,
      "ĠBabehleka": 5211,
      "Ġayikwazanga": 5212,
      "phondo": 5213,
      "Ġbamtshela": 5214,
      "luleko": 5215,
      "Ġwakhetha": 5216,
      "ghe": 5217,
      "ĠBavula": 5218,
      "Ġelinesi": 5219,
      "shintsh": 5220,
      "ĠWaphuma": 5221,
      "mbane": 5222,
      "ghetti": 5223,
      "ĠBasebenza": 5224,
      "Leli": 5225,
      "Ġukubhaka": 5226,
      "sakaza": 5227,
      "Ġudonga": 5228,
      "ekuyisikhathi": 5229,
      "khononda": 5230,
      "Ġinkemba": 5231,
      "khuphuke": 5232,
      "yinyoni": 5233,
      "khwehlela": 5234,
      "room": 5235,
      "cabangi": 5236,
      "Ġendodeni": 5237,
      "xha": 5238,
      "Ġkwakwenzekani": 5239,
      "cingweni": 5240,
      "Ngangi": 5241,
      "Ġenemibala": 5242,
      "Ġwabuyisela": 5243,
      "Ġkwakuwusuku": 5244,
      "phetho": 5245,
      "bhodlela": 5246,
      "Ġuhambe": 5247,
      "yalezo": 5248,
      "ĠUnomusa": 5249,
      "Ġumcebo": 5250,
      "Ale": 5251,
      "Ġelimhlophe": 5252,
      "Ġekilasini": 5253,
      "Isi": 5254,
      "ĠKuyinto": 5255,
      "Ġibhodi": 5256,
      "yinqaba": 5257,
      "Ġwakhululeka": 5258,
      "Ġitiye": 5259,
      "Ġathile": 5260,
      "ncoma": 5261,
      "blue": 5262,
      "phonse": 5263,
      "Ġukusondela": 5264,
      "anisa": 5265,
      "bhubhisa": 5266,
      "Ġkwazwakala": 5267,
      "rane": 5268,
      "Ġukukhipha": 5269,
      "Ġocingweni": 5270,
      "Ġngokumsiza": 5271,
      "Ġnange": 5272,
      "Ġyayeka": 5273,
      "Ġwaxolisa": 5274,
      "yinhle": 5275,
      "Ġwayen": 5276,
      "Ġamagobolondo": 5277,
      "Ġnokwenza": 5278,
      "mbila": 5279,
      "spaghetti": 5280,
      "ria": 5281,
      "qhinga": 5282,
      "ĠlinguSue": 5283,
      "ĠLeso": 5284,
      "Ġnokuba": 5285,
      "Ġnezimoto": 5286,
      "Ġizitebhisi": 5287,
      "Ġnokugijima": 5288,
      "ĠuMnu": 5289,
      "ĠULi": 5290,
      "phambi": 5291,
      "Ġbayesaba": 5292,
      "Ġkuwuku": 5293,
      "bhodwe": 5294,
      "Ġukusika": 5295,
      "nyathelo": 5296,
      "Ġiphathi": 5297,
      "ĠWalandela": 5298,
      "Ġinhlama": 5299,
      "ĠWaze": 5300,
      "shaka": 5301,
      "Ġebukeka": 5302,
      "ĠUmdlwane": 5303,
      "ĠKan": 5304,
      "Ġwaphefumula": 5305,
      "Ġukuvakashela": 5306,
      "Ġbayazisola": 5307,
      "ĠWasondela": 5308,
      "fai": 5309,
      "Ġsebeqedile": 5310,
      "ĠKwakunga": 5311,
      "Ġuzizwe": 5312,
      "Ġyokudlela": 5313,
      "Ġemakethe": 5314,
      "Ġlezincwadi": 5315,
      "ĠWazibuza": 5316,
      "Ġusulu": 5317,
      "zambane": 5318,
      "ĠUmfowabo": 5319,
      "!\".": 5320,
      "cule": 5321,
      "qhakaza": 5322,
      "Ġikho": 5323,
      "Ġzokugqoka": 5324,
      "nx": 5325,
      "Ġkubhavu": 5326,
      "crane": 5327,
      "tombazane": 5328,
      "nali": 5329,
      "toa": 5330,
      "Ġhamba": 5331,
      "Ġethatha": 5332,
      "yezi": 5333,
      "jenga": 5334,
      "Ġikhabethe": 5335,
      "ĠuH": 5336,
      "thuka": 5337,
      "nokuthula": 5338,
      "Ġamapensela": 5339,
      "Ġokuncane": 5340,
      "ĠKuhle": 5341,
      "hoo": 5342,
      "ĠYayikhazimula": 5343,
      "Ġumgwaqo": 5344,
      "Ġizinduku": 5345,
      "Ngicabanga": 5346,
      "Ġenoboya": 5347,
      "Ġngamehlo": 5348,
      "yinki": 5349,
      "ĠBabengabangane": 5350,
      "fan": 5351,
      "shada": 5352,
      "ntuthu": 5353,
      "Ġsokuya": 5354,
      "Lesi": 5355,
      "Ġngokudlala": 5356,
      "Ġbayibone": 5357,
      "Ġhambo": 5358,
      "Ġimidwebo": 5359,
      "ĠAmehlo": 5360,
      "Ġukumba": 5361,
      "thonjeni": 5362,
      "ĠEkuqaleni": 5363,
      "ĠKonke": 5364,
      "Ġeseduze": 5365,
      "ĠSingakwazi": 5366,
      "hlelekile": 5367,
      "Ġuphinde": 5368,
      "Ġmkhaya": 5369,
      "ffle": 5370,
      "hlathini": 5371,
      "Ġentanyeni": 5372,
      "ĠWawu": 5373,
      "Ni": 5374,
      "Ġebhasikidi": 5375,
      "Ġalu": 5376,
      "Ġamabhamuza": 5377,
      "ywayo": 5378,
      "plane": 5379,
      "phahla": 5380,
      "omotheke": 5381,
      "ĠlikaLily": 5382,
      "ĠnoTim": 5383,
      "ophie": 5384,
      "Ġwavele": 5385,
      "Ġemihle": 5386,
      "Ġkuyoba": 5387,
      "Ġkubi": 5388,
      "ĠAzi": 5389,
      "ĠKancane": 5390,
      "Ġeshaya": 5391,
      "Ġbayothenga": 5392,
      "Ġyayazi": 5393,
      "caci": 5394,
      "hambile": 5395,
      "senza": 5396,
      "sinda": 5397,
      "kwenzekile": 5398,
      "Ġunqekuzisa": 5399,
      "duduza": 5400,
      "Ġyalo": 5401,
      "ĠnoSpot": 5402,
      "gori": 5403,
      "shinini": 5404,
      "Ġazijabulise": 5405,
      "Ġmaphakathi": 5406,
      "ray": 5407,
      "cilo": 5408,
      "Ġecela": 5409,
      "velo": 5410,
      "ĠLila": 5411,
      "Ġingulube": 5412,
      "cilongo": 5413,
      "Ġha": 5414,
      "yamalala": 5415,
      "Alex": 5416,
      "Ġuswidi": 5417,
      "shintshashintsha": 5418,
      "yipi": 5419,
      "Ġwayekhathazekile": 5420,
      "Ġayengakaze": 5421,
      "Ġingwe": 5422,
      "Ġukumamatheka": 5423,
      "boco": 5424,
      "thupha": 5425,
      "biliboco": 5426,
      "nobugovu": 5427,
      "ĠWayengena": 5428,
      "ĠKubukeka": 5429,
      "planethi": 5430,
      "mweni": 5431,
      "khuluphele": 5432,
      "ĠBayajabula": 5433,
      "mnyameni": 5434,
      "Ġumfula": 5435,
      "melo": 5436,
      "Ġkunina": 5437,
      "Ġolungile": 5438,
      "Ġyehla": 5439,
      "ĠBanethemba": 5440,
      "Ġubhasikidi": 5441,
      "Ġneli": 5442,
      "Umsebenzi": 5443,
      "bhana": 5444,
      "Ġyayiziqhenya": 5445,
      "Yeka": 5446,
      "fuywayo": 5447,
      "Ġsokulala": 5448,
      "Ġkuyajabulisa": 5449,
      "wee": 5450,
      "ĠWabuka": 5451,
      "Ġnemoto": 5452,
      "race": 5453,
      "Ġisicabucabu": 5454,
      "Ġngengubo": 5455,
      "sindise": 5456,
      "Ġeseba": 5457,
      "Ġyangempela": 5458,
      "Ġisibankwa": 5459,
      "ip": 5460,
      "Ġingxenye": 5461,
      "ĠLena": 5462,
      "Ġnomvundla": 5463,
      "Andy": 5464,
      "cto": 5465,
      "Ġukuzodlala": 5466,
      "Ġngomlomo": 5467,
      "Ġezom": 5468,
      "Ġyahleka": 5469,
      "mncane": 5470,
      "goba": 5471,
      "doli": 5472,
      "ntabeni": 5473,
      "Ġzen": 5474,
      "ĠBayahleka": 5475,
      "Ġemcimbini": 5476,
      "ĠWayengasa": 5477,
      "Char": 5478,
      "swan": 5479,
      "Ġindondo": 5480,
      "Ġngentambo": 5481,
      "ikaza": 5482,
      "Ġabomvu": 5483,
      "ĠsikaLily": 5484,
      "pyu": 5485,
      "khompyu": 5486,
      "khungathekile": 5487,
      "ĠUyaba": 5488,
      "Ġnjengama": 5489,
      "waffle": 5490,
      "fanekiso": 5491,
      "Ġwakhuphuka": 5492,
      "Ġyangena": 5493,
      "Ġlen": 5494,
      "enzela": 5495,
      "Ġmina": 5496,
      "sanda": 5497,
      "Ġyingozi": 5498,
      "Ġyokwenza": 5499,
      "Ġangenza": 5500,
      "pasta": 5501,
      "Ġenophephela": 5502,
      "Ġkwamenza": 5503,
      "tshenzi": 5504,
      "gele": 5505,
      "cacile": 5506,
      "his": 5507,
      "Ġikhukhi": 5508,
      "Ġavu": 5509,
      "Ġkwezin": 5510,
      "mbeni": 5511,
      "Ġemnene": 5512,
      "Ġuyaxolisa": 5513,
      "Ġizitshalo": 5514,
      "Ġwenqaba": 5515,
      "tombazanyana": 5516,
      "Ġwazo": 5517,
      "Ġemthonjeni": 5518,
      "ĠYena": 5519,
      "Ġeqiniseka": 5520,
      "sabe": 5521,
      "Ġisitolo": 5522,
      "Ġyayizo": 5523,
      "Ġesebuyela": 5524,
      "ĠBatshela": 5525,
      "ĠWayezijabulisa": 5526,
      "Ġngokuphelele": 5527,
      "Singakwazi": 5528,
      "uzz": 5529,
      "Ġakwenze": 5530,
      "Ġlenza": 5531,
      "Ġngendwangu": 5532,
      "ĠUngathanda": 5533,
      "thandeki": 5534,
      "Ġngokudla": 5535,
      "gila": 5536,
      "blueberry": 5537,
      "Ġwayezijabulisa": 5538,
      "Ġbeqeda": 5539,
      "ĠWakhala": 5540,
      "Ġomzungezile": 5541,
      "Ġukwesaba": 5542,
      "khothama": 5543,
      "Ġyanqekuzisa": 5544,
      "Mary": 5545,
      "gxo": 5546,
      "khumbule": 5547,
      "Ġicebo": 5548,
      "ĠWabonisa": 5549,
      "tag": 5550,
      "gilavu": 5551,
      "Ġmbali": 5552,
      "ir": 5553,
      "Ġnamakhekhe": 5554,
      "Ġushukela": 5555,
      "ĠAbafuni": 5556,
      "Ġkwenzekeni": 5557,
      "yile": 5558,
      "Ġliyi": 5559,
      "Ġephukile": 5560,
      "Ġyezwa": 5561,
      "Ġoyenzayo": 5562,
      "don": 5563,
      "zofi": 5564,
      "les": 5565,
      "mbozo": 5566,
      "ĠC": 5567,
      "Ġeyofuna": 5568,
      "thwalo": 5569,
      "cco": 5570,
      "Ġisigubhu": 5571,
      "Ġemshinini": 5572,
      "Ġangazi": 5573,
      "Ġukunikeza": 5574,
      "Ġabuye": 5575,
      "Ġyaphuma": 5576,
      "tende": 5577,
      "gxotsheni": 5578,
      "kazane": 5579,
      "fulawa": 5580,
      "ĠInge": 5581,
      "Ġembu": 5582,
      "gcini": 5583,
      "Ġalibone": 5584,
      "Ġunomusa": 5585,
      "Ġinyanga": 5586,
      "Ġesebaleka": 5587,
      "zweni": 5588,
      "ĠUthe": 5589,
      "Ġliqala": 5590,
      "Ġkwakuwumbono": 5591,
      "fairy": 5592,
      "sabeka": 5593,
      "Ġkuba": 5594,
      "Ġenonya": 5595,
      "Ġbabem": 5596,
      "nokwethenjelwa": 5597,
      "Ġyokucasha": 5598,
      "Ġmncintiswano": 5599,
      "sti": 5600,
      "Ġumzimba": 5601,
      "Ġezobona": 5602,
      "rownie": 5603,
      "Ġdo": 5604,
      "weetie": 5605,
      "Ġephupha": 5606,
      "Ġafune": 5607,
      "Ġkokudlala": 5608,
      "phumelele": 5609,
      "Ġibona": 5610,
      "Ġukuphuza": 5611,
      "Ġisidalwa": 5612,
      "Ġukuyidla": 5613,
      "ndlovukazi": 5614,
      "Ġukuma": 5615,
      "Ġbegijima": 5616,
      "Ġnakuba": 5617,
      "wuthanda": 5618,
      "Ġukunga": 5619,
      "ĠKukhona": 5620,
      "hlanu": 5621,
      "ĠWafuna": 5622,
      "Ġenya": 5623,
      "hambahamba": 5624,
      "Ngiku": 5625,
      "etru": 5626,
      "khompyutha": 5627,
      "yano": 5628,
      "Ġkungokwa": 5629,
      "Ġumtshingo": 5630,
      "hala": 5631,
      "anama": 5632,
      "mbulo": 5633,
      "naliti": 5634,
      "donse": 5635,
      "sy": 5636,
      "ĠlinguBen": 5637,
      "xosha": 5638,
      "piyano": 5639,
      "nalo": 5640,
      "Ġingcono": 5641,
      "Ġsiphinde": 5642,
      "ĠNi": 5643,
      "Ġizithako": 5644,
      "Ġindandatho": 5645,
      "ĠuJim": 5646,
      "Ġwayibonisa": 5647,
      "ncintisana": 5648,
      "bow": 5649,
      "ndwangu": 5650,
      "Ġumkhathi": 5651,
      "gy": 5652,
      "khunjini": 5653,
      "Ġsengi": 5654,
      "Ġumunwe": 5655,
      "Ġlwakho": 5656,
      "Ġesehamba": 5657,
      "Sizo": 5658,
      "nyo": 5659,
      "yweni": 5660,
      "hose": 5661,
      "nezin": 5662,
      "Ġlithi": 5663,
      "Ġngijabule": 5664,
      "Ġabambe": 5665,
      "shise": 5666,
      "Ġngento": 5667,
      "ncwadini": 5668,
      "Ġasikwazi": 5669,
      "Ġwayenamahloni": 5670,
      "Ġelinezi": 5671,
      "Ġyenze": 5672,
      "gceke": 5673,
      "Ġekwazi": 5674,
      "Ġnoshukela": 5675,
      "Ġelihlakaniphile": 5676,
      "bubula": 5677,
      "khumula": 5678,
      "Ġwakhonkotha": 5679,
      "Ġukushiya": 5680,
      "Ġiyiphi": 5681,
      "Ġithawula": 5682,
      "ĠYathi": 5683,
      "sendlini": 5684,
      "Ġmbu": 5685,
      "Ġkuyathakazelisa": 5686,
      "Ġyomlando": 5687,
      "melon": 5688,
      "saka": 5689,
      "hleba": 5690,
      "Ġukuxuba": 5691,
      "Ġumbono": 5692,
      "ngenamusa": 5693,
      "Masizi": 5694,
      "Ġirobhothi": 5695,
      "Ġizungeze": 5696,
      "mpo": 5697,
      "cube": 5698,
      "Ġidlala": 5699,
      "ĠYayifuna": 5700,
      "thiwe": 5701,
      "Ġkwamanzi": 5702,
      "ĠuTeddy": 5703,
      "Ġuthukuthele": 5704,
      "Ġuyamemeza": 5705,
      "ĠIdada": 5706,
      "Siyaxolisa": 5707,
      "lethela": 5708,
      "Ġiphi": 5709,
      "Ġzinhle": 5710,
      "timeleni": 5711,
      "lie": 5712,
      "Ġizibani": 5713,
      "ĠWelulela": 5714,
      "Ġungaba": 5715,
      "Ġwokuthi": 5716,
      "hlanganise": 5717,
      "Ġukuzulazula": 5718,
      "sosha": 5719,
      "Ġuyazi": 5720,
      "unny": 5721,
      "anisi": 5722,
      "bukeke": 5723,
      "Ġlihlanzekile": 5724,
      "jikeleza": 5725,
      "Nansi": 5726,
      "vilo": 5727,
      "Ġukuthula": 5728,
      "ĠKuthiwani": 5729,
      "ora": 5730,
      "Ġenezinwele": 5731,
      "ĠYayindiza": 5732,
      "Ġnaphambili": 5733,
      "dwebe": 5734,
      "Ġalungise": 5735,
      "Ġumlenze": 5736,
      "ngolo": 5737,
      "ginci": 5738,
      "zofika": 5739,
      "Ġisisu": 5740,
      "Ġngayinye": 5741,
      "ĠULisa": 5742,
      "khulula": 5743,
      "Ġelifudumele": 5744,
      "Ġwayezimisele": 5745,
      "uddy": 5746,
      "Ġibalazwe": 5747,
      "Ġevamile": 5748,
      "fin": 5749,
      "ĠuJenny": 5750,
      "enziwe": 5751,
      "lana": 5752,
      "Ġizintambo": 5753,
      "Ġkwakufanele": 5754,
      "Ġimibhoshongo": 5755,
      "Ġwazibuza": 5756,
      "ndlo": 5757,
      "Ġwayeyo": 5758,
      "Ġeka": 5759,
      "Ġesigxotsheni": 5760,
      "Ġyayishesha": 5761,
      "pholi": 5762,
      "cone": 5763,
      "ĠBalinda": 5764,
      "Ġnamaloli": 5765,
      "Yay": 5766,
      "ĠWakhuphukela": 5767,
      "Ġlivela": 5768,
      "Ġnina": 5769,
      "ĠWayengum": 5770,
      "Ġwabuya": 5771,
      "Ġisihlabathi": 5772,
      "ĠIngonyama": 5773,
      "ĠlinguSarah": 5774,
      "Ġakunjalo": 5775,
      "Ġukunakekela": 5776,
      "zebra": 5777,
      "qwa": 5778,
      "jeep": 5779,
      "ĠNgiyaziqhenya": 5780,
      "kalweni": 5781,
      "Ġeyothola": 5782,
      "Ġenelisekile": 5783,
      "Ġano": 5784,
      "Ngingakusiza": 5785,
      "Ġisithuthuthu": 5786,
      "Ġesibukweni": 5787,
      "ĠImpungushe": 5788,
      "Ġelinama": 5789,
      "Ġehhovisi": 5790,
      "Ġeme": 5791,
      "Ġelide": 5792,
      "ĠUJake": 5793,
      "Ġukumbona": 5794,
      "Ġecebile": 5795,
      "Ġyamemeza": 5796,
      "Ġbayamomotheka": 5797,
      "panda": 5798,
      "Ġumklomelo": 5799,
      "Ġimpisi": 5800,
      "Ġamakha": 5801,
      "Ġokwamanje": 5802,
      "ngenzeka": 5803,
      "toast": 5804,
      "kheni": 5805,
      "ndizela": 5806,
      "Ġukukla": 5807,
      "Ġlena": 5808,
      "Ġkwakungeyona": 5809,
      "yuni": 5810,
      "lazini": 5811,
      "Kuyi": 5812,
      "Ġyokulala": 5813,
      "Ġnemibala": 5814,
      "ĠkaSam": 5815,
      "ffin": 5816,
      "ĠWalinda": 5817,
      "Ġimithetho": 5818,
      "landa": 5819,
      "ĠBayamomotheka": 5820,
      "vivinyo": 5821,
      "es": 5822,
      "kin": 5823,
      "hogela": 5824,
      "kukholelwa": 5825,
      "band": 5826,
      "Ġeyedwa": 5827,
      "Ġuzwa": 5828,
      "Ġwaluma": 5829,
      "Ġmncane": 5830,
      "bhethri": 5831,
      "Ġwabelane": 5832,
      "Ġufika": 5833,
      "Ġnodadewabo": 5834,
      "Ġuyam": 5835,
      "vila": 5836,
      "Ġbenzeni": 5837,
      "Ġlalili": 5838,
      "Ġesangweni": 5839,
      "Ġwayegqoke": 5840,
      "Ġlaligcwele": 5841,
      "ĠlinguJane": 5842,
      "ate": 5843,
      "ĠuLi": 5844,
      "Ġudle": 5845,
      "ĠNgisho": 5846,
      "Ġojulile": 5847,
      "Ġuyamthanda": 5848,
      "Ġyafuna": 5849,
      "Ġyabheka": 5850,
      "ĠWayen": 5851,
      "Ġbabaleka": 5852,
      "Ġzokulala": 5853,
      "Ngesinye": 5854,
      "Ġyagxumela": 5855,
      "anyanisi": 5856,
      "Ġelibomvana": 5857,
      "Ġsikhulu": 5858,
      "kwesaba": 5859,
      "ĠWabiza": 5860,
      "Ġukucela": 5861,
      "kisela": 5862,
      "Ġayiyise": 5863,
      "Ġkunokuthile": 5864,
      "hlweni": 5865,
      "Ġamnike": 5866,
      "oppy": 5867,
      "hlangane": 5868,
      "Ġengavamile": 5869,
      "ĠUMittens": 5870,
      "Ġemehlweni": 5871,
      "Ġbakhuluma": 5872,
      "Ġlale": 5873,
      "gh": 5874,
      "Ġwayeqapha": 5875,
      "Ġsokuzivikela": 5876,
      "Masizodlala": 5877,
      "Wenze": 5878,
      "zod": 5879,
      "ĠlinguSpot": 5880,
      "Ġwayengasiza": 5881,
      "Ġingeyami": 5882,
      "aid": 5883,
      "kuthethelela": 5884,
      "anny": 5885,
      "Ġbasi": 5886,
      "nesizungu": 5887,
      "lda": 5888,
      "Ġisiginci": 5889,
      "fish": 5890,
      "sudi": 5891,
      "Ġsenza": 5892,
      "omuzwa": 5893,
      "phethiloli": 5894,
      "yibona": 5895,
      "Ġwayezisola": 5896,
      "ndonga": 5897,
      "Ġifulege": 5898,
      "Ġkwabe": 5899,
      "Ġngibe": 5900,
      "shilo": 5901,
      "Ġungalokothi": 5902,
      "vide": 5903,
      "Annie": 5904,
      "Ġezenzakalweni": 5905,
      "Ġokwakumelwe": 5906,
      "Ġethe": 5907,
      "ĠBezwa": 5908,
      "..": 5909,
      "Ġikhwe": 5910,
      "enry": 5911,
      "Ġumlingo": 5912,
      "Ġwayenomusa": 5913,
      "zotha": 5914,
      "Ġethokomele": 5915,
      "ĠBafisa": 5916,
      "kwele": 5917,
      "Ġbabuyele": 5918,
      "Ġwayengasakwazi": 5919,
      "Ġikhwelo": 5920,
      "Ġkagogo": 5921,
      "tshala": 5922,
      "gada": 5923,
      "Ġsethu": 5924,
      "Ġidolobha": 5925,
      "xhapho": 5926,
      "Ġifilimu": 5927,
      "Ġnaku": 5928,
      "ĠUngase": 5929,
      "Ġkhumbula": 5930,
      "Ġikhi": 5931,
      "Ġaqhubeke": 5932,
      "Ġoyisiphukuphuku": 5933,
      "key": 5934,
      "Ġwayengajabule": 5935,
      "ckey": 5936,
      "squash": 5937,
      "Ġwagcwala": 5938,
      "cabango": 5939,
      "ĠnoK": 5940,
      "Ġnendawo": 5941,
      "Charlie": 5942,
      "oo": 5943,
      "Ġipikiniki": 5944,
      "Ġabukhali": 5945,
      "Ġkubuza": 5946,
      "Ġayeyithanda": 5947,
      "Ġitafula": 5948,
      "Ġlijabule": 5949,
      "qiniseko": 5950,
      "ĠV": 5951,
      "seek": 5952,
      "Ġsasinga": 5953,
      "ĠKuna": 5954,
      "phenduphenduka": 5955,
      "Ġbaxolisa": 5956,
      "Ġwayegijima": 5957,
      "gie": 5958,
      "ĠKuyisi": 5959,
      "Ġbahlanganyela": 5960,
      "ĠKunga": 5961,
      "roo": 5962,
      "Ġngingakwazi": 5963,
      "Ġangayi": 5964,
      "Ġngikusize": 5965,
      "Ġangifuni": 5966,
      "Ġiqanda": 5967,
      "Ġukushayela": 5968,
      "Ġnomkhulu": 5969,
      "feni": 5970,
      "Ġukuqhuma": 5971,
      "anikeza": 5972,
      "ĠuJake": 5973,
      "liva": 5974,
      "ambi": 5975,
      "shaqe": 5976,
      "Ġbalalela": 5977,
      "Ġesitimeleni": 5978,
      "Ġayezodlala": 5979,
      "pompi": 5980,
      "oni": 5981,
      "Ġwabingelela": 5982,
      "nazo": 5983,
      "Ġisimo": 5984,
      "Ġsingathola": 5985,
      "Ġisigebengu": 5986,
      "Ġeziluhlaza": 5987,
      "lahleka": 5988,
      "Ġizinkinobho": 5989,
      "Siza": 5990,
      "Ġowayenga": 5991,
      "bekile": 5992,
      "Ġwamfundisa": 5993,
      "hlangu": 5994,
      "kise": 5995,
      "Kwenzekeni": 5996,
      "Ġwayedinga": 5997,
      "Ġbabejabula": 5998,
      "sanhlamvu": 5999,
      "ĠJack": 6000,
      "Ġwagingqa": 6001,
      "Ġubuka": 6002,
      "Ġwacasha": 6003,
      "Ġkomgwaqo": 6004,
      "Ġephathini": 6005,
      "phuthelwa": 6006,
      "Ġingilazi": 6007,
      "dlaleni": 6008,
      "Ġnezingane": 6009,
      "Ġkukhona": 6010,
      "misela": 6011,
      "ĠLee": 6012,
      "Ġsasijabule": 6013,
      "Ġnabazali": 6014,
      "Ġesiteji": 6015,
      "Ġunesibindi": 6016,
      "Ġbejabulela": 6017,
      "nyuka": 6018,
      "Ungesabi": 6019,
      "Ġukubeka": 6020,
      "Ġnomona": 6021,
      "Ġkakade": 6022,
      "Ġbebuka": 6023,
      "Ġnamaqabunga": 6024,
      "Ġacwebezelayo": 6025,
      "khanyeni": 6026,
      "kanga": 6027,
      "Ġwayengenandaba": 6028,
      "ngeyena": 6029,
      "Ġsilo": 6030,
      "klwe": 6031,
      "ĠUngangisiza": 6032,
      "hlakanipha": 6033,
      "yifunayo": 6034,
      "zeka": 6035,
      "mith": 6036,
      "ĠNgingayi": 6037,
      "Ġyabuyela": 6038,
      "ĠBagqoka": 6039,
      "ĠLwa": 6040,
      "pus": 6041,
      "ctopus": 6042,
      "fomu": 6043,
      "Ġetha": 6044,
      "Ġintuthu": 6045,
      "Ġezimhlophe": 6046,
      "qoba": 6047,
      "dansi": 6048,
      "Ġnendlu": 6049,
      "Ġwacasuka": 6050,
      "Ġasizange": 6051,
      "bhasi": 6052,
      "Ġyayim": 6053,
      "sawolintshi": 6054,
      "Ġbekhuluma": 6055,
      "dolweni": 6056,
      "Ġlokudlala": 6057,
      "ambama": 6058,
      "tri": 6059,
      "veni": 6060,
      "Ġwelulela": 6061,
      "kusasa": 6062,
      "Ġingwenya": 6063,
      "Ġipulazi": 6064,
      "Ġumdwebo": 6065,
      "ach": 6066,
      "Ġlikamama": 6067,
      "Ġkuyilapho": 6068,
      "Ġyesihlabathi": 6069,
      "Ġaya": 6070,
      "kers": 6071,
      "Ġwayezom": 6072,
      "nyelwe": 6073,
      "Ġenethemba": 6074,
      "il": 6075,
      "Ġomama": 6076,
      "Ġngaphezu": 6077,
      "pakisha": 6078,
      "sp": 6079,
      "Ġkwaphuma": 6080,
      "Ġnohambo": 6081,
      "Ġumugqa": 6082,
      "fri": 6083,
      "Ġepholile": 6084,
      "Ġisando": 6085,
      "Ġlaphuma": 6086,
      "Ġosawolintshi": 6087,
      "Ġzimnandi": 6088,
      "zonda": 6089,
      "Ġinsimu": 6090,
      "Ġababenga": 6091,
      "Ġekudlaleni": 6092,
      "Ġbamgona": 6093,
      "Ġafike": 6094,
      "gorilla": 6095,
      "Ġand": 6096,
      "hlangothini": 6097,
      "bekazi": 6098,
      "olin": 6099,
      "Ġamagilebhisi": 6100,
      "Ġalinde": 6101,
      "qine": 6102,
      "ĠUngayi": 6103,
      "Ġefunda": 6104,
      "Ġngalobo": 6105,
      "ĠUngangi": 6106,
      "Ġima": 6107,
      "Ġbalinda": 6108,
      "ĠBakhuluma": 6109,
      "ĠNgiku": 6110,
      "Ġlaqhuma": 6111,
      "Ġnenhlonipho": 6112,
      "hiskers": 6113,
      "Ġihlale": 6114,
      "Ġbawa": 6115,
      "Ġzombili": 6116,
      "Ġigquma": 6117,
      "Ġwayezama": 6118,
      "hliziyweni": 6119,
      "Ġbadonsa": 6120,
      "tus": 6121,
      "Ġezingezona": 6122,
      "Ġeyengeziwe": 6123,
      "Ġyilokho": 6124,
      "Ġwasikisela": 6125,
      "Ġebhodini": 6126,
      "dadewethu": 6127,
      "Ġuhlanze": 6128,
      "khiweni": 6129,
      "Ġwahlabeka": 6130,
      "Ġeziqhenya": 6131,
      "Ġekuphi": 6132,
      "Ġwayemncane": 6133,
      "ctus": 6134,
      "kwakha": 6135,
      "tor": 6136,
      "die": 6137,
      "Ġsihlale": 6138,
      "Ġengazange": 6139,
      "Ġigagasi": 6140,
      "Ġwendiza": 6141,
      "Ġangaphinde": 6142,
      "Ġukukhathazeka": 6143,
      "dish": 6144,
      "Ġbabekujabulela": 6145,
      "ĠWaphenduka": 6146,
      "doba": 6147,
      "Ġsim": 6148,
      "Ġisambulela": 6149,
      "guqula": 6150,
      "Ġuphilile": 6151,
      "Ġinkosana": 6152,
      "cactus": 6153,
      "Ġngiye": 6154,
      "Ġbephephile": 6155,
      "Ġyayilokhu": 6156,
      "ĠUJohnny": 6157,
      "ĠLwalu": 6158,
      "Ġwalungisa": 6159,
      "Ġesegijima": 6160,
      "Ġekuphileni": 6161,
      "kubona": 6162,
      "nyu": 6163,
      "Ġiseluleko": 6164,
      "jellyfish": 6165,
      "Ġzasolwandle": 6166,
      "Ġbedla": 6167,
      "Ġintokazi": 6168,
      "ĠSmith": 6169,
      "chithe": 6170,
      "ght": 6171,
      "Ġentabeni": 6172,
      "Ġagqoke": 6173,
      "bhile": 6174,
      "Ġlaphinde": 6175,
      "Ġumhume": 6176,
      "shibhile": 6177,
      "ĠYonke": 6178,
      "Ngingayithola": 6179,
      "ĠKunalokho": 6180,
      "lisi": 6181,
      "ĠkaJack": 6182,
      "Ġkungase": 6183,
      "Ġbabeziqhenya": 6184,
      "tshise": 6185,
      "ande": 6186,
      "Ġwathinta": 6187,
      "Ġimfihlo": 6188,
      "ĠWamnika": 6189,
      "ĠuRex": 6190,
      "pheya": 6191,
      "Ġelinoboya": 6192,
      "nyathe": 6193,
      "phazamise": 6194,
      "oat": 6195,
      "Ġbahlanganyele": 6196,
      "com": 6197,
      "mpukane": 6198,
      "ĠUthukuthele": 6199,
      "Ġesimangalisayo": 6200,
      "cisha": 6201,
      "ĠuW": 6202,
      "Ġiphakeme": 6203,
      "ĠWayegxuma": 6204,
      "ĠIzwi": 6205,
      "Ġbethukuthele": 6206,
      "Ġekukhanyeni": 6207,
      "Ġendlebeni": 6208,
      "Ġimbobo": 6209,
      "Ġukuwabelana": 6210,
      "osie": 6211,
      "Ġihlaya": 6212,
      "bezwa": 6213,
      "Ġothu": 6214,
      "Ġnomfowabo": 6215,
      "Ġuthatha": 6216,
      "Ġbengcono": 6217,
      "Ġinhlabathi": 6218,
      "Ġwakwenza": 6219,
      "Ġngingakusiza": 6220,
      "Harry": 6221,
      "ziya": 6222,
      "Ġukuletha": 6223,
      "Ġesibizwa": 6224,
      "holi": 6225,
      "ĠWabaleka": 6226,
      "sibindi": 6227,
      "ĠWaphawula": 6228,
      "Ġlendoda": 6229,
      "Igama": 6230,
      "Ġwadumala": 6231,
      "Ġabadala": 6232,
      "Ġlesihlabathi": 6233,
      "ĠWakhomba": 6234,
      "Ġyayine": 6235,
      "Ġlw": 6236,
      "kangaroo": 6237,
      "Ġnokuhlola": 6238,
      "mpisi": 6239,
      "Ġsezindiza": 6240,
      "vocado": 6241,
      "antathu": 6242,
      "Ġesisodwa": 6243,
      "phri": 6244,
      "phephe": 6245,
      "Ġlalifuna": 6246,
      "washa": 6247,
      "Ġkubanda": 6248,
      "Ġngokungisiza": 6249,
      "Ġsiqu": 6250,
      "muffin": 6251,
      "Ġkwesikhathi": 6252,
      "Ġukhaphethi": 6253,
      "Ġbafaka": 6254,
      "Ġyawela": 6255,
      "ĠWaphonsa": 6256,
      "Ġoshisayo": 6257,
      "ncu": 6258,
      "Ġbethola": 6259,
      "Ġngemibala": 6260,
      "Ġbalo": 6261,
      "Ġzenza": 6262,
      "Ġekuqaleni": 6263,
      "Ġemzileni": 6264,
      "ĠJohn": 6265,
      "cherry": 6266,
      "ziyamu": 6267,
      "sizwa": 6268,
      "Ġolude": 6269,
      "khathalela": 6270,
      "khukhwini": 6271,
      "Ġeyimfihlo": 6272,
      "Ġngiyakwazi": 6273,
      "Ġaqala": 6274,
      "tholakala": 6275,
      "Ġayebuka": 6276,
      "Ġzazijabule": 6277,
      "dumbu": 6278,
      "nombono": 6279,
      "ĠNgalobo": 6280,
      "ĠuLisa": 6281,
      "Ġlalibukeka": 6282,
      "khokhela": 6283,
      "Ġudlala": 6284,
      "setshenzi": 6285,
      "Ġwaphuza": 6286,
      "zie": 6287,
      "Ġisifihla": 6288,
      "yelana": 6289,
      "peach": 6290,
      "Ġenqoleni": 6291,
      "ĠUngu": 6292,
      "radish": 6293,
      "khalekhukhwini": 6294,
      "Ġele": 6295,
      "Ġngenze": 6296,
      "punga": 6297,
      "Ġkumfana": 6298,
      "vimbela": 6299,
      "Ġlamanzi": 6300,
      "Ġezungeza": 6301,
      "Ġyagijima": 6302,
      "Ġezintweni": 6303,
      "shasha": 6304,
      "Ġisicathulo": 6305,
      "phumela": 6306,
      "muzwa": 6307,
      "tekisi": 6308,
      "Ngingu": 6309,
      "ĠEpaki": 6310,
      "zenzakalo": 6311,
      "ĠKuyathakazelisa": 6312,
      "Ġomangalisayo": 6313,
      "ndisa": 6314,
      "violin": 6315,
      "Ġedolweni": 6316,
      "Ġkalula": 6317,
      "Ġumkhulu": 6318,
      "Ġibhasi": 6319,
      "avocado": 6320,
      "ĠUmuhle": 6321,
      "Ġwayemuhle": 6322,
      "Ġwamthatha": 6323,
      "ndala": 6324,
      "mantongomane": 6325,
      "ngathinti": 6326,
      "Ġwoza": 6327,
      "Ġwashiya": 6328,
      "ĠWayenesibindi": 6329,
      "Ġnasezi": 6330,
      "octopus": 6331,
      "Ġukwenze": 6332,
      "Ġizimvu": 6333,
      "Ġamabhaluni": 6334,
      "Ġedansa": 6335,
      "Ġehlukile": 6336,
      "Ġoluncane": 6337,
      "Ġibhotela": 6338,
      "Ġethandekayo": 6339,
      "ĠWadla": 6340,
      "Ġesezwa": 6341,
      "Ġengaphakathi": 6342,
      "Ġngesibindi": 6343,
      "Ġiphazili": 6344,
      "Ġibhulashi": 6345,
      "Ġisikhumba": 6346,
      "Ġkwakusho": 6347,
      "ĠlinguSam": 6348,
      "Ġengenalutho": 6349,
      "Ġagcwala": 6350,
      "Ġnhlobo": 6351,
      "Ġbethu": 6352,
      "ĠlinguT": 6353,
      "yanele": 6354,
      "Ġwahlanganyela": 6355,
      "namehlo": 6356,
      "hange": 6357,
      "Ġwagcina": 6358,
      "ĠWakhonkotha": 6359,
      "Ġumnsalo": 6360,
      "ĠWambuza": 6361,
      "Ġimpukane": 6362,
      "bro": 6363,
      "ĠWashaya": 6364,
      "qopha": 6365,
      "Ġengalweni": 6366,
      "Ġbayanga": 6367,
      "Ġipensela": 6368,
      "Ġngiphinde": 6369,
      "nkimbi": 6370,
      "el": 6371,
      "Ġwasebenza": 6372,
      "keli": 6373,
      "cupho": 6374,
      "vinini": 6375,
      "Ġbasho": 6376,
      "ĠBame": 6377,
      "Ġesine": 6378,
      "ccoli": 6379,
      "ggie": 6380,
      "Ġeyanele": 6381,
      "daisy": 6382,
      "Ġnogogo": 6383,
      "Ġnokuzijabulisa": 6384,
      "phenduke": 6385,
      "Ġuthola": 6386,
      "Ġecula": 6387,
      "ĠInkosi": 6388,
      "Ngakho": 6389,
      "Ġinama": 6390,
      "ngadini": 6391,
      "ĠnoR": 6392,
      "ĠImvula": 6393,
      "broccoli": 6394,
      "lente": 6395,
      "kelwa": 6396,
      "Ġyakhonkotha": 6397,
      "Ġyodwa": 6398,
      "laser": 6399,
      "Masiwu": 6400,
      "shintshi": 6401,
      "tatsheni": 6402,
      "Ġenomsila": 6403,
      "Ġukukhetha": 6404,
      "ĠIbhubesi": 6405,
      "kulunkulu": 6406,
      "Ġakhiphe": 6407,
      "hlafuna": 6408,
      "dwebi": 6409,
      "xhaphozini": 6410,
      "era": 6411,
      "oki": 6412,
      "ĠWalahla": 6413,
      "ĠIndlovu": 6414,
      "pelepele": 6415,
      "Ġezibomvu": 6416,
      "Ġwayeseyi": 6417,
      "ver": 6418,
      "Masiye": 6419,
      "uliflower": 6420,
      "Ġukuxolisa": 6421,
      "Ġwayeshesha": 6422,
      "Ġisithembiso": 6423,
      "ĠNgangingahlosile": 6424,
      "balasa": 6425,
      "sane": 6426,
      "folda": 6427,
      "Fluffy": 6428,
      "Ġimilenze": 6429,
      "Ġwayeyintombazanyana": 6430,
      "Ġdolobha": 6431,
      "Ġicilongo": 6432,
      "cauliflower": 6433,
      "ĠlinguB": 6434,
      "Ġsokuhamba": 6435,
      "ĠUDra": 6436,
      "shayisana": 6437,
      "pony": 6438,
      "Ġeyom": 6439,
      "Ġwasula": 6440,
      "sahlobo": 6441,
      "sonde": 6442,
      "Ġamomotheke": 6443,
      "ffe": 6444,
      "odbye": 6445,
      "Ġngokuya": 6446,
      "Ġesekhumbula": 6447,
      "shashalazini": 6448,
      "ala": 6449,
      "hlisa": 6450,
      "Ġeyisi": 6451,
      "Ġwayeya": 6452,
      "Lelo": 6453,
      "ĠNgizokusiza": 6454,
      "nabantu": 6455,
      "phunyuka": 6456,
      "Ġkwakuyoba": 6457,
      "tuna": 6458,
      "Ġirokhethi": 6459,
      "ĠBabuza": 6460,
      "ĠIya": 6461,
      "casu": 6462,
      "ĠAkekho": 6463,
      "Ġokubi": 6464,
      "Ġkwakuzo": 6465,
      "nesithombe": 6466,
      "orange": 6467,
      "Ġsilokazane": 6468,
      "Ġwayenza": 6469,
      "Ġezindala": 6470,
      "Ġyayihlale": 6471,
      "Ġokwakunga": 6472,
      "Ġabonise": 6473,
      "Ġizibiliboco": 6474,
      "video": 6475,
      "acorn": 6476,
      "Ġgo": 6477,
      "Ġwayibamba": 6478,
      "Ġbama": 6479,
      "ĠBafika": 6480,
      "Masenze": 6481,
      "Ġwayengasoze": 6482,
      "Ġbayothola": 6483,
      "zenjani": 6484,
      "Ġendi": 6485,
      "Ġngebhayisikili": 6486,
      "gaxa": 6487,
      "ĠWabatshela": 6488,
      "phendukela": 6489,
      "Ġigazi": 6490,
      "Ġbabuka": 6491,
      "ĠWayivula": 6492,
      "Ġukulimaza": 6493,
      "Ġesiseduze": 6494,
      "ĠAbazi": 6495,
      "Ġangakwenza": 6496,
      "melelo": 6497,
      "sakazo": 6498,
      "kthi": 6499,
      "sisiza": 6500,
      "raffe": 6501,
      "Ġekhaleni": 6502,
      "ncibilika": 6503,
      "shaqeka": 6504,
      "Ġumthombo": 6505,
      "mpumelelo": 6506,
      "melana": 6507,
      "ĠUMark": 6508,
      "lotha": 6509,
      "Ġninga": 6510,
      "Ġesiteshini": 6511,
      "Ġothulini": 6512,
      "Ġebhukuda": 6513,
      "ĠBaphonsa": 6514,
      "Ġizingxenye": 6515,
      "ppy": 6516,
      "Ġunamandla": 6517,
      "Ġwafisa": 6518,
      "yokwenza": 6519,
      "Ġeliphansi": 6520,
      "Ġisiyingi": 6521,
      "nzile": 6522,
      "eraser": 6523,
      "ĠUbamba": 6524,
      "ngenzi": 6525,
      "Ġukuqala": 6526,
      "ĠNgenhlanhla": 6527,
      "Ġengakhululekile": 6528,
      "Ġukulu": 6529,
      "Ġesithile": 6530,
      "wuthandi": 6531,
      "Ġesinezi": 6532,
      "Ġizipho": 6533,
      "ndolo": 6534,
      "Ġkwakubalulekile": 6535,
      "Ġemaxhaphozini": 6536,
      "Ġedinga": 6537,
      "Ġwadweba": 6538,
      "Ġehlezi": 6539,
      "Ġyayimnandi": 6540,
      "ĠWayengajabule": 6541,
      "fundise": 6542,
      "Ungubani": 6543,
      "Ġugijimela": 6544,
      "ĠKulungile": 6545,
      "Ġawuzange": 6546,
      "ĠEnye": 6547,
      "ĠUKitty": 6548,
      "Ġihlezi": 6549,
      "Ġyawa": 6550,
      "tofu": 6551,
      "Ġezihlekisayo": 6552,
      "Ġnengubo": 6553,
      "der": 6554,
      "Ġobumnandi": 6555,
      "Ġkwakungalungile": 6556,
      "Ġwayelambile": 6557,
      "ĠWayenezi": 6558,
      "Ġbezo": 6559,
      "ndenini": 6560,
      "Ġnobisi": 6561,
      "ske": 6562,
      "Ġwalu": 6563,
      "ĠIzinyoni": 6564,
      "Ġneloli": 6565,
      "ÃŃ": 6566,
      "hloli": 6567,
      "nogada": 6568,
      "ĠKwakuzwakala": 6569,
      "tball": 6570,
      "Ġufulawa": 6571,
      "Ġihlanzekile": 6572,
      "Ġikamelo": 6573,
      "Ġlamomotheka": 6574,
      "Ġnaso": 6575,
      "pheki": 6576,
      "giraffe": 6577,
      "mthandi": 6578,
      "Ġowe": 6579,
      "ks": 6580,
      "vroom": 6581,
      "Ġizimpaphe": 6582,
      "Ġwambingelela": 6583,
      "Ġyayigcwele": 6584,
      "Ġuyakuthanda": 6585,
      "hliki": 6586,
      "ames": 6587,
      "Ġuhlakaniphile": 6588,
      "Ġbalalele": 6589,
      "Ġukuzihlanganisa": 6590,
      "vilophu": 6591,
      "Ġutamatisi": 6592,
      "Ġyagijimela": 6593,
      "ĠIsibhakabhaka": 6594,
      "thano": 6595,
      "Ġowafuna": 6596,
      "Ġungisize": 6597,
      "Ġikwazi": 6598,
      "Ġikhula": 6599,
      "Ġukufaka": 6600,
      "yingqayizivele": 6601,
      "khanyise": 6602,
      "Ġukuhambahamba": 6603,
      "tshiseko": 6604,
      "ngayo": 6605,
      "Ġofuna": 6606,
      "Ġesivela": 6607,
      "wona": 6608,
      "Kuya": 6609,
      "veli": 6610,
      "Ġwashesha": 6611,
      "Ġwayedidekile": 6612,
      "sketball": 6613,
      "Ġsizame": 6614,
      "Ġsitshalo": 6615,
      "Ġbethi": 6616,
      "Ġyokukho": 6617,
      "ĠnoJane": 6618,
      "rog": 6619,
      "ĠBabamba": 6620,
      "Ġamazambane": 6621,
      "Ġeyake": 6622,
      "limazi": 6623,
      "gqomo": 6624,
      "bambekile": 6625,
      "Ġwakhuluma": 6626,
      "Ġeziphakeme": 6627,
      "Ġengu": 6628,
      "Ġencwadini": 6629,
      "keze": 6630,
      "Ġukuyigcina": 6631,
      "kre": 6632,
      "Ġnanoma": 6633,
      "Ġothambile": 6634,
      "ĠAyi": 6635,
      "Ġimisebenzi": 6636,
      "Ġnelanga": 6637,
      "Ġinsipho": 6638,
      "ksz": 6639,
      "xoxo": 6640,
      "Ġulalele": 6641,
      "shoyo": 6642,
      "hockey": 6643,
      "ĠNgiyazi": 6644,
      "Ġenempilo": 6645,
      "Ġayezoyi": 6646,
      "Ġephelele": 6647,
      "Ġukungi": 6648,
      "Ġbeli": 6649,
      "Ġwayebuka": 6650,
      "Ġyasondela": 6651,
      "ĠKwakukuhle": 6652,
      "ĠInkosikazi": 6653,
      "basketball": 6654,
      "Ġbavumelana": 6655,
      "Ġnalokhu": 6656,
      "bhentshi": 6657,
      "steak": 6658,
      "shaywa": 6659,
      "Ġbesi": 6660,
      "ĠlinguBenny": 6661,
      "Ġwase": 6662,
      "thoko": 6663,
      "Ġamahlaya": 6664,
      "Ġokusanhlamvu": 6665,
      "Ġnezinhlanzi": 6666,
      "nobuciko": 6667,
      "zalwane": 6668,
      "ĠWalala": 6669,
      "suse": 6670,
      "ĠsÃŃ": 6671,
      "gurt": 6672,
      "ĠsÃŃna": 6673,
      "ngaphambili": 6674,
      "hlekelele": 6675,
      "Ġemtatsheni": 6676,
      "Ġzinto": 6677,
      "Ġimpa": 6678,
      "Kwakumnandi": 6679,
      "stal": 6680,
      "gumbu": 6681,
      "Ġisango": 6682,
      "Ġehlanzekile": 6683,
      "ĠkaMia": 6684,
      "dlandla": 6685,
      "Ġbememeza": 6686,
      "ĠWayengase": 6687,
      "Ġngizokusiza": 6688,
      "ĠWakhothama": 6689,
      "Ġizintuthwane": 6690,
      "Ngiyayithanda": 6691,
      "owl": 6692,
      "Ġifika": 6693,
      "Ġiphoyisa": 6694,
      "lofu": 6695,
      "Ġemtshela": 6696,
      "Ġuyahleka": 6697,
      "ĠSifuna": 6698,
      "ut": 6699,
      "Ġakulungile": 6700,
      "rystal": 6701,
      "qagela": 6702,
      "vunyelwe": 6703,
      "ĠlinguMia": 6704,
      "Ġesikhulile": 6705,
      "Ġizikebhe": 6706,
      "Ġokuthakazelisayo": 6707,
      "Ġezake": 6708,
      "ngwini": 6709,
      "Ġusawoti": 6710,
      "Ġukulandela": 6711,
      "Ġkunen": 6712,
      "wubu": 6713,
      "Ġnezinambuzane": 6714,
      "phrinta": 6715,
      "Ġalo": 6716,
      "mbula": 6717,
      "ĠNgiyacela": 6718,
      "Ġothandekayo": 6719,
      "Ġesindayo": 6720,
      "ofoni": 6721,
      "lwazi": 6722,
      "Ġabandayo": 6723,
      "tiki": 6724,
      "tebhisini": 6725,
      "krofoni": 6726,
      "gomo": 6727,
      "futha": 6728,
      "bungozi": 6729,
      "Ġbahlangana": 6730,
      "Ġelinamandla": 6731,
      "Ġayekwenzile": 6732,
      "Ġizimpawu": 6733,
      "Ġnezimo": 6734,
      "phakethe": 6735,
      "Ġwayeba": 6736,
      "tion": 6737,
      "Ġizinyosi": 6738,
      "Ġungangisiza": 6739,
      "mon": 6740,
      "Ġumzuzu": 6741,
      "Ġesinamandla": 6742,
      "Ġolujabulisayo": 6743,
      "ĠWayibeka": 6744,
      "Ġnjengesipho": 6745,
      "Ġesifanayo": 6746,
      "Ġabathathu": 6747,
      "Ġzazinga": 6748,
      "Ġangikwazi": 6749,
      "oyster": 6750,
      "ĠWawa": 6751,
      "ĠkaSara": 6752,
      "thumeli": 6753,
      "Ġnokunye": 6754,
      "nesigqoko": 6755,
      "Ġwokuwasha": 6756,
      "ink": 6757,
      "sitiki": 6758,
      "khuhlane": 6759,
      "yiziphukuphuku": 6760,
      "pulasitiki": 6761,
      "Ġunyakazisa": 6762,
      "Ġwale": 6763,
      "sekhona": 6764,
      "Ġlina": 6765,
      "Ġwamlandela": 6766,
      "bhonga": 6767,
      "nosawoti": 6768,
      "Ġyokuba": 6769,
      "ĠWenze": 6770,
      "Ġlanquma": 6771,
      "ĠBakhala": 6772,
      "khonto": 6773,
      "Ġikheji": 6774,
      "Ġkuyamangalisa": 6775,
      "Ġayengakwenza": 6776,
      "pholisha": 6777,
      "Ġwabanika": 6778,
      "Ġwayengenayo": 6779,
      "lamula": 6780,
      "Ġkunanini": 6781,
      "yari": 6782,
      "ĠlinguP": 6783,
      "ĠUZ": 6784,
      "hlolwa": 6785,
      "thalente": 6786,
      "ĠnoB": 6787,
      "Ġbabengazi": 6788,
      "Ġephathelene": 6789,
      "Ġakhethe": 6790,
      "Ġubukeka": 6791,
      "hubhe": 6792,
      "Ġbenosizi": 6793,
      "Ġizinkuni": 6794,
      "sene": 6795,
      "Ġebuza": 6796,
      "Ġethule": 6797,
      "Ġokuhlukile": 6798,
      "ĠKwakunezi": 6799,
      "Ġnzima": 6800,
      "Ġlihamba": 6801,
      "Ġomnyama": 6802,
      "ngcwaba": 6803,
      "Ġengafuni": 6804,
      "Ġmbono": 6805,
      "Ġisakhiwo": 6806,
      "loo": 6807,
      "Ġinombala": 6808,
      "Ġizinqaba": 6809,
      "Ġungadlala": 6810,
      "hambisana": 6811,
      "Ġwethuka": 6812,
      "ĠUbukeka": 6813,
      "Ġamathuluzi": 6814,
      "Ġnesikhova": 6815,
      "lenzeni": 6816,
      "Ġesuka": 6817,
      "Ġkwakunom": 6818,
      "Ġyokukhosela": 6819,
      "Ġwajabulela": 6820,
      "Ġbagxuma": 6821,
      "dobi": 6822,
      "Ġuhamba": 6823,
      "Ġubhontshisi": 6824,
      "thisha": 6825,
      "Ġngalesi": 6826,
      "Ġukumenza": 6827,
      "Ġitende": 6828,
      "yogurt": 6829,
      "tshwe": 6830,
      "Ġangaku": 6831,
      "Zi": 6832,
      "gazini": 6833,
      "ĠSingaba": 6834,
      "anzi": 6835,
      "Ġukuhlela": 6836,
      "Ġbangakwazi": 6837,
      "Ġenginga": 6838,
      "Ġwazungeza": 6839,
      "ĠWazijabulisa": 6840,
      "ĠBadonsa": 6841,
      "Ġamakhadi": 6842,
      "ndebe": 6843,
      "ĠKwakuyin": 6844,
      "UTommy": 6845,
      "Ġokungalungile": 6846,
      "Ġlawo": 6847,
      "Ġamabhokisi": 6848,
      "Ġkwezinsuku": 6849,
      "Ġuxolise": 6850,
      "Nginike": 6851,
      "Ġamaso": 6852,
      "ĠuKitty": 6853,
      "Ġwayematasa": 6854,
      "Ġubuhle": 6855,
      "Ġangaba": 6856,
      "Ġwasukuma": 6857,
      "endeni": 6858,
      "ĠUngadlala": 6859,
      "ĠBabehamba": 6860,
      "zinhlanzi": 6861,
      "chitheka": 6862,
      "yak": 6863,
      "ĠWayenza": 6864,
      "ĠKungase": 6865,
      "vumelani": 6866,
      "Ġwalimaza": 6867,
      "Ġinamandla": 6868,
      "Ġngokushaya": 6869,
      "ĠEm": 6870,
      "ĠOwesifazane": 6871,
      "phendulela": 6872,
      "Ġamaphoyisa": 6873,
      "Ġlalilikhulu": 6874,
      "lilweni": 6875,
      "kisweni": 6876,
      "Ġesijabulisayo": 6877,
      "Ġlwesi": 6878,
      "sert": 6879,
      "mazi": 6880,
      "pheme": 6881,
      "Ġlikhulu": 6882,
      "Ġyokuhlala": 6883,
      "Ġwokugunda": 6884,
      "zipper": 6885,
      "dessert": 6886,
      "Ġishalofu": 6887,
      "Ġkwezinye": 6888,
      "kle": 6889,
      "shuku": 6890,
      "Ġnoluhlaza": 6891,
      "zwile": 6892,
      "Ġigxuma": 6893,
      "Ġibukeka": 6894,
      "Ġikhefu": 6895,
      "Ġibhuloho": 6896,
      "Ġulimi": 6897,
      "Ġisilayidi": 6898,
      "vuzo": 6899,
      "Ġisudi": 6900,
      "ĠBakha": 6901,
      "Ġambone": 6902,
      "kunzi": 6903,
      "Ġusa": 6904,
      "Ġsidle": 6905,
      "buyiselwa": 6906,
      "crystal": 6907,
      "ĠWaphakamisa": 6908,
      "ĠnoT": 6909,
      "funayo": 6910,
      "Ġinom": 6911,
      "Ġemlilweni": 6912,
      "Ġyayidlala": 6913,
      "ĠKwaba": 6914,
      "Ngiyi": 6915,
      "thembela": 6916,
      "Ġisike": 6917,
      "Ġbabese": 6918,
      "khuphukele": 6919,
      "Ubaba": 6920,
      "kayak": 6921,
      "Ġume": 6922,
      "Ġyayibheka": 6923,
      "Ġsekwe": 6924,
      "igloo": 6925,
      "ĠWacindezela": 6926,
      "nce": 6927,
      "Ġyemidlalo": 6928,
      "ricket": 6929,
      "thiwekhi": 6930,
      "tholeni": 6931,
      "mukelekile": 6932,
      "Ġwayinika": 6933,
      "Ġkona": 6934,
      "ĠBamtshela": 6935,
      "Ġeqhubeka": 6936,
      "Ġamabhulukwe": 6937,
      "Ġavule": 6938,
      "Ġonoboya": 6939,
      "zelanga": 6940,
      "khenikha": 6941,
      "Ġnango": 6942,
      "Ġkwakuwu": 6943,
      "Ġingase": 6944,
      "ĠkaJohn": 6945,
      "Ġkwami": 6946,
      "Ġocebile": 6947,
      "cayi": 6948,
      "Ġkuyingozi": 6949,
      "shane": 6950,
      "Ġwabatshela": 6951,
      "ĠuJohnny": 6952,
      "Mnu": 6953,
      "Ġnamanye": 6954,
      "Ġimvilophu": 6955,
      "hook": 6956,
      "Ġwasheshe": 6957,
      "Ġyaphawula": 6958,
      "fisela": 6959,
      "ĠKwakunzima": 6960,
      "Ġnokushaya": 6961,
      "tshelile": 6962,
      "Ġungilalele": 6963,
      "Ġzelanga": 6964,
      "Ġlizo": 6965,
      "Ġsamathoyizi": 6966,
      "Ġkwakunesi": 6967,
      "Wabuza": 6968,
      "lisela": 6969,
      "phuzu": 6970,
      "zwane": 6971,
      "ĠKwakuwu": 6972,
      "Ġobuthambile": 6973,
      "ĠUMandy": 6974,
      "lara": 6975,
      "Ġukulahlekelwa": 6976,
      "Ġwayethukile": 6977,
      "Ġenenhlanhla": 6978,
      "Ġwayengaqondi": 6979,
      "Ġsingaba": 6980,
      "Ġnjengokungathi": 6981,
      "cwa": 6982,
      "Ġevela": 6983,
      "Ġayigugu": 6984,
      "Ġukutshela": 6985,
      "Ġbagxume": 6986,
      "Ġemndenini": 6987,
      "Ġngikwenze": 6988,
      "Ġyeqhwa": 6989,
      "Ġuyesaba": 6990,
      "Ġbachitha": 6991,
      "Ġyile": 6992,
      "Ġuyakhala": 6993,
      "Ġelambile": 6994,
      "Ġgoodbye": 6995,
      "Ġukudonsa": 6996,
      "Ġokubabayo": 6997,
      "Ġayese": 6998,
      "vakashe": 6999,
      "ĠKwakungumama": 7000,
      "Ġebheka": 7001,
      "Ġbakha": 7002,
      "Ġelijabulisayo": 7003,
      "Ġbengena": 7004,
      "Ġnokugxuma": 7005,
      "Ġkuyahlekisa": 7006,
      "ĠuNkk": 7007,
      "selele": 7008,
      "ĠAkazi": 7009,
      "ĠIndodakazi": 7010,
      "cricket": 7011,
      "Ġyagona": 7012,
      "Ġsezulu": 7013,
      "Ġnokucula": 7014,
      "ĠUTeddy": 7015,
      "Ġulinde": 7016,
      "Ġupiyano": 7017,
      "ĠBob": 7018,
      "Ġangase": 7019,
      "Ġwayeyingane": 7020,
      "Ġwanambitha": 7021,
      "selwa": 7022,
      "Ġngokwazi": 7023,
      "ĠuJen": 7024,
      "Ġngentshiseko": 7025,
      "Ġisiphepho": 7026,
      "kwamukela": 7027,
      "zomsiza": 7028,
      "thukutheli": 7029,
      "Ġukushisa": 7030,
      "Ġnomoya": 7031,
      "Ġohlekisayo": 7032,
      "Ġisithelo": 7033,
      "ĠNgakusasa": 7034,
      "Ġbahlanze": 7035,
      "nempilo": 7036,
      "sobho": 7037,
      "Ġwayobheka": 7038,
      "Ġuzame": 7039,
      "Ġlaphuka": 7040,
      "ĠBabesaba": 7041,
      "doti": 7042,
      "Ġesebenza": 7043,
      "ĠuSusie": 7044,
      "Ġwangi": 7045,
      "dlalweni": 7046,
      "Ġisibambo": 7047,
      "Ġseek": 7048,
      "Ġyenkomo": 7049,
      "xazulu": 7050,
      "nyathelisa": 7051,
      "Ġelala": 7052,
      "Ġbavula": 7053,
      "ĠkuSam": 7054,
      "ĠNgaphambi": 7055,
      "ĠNgingu": 7056,
      "sipo": 7057,
      "yoga": 7058,
      "Ġbezama": 7059,
      "Ġensundu": 7060,
      "mangaza": 7061,
      "taba": 7062,
      "thembise": 7063,
      "sipoti": 7064,
      "ktri": 7065,
      "Ġnekhekhe": 7066,
      "Ġbabeka": 7067,
      "fektri": 7068,
      "Ngingadlala": 7069,
      "ĠuZ": 7070,
      "Ġithe": 7071,
      "Ġsiyakuthanda": 7072,
      "ĠBear": 7073,
      "Ġummbila": 7074,
      "Ġipayipi": 7075,
      "ĠWayemthanda": 7076,
      "Ġenhliziyweni": 7077,
      "mbulu": 7078,
      "Ġayithole": 7079,
      "lovukazi": 7080,
      "swebhu": 7081,
      "jam": 7082,
      "ĠnoTimmy": 7083,
      "pheke": 7084,
      "Ġkwakumenza": 7085,
      "Ġkwelinye": 7086,
      "ĠUngaba": 7087,
      "Ġemaga": 7088,
      "qinisekisa": 7089,
      "Ġimpendulo": 7090,
      "Ġisinyathelo": 7091,
      "Ġnamehlo": 7092,
      "Ġbabekwazi": 7093,
      "zinyosi": 7094,
      "ĠUDragoni": 7095,
      "Ġnd": 7096,
      "Ġsasolwandle": 7097,
      "Ġwamshaya": 7098,
      "ĠBabezi": 7099,
      "umane": 7100,
      "ngayithandi": 7101,
      "Ġwayevame": 7102,
      "ĠuDucky": 7103,
      "Ġisondela": 7104,
      "Ġkuyinto": 7105,
      "ĠKwenza": 7106,
      "Ġbabebuka": 7107,
      "Ġizinkinga": 7108,
      "ngenjalo": 7109,
      "Ġisitshalo": 7110,
      "ĠUzwa": 7111,
      "Ġigijimela": 7112,
      "Ġesakhiweni": 7113,
      "mm": 7114,
      "Ġep": 7115,
      "Ġebho": 7116,
      "Ġbagxumela": 7117,
      "Ġwayeli": 7118,
      "Ġizindiza": 7119,
      "imp": 7120,
      "ĠlinguBob": 7121,
      "Ġolusha": 7122,
      "Ġkadoti": 7123,
      "Ġamagatsha": 7124,
      "cwila": 7125,
      "hlikihla": 7126,
      "Ġkugogo": 7127,
      "Ġikhamera": 7128,
      "ĠUnesibindi": 7129,
      "Ġesiza": 7130,
      "gule": 7131,
      "Ġlwami": 7132,
      "Ġibanga": 7133,
      "donsela": 7134,
      "ope": 7135,
      "wathanda": 7136,
      "zimba": 7137,
      "Ġelimnene": 7138,
      "Ġlim": 7139,
      "Ġempofu": 7140,
      "Ġungakwazi": 7141,
      "ĠOku": 7142,
      "otter": 7143,
      "qela": 7144,
      "tendeni": 7145,
      "loba": 7146,
      "Ġzingase": 7147,
      "Ġyaseshashalazini": 7148,
      "Ġwaqeda": 7149,
      "Ġwayehlakaniphe": 7150,
      "ĠKwakuyinto": 7151,
      "Ġenobu": 7152,
      "Ġlwen": 7153,
      "au": 7154,
      "yithatha": 7155,
      "mine": 7156,
      "Ġsibuyele": 7157,
      "Ġyayijabula": 7158,
      "ĠKuyoba": 7159,
      "Ġwayifaka": 7160,
      "qabungeni": 7161,
      "Ġneze": 7162,
      "hluku": 7163,
      "Ġsingadlala": 7164,
      "Ġbafunde": 7165,
      "Ġnegundane": 7166,
      "Ġubungane": 7167,
      "Ġemikhulu": 7168,
      "ĠIsilo": 7169,
      "chess": 7170,
      "Ġnendodakazi": 7171,
      "Ġbavuma": 7172,
      "Ġazithandayo": 7173,
      "Ġesen": 7174,
      "Ġathinte": 7175,
      "Ġtshe": 7176,
      "Ġuphondo": 7177,
      "Ġukuxabana": 7178,
      "bot": 7179,
      "hlehla": 7180,
      "Ġebholeni": 7181,
      "ĠUmkhulu": 7182,
      "cij": 7183,
      "Ġiminwe": 7184,
      "Ġani": 7185,
      "lotion": 7186,
      "Ġkithi": 7187,
      "ambu": 7188,
      "nxantathu": 7189,
      "cijile": 7190,
      "Ġsosuku": 7191,
      "ĠSpot": 7192,
      "Ngoba": 7193,
      "mulweni": 7194,
      "tanga": 7195,
      "lense": 7196,
      "rimp": 7197,
      "Ġuyisi": 7198,
      "toon": 7199,
      "ĠImi": 7200,
      "Ġzezilwane": 7201,
      "cartoon": 7202,
      "gumbuqela": 7203,
      "qam": 7204,
      "Ġonobungane": 7205,
      "robot": 7206,
      "ambulense": 7207,
      "Ġukhilimu": 7208,
      "Ġbathembisa": 7209,
      "ncipha": 7210,
      "Ġmbumbulu": 7211,
      "Ġagcine": 7212,
      "ĠWasebenza": 7213,
      "nyene": 7214,
      "Ġbehlela": 7215,
      "sakaze": 7216,
      "Ġyavula": 7217,
      "Ġompunga": 7218,
      "ĠNakhu": 7219,
      "Ġisongo": 7220,
      "numzane": 7221,
      "Ġamnyama": 7222,
      "bon": 7223,
      "shiwo": 7224,
      "Ġyokuphuma": 7225,
      "Ġokwakwenzekile": 7226,
      "Ġohlangothini": 7227,
      "Ġizinombolo": 7228,
      "ĠLeyo": 7229,
      "Ġbakuleli": 7230,
      "Ġengcolile": 7231,
      "Ġinombolo": 7232,
      "Ġompofu": 7233,
      "gator": 7234,
      "Ġkwengubo": 7235,
      "kwenzani": 7236,
      "ngakho": 7237,
      "Ġwayengumuntu": 7238,
      "ĠWayeba": 7239,
      "thandaza": 7240,
      "Ġelithi": 7241,
      "Ġbekhathele": 7242,
      "Ġbajabulele": 7243,
      "ap": 7244,
      "Ġukubuyisa": 7245,
      "Ġlolu": 7246,
      "etle": 7247,
      "Ġkuwumqondo": 7248,
      "ĠYeka": 7249,
      "Ġwabhukuda": 7250,
      "Ġwalimala": 7251,
      "Ġizibuko": 7252,
      "ĠAbanye": 7253,
      "lligator": 7254,
      "nesiqiniseko": 7255,
      "Ġemaqabungeni": 7256,
      "Ġemanzi": 7257,
      "Ġidayari": 7258,
      "Ġegula": 7259,
      "Ġyacela": 7260,
      "qoqe": 7261,
      "In": 7262,
      "Ġkuvula": 7263,
      "ngozini": 7264,
      "thutha": 7265,
      "hlunga": 7266,
      "ĠSizoku": 7267,
      "pike": 7268,
      "Ġkwam": 7269,
      "mbingelela": 7270,
      "Ġangadlala": 7271,
      "danse": 7272,
      "ĠWayethole": 7273,
      "qhumane": 7274,
      "Ġbabelokhu": 7275,
      "ĠBabeziqhenya": 7276,
      "Ġkosofa": 7277,
      "Ġwalibeka": 7278,
      "ĠBalandela": 7279,
      "ĠWayesa": 7280,
      "ĠNgithemba": 7281,
      "Ġnezinkanyezi": 7282,
      "Ġbazijabulise": 7283,
      "Ġephakeme": 7284,
      "Ġukujabulela": 7285,
      "ĠIngwe": 7286,
      "Ġsegquma": 7287,
      "Ġungase": 7288,
      "Ġayekushilo": 7289,
      "Ġizimvemvane": 7290,
      "ando": 7291,
      "Ġnokufunda": 7292,
      "Ġngenye": 7293,
      "Ġendizeni": 7294,
      "bby": 7295,
      "Ġithukuthele": 7296,
      "ĠuBlue": 7297,
      "Ġukukubona": 7298,
      "thathi": 7299,
      "bhotela": 7300,
      "ger": 7301,
      "Ġindize": 7302,
      "Ġinezi": 7303,
      "night": 7304,
      "Ġlaphendula": 7305,
      "odra": 7306,
      "nezela": 7307,
      "Ġnempilo": 7308,
      "Lapho": 7309,
      "odrako": 7310,
      "deni": 7311,
      "Ġnsizwa": 7312,
      "Ġlafika": 7313,
      "laka": 7314,
      "Ġunen": 7315,
      "bonakale": 7316,
      "gqi": 7317,
      "zingeli": 7318,
      "Ġaphendule": 7319,
      "Ġbeku": 7320,
      "Ġnokuzidela": 7321,
      "Ġetendeni": 7322,
      "fushane": 7323,
      "Ġlazizwa": 7324,
      "Ġngokuhlanganyela": 7325,
      "ĠuSu": 7326,
      "shrimp": 7327,
      "ĠWayenze": 7328,
      "Ġwazibona": 7329,
      "ĠWamgona": 7330,
      "Ġwayeqiniseka": 7331,
      "Ġesigcwele": 7332,
      "ĠBabehlale": 7333,
      "gubhe": 7334,
      "Ġbabengafuni": 7335,
      "Ġowodwa": 7336,
      "Ġonje": 7337,
      "cker": 7338,
      "alamu": 7339,
      "Ġunonya": 7340,
      "Ġulamula": 7341,
      "Ġukucindezela": 7342,
      "ĠkuJ": 7343,
      "Ġizidalwa": 7344,
      "dabukisi": 7345,
      "rr": 7346,
      "Ġiluhlaza": 7347,
      "bug": 7348,
      "amo": 7349,
      "Ġumthakathi": 7350,
      "Ġwayeyinja": 7351,
      "Lwesi": 7352,
      "Ġwahlabelela": 7353,
      "Ġimbuzi": 7354,
      "Ġesinesi": 7355,
      "Ġubone": 7356,
      "Ġakhulume": 7357,
      "Ġmubi": 7358,
      "Ġumfudlana": 7359,
      "Ġbehlabelela": 7360,
      "Ġnomsila": 7361,
      "Ġayezozi": 7362,
      "Ġyesaba": 7363,
      "Ġumuhle": 7364,
      "omisa": 7365,
      "Futhi": 7366,
      "Ġazenze": 7367,
      "yitholi": 7368,
      "Ġlaqhubeka": 7369,
      "Ġkwazo": 7370,
      "Ġenomsindo": 7371,
      "ĠBamemeza": 7372,
      "Na": 7373,
      "Ġefana": 7374,
      "Ġwayelahlekelwe": 7375,
      "Ġebumnyameni": 7376,
      "ĠVele": 7377,
      "zamo": 7378,
      "Ġesito": 7379,
      "Ġukuyivula": 7380,
      "Ġkuvulandi": 7381,
      "Ġewela": 7382,
      "Ġikhandlela": 7383,
      "Ġwayephuma": 7384,
      "Ġkwaso": 7385,
      "ĠBamgona": 7386,
      "Ġindlovukazi": 7387,
      "Ġezwe": 7388,
      "Ġukugona": 7389,
      "Ġbabheke": 7390,
      "Ġbakhohlwa": 7391,
      "Ġlalo": 7392,
      "ĠIndiza": 7393,
      "Ġinjini": 7394,
      "Ġnokudansa": 7395,
      "Ġizinyathelo": 7396,
      "Ġwamuzwa": 7397,
      "Ġziye": 7398,
      "Ġntambama": 7399,
      "mvemvane": 7400,
      "Ġmanzi": 7401,
      "Ġekhona": 7402,
      "Ġisibindi": 7403,
      "bhale": 7404,
      "thungi": 7405,
      "Ġuzoba": 7406,
      "Ġho": 7407,
      "Ġahleke": 7408,
      "Ġembukisweni": 7409,
      "boza": 7410,
      "Ġoyifunayo": 7411,
      "Ġwayibona": 7412,
      "Ġiyini": 7413,
      "hip": 7414,
      "Ġenyangeni": 7415,
      "Ġethekwini": 7416,
      "Ġukuhlangana": 7417,
      "Ġliphephile": 7418,
      "bheki": 7419,
      "Ġlokuthola": 7420,
      "ĠNawe": 7421,
      "Abi": 7422,
      "ĠUtshela": 7423,
      "Ġwayeku": 7424,
      "Ġwayegxuma": 7425,
      "Ġsingenza": 7426,
      "ĠUBobbie": 7427,
      "nowy": 7428,
      "jengale": 7429,
      "sineke": 7430,
      "Ġaphumule": 7431,
      "Ġyaluma": 7432,
      "Ġelihlekisayo": 7433,
      "Ġamakati": 7434,
      "Ġlimnandi": 7435,
      "Ġenkingeni": 7436,
      "Ġyayizizwa": 7437,
      "rali": 7438,
      "rocket": 7439,
      "Ġenesithukuthezi": 7440,
      "Ġwanqoba": 7441,
      "ĠWayezo": 7442,
      "sona": 7443,
      "vakashi": 7444,
      "ĠnoKim": 7445,
      "aul": 7446,
      "kubi": 7447,
      "Ġethembekile": 7448,
      "ĠWadonsa": 7449,
      "Ġizindlebe": 7450,
      "robhothi": 7451,
      "ntaba": 7452,
      "Ġongenamusa": 7453,
      "Ġishaya": 7454,
      "hlanya": 7455,
      "sekho": 7456,
      "Ġwayemomotheka": 7457,
      "Ġsifuna": 7458,
      "ĠSingadlala": 7459,
      "Ġezolile": 7460,
      "Ġokungcono": 7461,
      "ĠlinguSally": 7462,
      "Ġabeke": 7463,
      "friji": 7464,
      "Ġusizi": 7465,
      "ĠWadweba": 7466,
      "ngeka": 7467,
      "Ġnebhokisi": 7468,
      "ĠWayengathandi": 7469,
      "Ġubuza": 7470,
      "Ġevulekile": 7471,
      "ler": 7472,
      "Ġnezigqoko": 7473,
      "Ġwayengaqiniseki": 7474,
      "celeni": 7475,
      "Ġakuzange": 7476,
      "juleni": 7477,
      "Ġesingaphansi": 7478,
      "vocavoca": 7479,
      "namanzi": 7480,
      "tholela": 7481,
      "Ġesivulekile": 7482,
      "Ġabanga": 7483,
      "ombazaneni": 7484,
      "qwabeni": 7485,
      "base": 7486,
      "mamatheke": 7487,
      "Ġiziqhumane": 7488,
      "kosazana": 7489,
      "reddy": 7490,
      "ĠYayigcwele": 7491,
      "ĠSiyaxolisa": 7492,
      "fundile": 7493,
      "Ġlezinyoni": 7494,
      "wubuwula": 7495,
      "kuqala": 7496,
      "Ġenja": 7497,
      "Ġsihamba": 7498,
      "Ġsisize": 7499,
      "Ġnezithombe": 7500,
      "bhidli": 7501,
      "Ġwayephephile": 7502,
      "Ġolulodwa": 7503,
      "ĠuFred": 7504,
      "ĠUdinga": 7505,
      "Ġbaqaphe": 7506,
      "Ġkungenza": 7507,
      "Ġnaka": 7508,
      "Ġamaqhinga": 7509,
      "Ġzasendle": 7510,
      "Ġkwethu": 7511,
      "ĠIsitimela": 7512,
      "rm": 7513,
      "ĠWayezulazula": 7514,
      "jabulele": 7515,
      "Ġezifuywayo": 7516,
      "Sekuyisikhathi": 7517,
      "fani": 7518,
      "Ġiqhawe": 7519,
      "Ġukuduma": 7520,
      "nteni": 7521,
      "Ġyetiye": 7522,
      "Ġentombazaneni": 7523,
      "Ġngubo": 7524,
      "wenu": 7525,
      "gijimi": 7526,
      "tur": 7527,
      "Ġwagcwalisa": 7528,
      "ngamu": 7529,
      "Ġbamamatheka": 7530,
      "Ġbabengeke": 7531,
      "Ġnobungane": 7532,
      "carrot": 7533,
      "baseball": 7534,
      "Ġizindlu": 7535,
      "Ġbabehlala": 7536,
      "Ġbazizwe": 7537,
      "Ġathukuthele": 7538,
      "Ġkubantu": 7539,
      "thengele": 7540,
      "Ġelinsundu": 7541,
      "Ġsam": 7542,
      "wunteni": 7543,
      "kanani": 7544,
      "khethini": 7545,
      "Ġlazo": 7546,
      "Ġbamemeze": 7547,
      "Ġsiba": 7548,
      "ĠKwakunama": 7549,
      "Ġungakhathazeki": 7550,
      "Ġakhohlwe": 7551,
      "Ġnentambo": 7552,
      "Ġngonya": 7553,
      "Ġsingene": 7554,
      "Ġwawunga": 7555,
      "xer": 7556,
      "zazi": 7557,
      "Linda": 7558,
      "Ġimvu": 7559,
      "Ġonobugovu": 7560,
      "Ġesegijimela": 7561,
      "chopho": 7562,
      "shintshanisa": 7563,
      "Ġedlula": 7564,
      "ĠUgona": 7565,
      "Ġbehlola": 7566,
      "Ġbayeke": 7567,
      "Ġayesithanda": 7568,
      "Ġizinkomishi": 7569,
      "ĠLezi": 7570,
      "chazama": 7571,
      "bhoshongweni": 7572,
      "nyuziyamu": 7573,
      "Ġungenza": 7574,
      "Ġuhlakaniphe": 7575,
      "Ġekhuluphele": 7576,
      "Ġukumemeza": 7577,
      "Ġenqwabeni": 7578,
      "Ġyayiyi": 7579,
      "dumele": 7580,
      "xwayi": 7581,
      "nweni": 7582,
      "Ġwayeno": 7583,
      "thambe": 7584,
      "klebhula": 7585,
      "ĠUfika": 7586,
      "ĠBashayela": 7587,
      "ĠnoP": 7588,
      "ĠnoS": 7589,
      "Ġyayihlala": 7590,
      "Ġelungele": 7591,
      "ketanga": 7592,
      "sheni": 7593,
      "nyaweni": 7594,
      "Ġolucwebezelayo": 7595,
      "ĠMnumzane": 7596,
      "ĠUBlue": 7597,
      "fenisha": 7598,
      "fwini": 7599,
      "Ġiphupho": 7600,
      "Ġukumelana": 7601,
      "Ġakhethekile": 7602,
      "Ġeziphuzi": 7603,
      "Ġsingayi": 7604,
      "onodoli": 7605,
      "ĠWakhetha": 7606,
      "thethele": 7607,
      "Ġesifanele": 7608,
      "Ġyiziphi": 7609,
      "Ġdolobhana": 7610,
      "zodi": 7611,
      "Ġngezindlela": 7612,
      "ĠWayifaka": 7613,
      "Ġyagxuma": 7614,
      "Ġbeqala": 7615,
      "hlaka": 7616,
      "Ġweloli": 7617,
      "ĠNgiyi": 7618,
      "ĠZiyaxolisa": 7619,
      "Ġkuleyo": 7620,
      "Ġuyeke": 7621,
      "guquguqukayo": 7622,
      "Ġeqoqa": 7623,
      "Ġnokuhamba": 7624,
      "ĠZishintshana": 7625,
      "yithandayo": 7626,
      "komishini": 7627,
      "ĠYiba": 7628,
      "nap": 7629,
      "Ġumuzwa": 7630,
      "gesi": 7631,
      "Ġekahle": 7632,
      "ĠUW": 7633,
      "Ġovela": 7634,
      "shado": 7635,
      "Ġkwezulu": 7636,
      "fundisi": 7637,
      "mboza": 7638,
      "Asi": 7639,
      "teni": 7640,
      "Ġwabangane": 7641,
      "lime": 7642,
      "bukiso": 7643,
      "Ġbaze": 7644,
      "Ġzingaba": 7645,
      "ĠKwakukhona": 7646,
      "Ġngaleyo": 7647,
      "khadibhodi": 7648,
      "Ġikhishi": 7649,
      "jeni": 7650,
      "Ġakwenza": 7651,
      "Ġothanda": 7652,
      "Ġelimpunga": 7653,
      "Ġyayikwazi": 7654,
      "shidi": 7655,
      "puteni": 7656,
      "alligator": 7657,
      "kalisa": 7658,
      "Ġiphukile": 7659,
      "ĠUSusie": 7660,
      "ĠTommy": 7661,
      "Ġsiyodlala": 7662,
      "Ġnobukhulu": 7663,
      "ĠUnethemba": 7664,
      "Ġeqaphile": 7665,
      "Ġukuphi": 7666,
      "ĠULeo": 7667,
      "Ġyafunda": 7668,
      "Ġisikhu": 7669,
      "Ġliphinde": 7670,
      "hlukanise": 7671,
      "kedeni": 7672,
      "phakamise": 7673,
      "Ġolumangalisayo": 7674,
      "Ġukhona": 7675,
      "ĠBahlanganyela": 7676,
      "Ġelinobungane": 7677,
      "Ġngisize": 7678,
      "Ġngiyazi": 7679,
      "ĠAkuyona": 7680,
      "ĠUDucky": 7681,
      "uby": 7682,
      "Ġikhazimula": 7683,
      "Ġinaliti": 7684,
      "Ġukusho": 7685,
      "Ġsiqaphe": 7686,
      "Ġlalithanda": 7687,
      "Ġababezi": 7688,
      "Ġlwendlu": 7689,
      "Ġukukhula": 7690,
      "mixer": 7691,
      "ĠZe": 7692,
      "Ġwokuqala": 7693,
      "ĠuBobby": 7694,
      "Ġumusa": 7695,
      "mpendulo": 7696,
      "ara": 7697,
      "Ġithole": 7698,
      "Ġonama": 7699,
      "ĠnoSally": 7700,
      "qobo": 7701,
      "Ġolubi": 7702,
      "Ġukuyibonisa": 7703,
      "ĠBayayithanda": 7704,
      "Ġebuthakathaka": 7705,
      "Ġindiva": 7706,
      "turkey": 7707,
      "ĠBaphakamisa": 7708,
      "Ġnoshizi": 7709,
      "Ġlihambe": 7710,
      "Ġngizi": 7711,
      "Ġnomntwana": 7712,
      "Ġukuvuna": 7713,
      "opera": 7714,
      "gon": 7715,
      "poo": 7716,
      "Ġmsindo": 7717,
      "Ġongenangqondo": 7718,
      "ĠuLeo": 7719,
      "Ġiphiko": 7720,
      "nemilingo": 7721,
      "Ġimpaphe": 7722,
      "ĠSawubona": 7723,
      "Ġukubhonga": 7724,
      "Ġzihambe": 7725,
      "nyathela": 7726,
      "ĠUJo": 7727,
      "Ġekujuleni": 7728,
      "Ġemangele": 7729,
      "Ġnotshani": 7730,
      "ĠAkajabuli": 7731,
      "kokugcina": 7732,
      "Ġsalo": 7733,
      "Ġnokusiza": 7734,
      "Singayi": 7735,
      "Ġngesivinini": 7736,
      "kie": 7737,
      "ĠWayeku": 7738,
      "Ġesinzima": 7739,
      "rate": 7740,
      "roni": 7741,
      "Ġababeku": 7742,
      "Ġiwi": 7743,
      "Ġngokuthula": 7744,
      "qhu": 7745,
      "thembeke": 7746,
      "Ġusukulungele": 7747,
      "lwaneni": 7748,
      "Ġyayithukuthele": 7749,
      "Ġbabekuthanda": 7750,
      "ĠKwafika": 7751,
      "ĠWathinta": 7752,
      "cisham": 7753,
      "Ġowayem": 7754,
      "cishamlilo": 7755,
      "Ġwavumela": 7756,
      "Ġwamenzela": 7757,
      "Ġlaliyi": 7758,
      "mfihlo": 7759,
      "beetle": 7760,
      "Ġamaphupho": 7761,
      "Ġkwakunezi": 7762,
      "Ġuphethiloli": 7763,
      "etsy": 7764,
      "Ġwayezoba": 7765,
      "sendaweni": 7766,
      "Ġwabukela": 7767,
      "Ġizungeza": 7768,
      "sipha": 7769,
      "ĠUphinde": 7770,
      "Ġawuthandayo": 7771,
      "sebu": 7772,
      "lengisa": 7773,
      "Ġabancane": 7774,
      "dedela": 7775,
      "Ġwakhothama": 7776,
      "Ġinothi": 7777,
      "Ġnhlekelele": 7778,
      "ĠBabenza": 7779,
      "bonakhulu": 7780,
      "Ġkunayo": 7781,
      "Ġyayingafuni": 7782,
      "Ġunqikaza": 7783,
      "ĠKwakumnyama": 7784,
      "Ġukulithola": 7785,
      "Ġayekufuna": 7786,
      "Ġesebenzisa": 7787,
      "Ġbezizwa": 7788,
      "Ġayehamba": 7789,
      "ĠlinguR": 7790,
      "Ġamlalele": 7791,
      "asi": 7792,
      "Ġedidekile": 7793,
      "enduku": 7794,
      "Ġizindonga": 7795,
      "chasha": 7796,
      "Ġenokuthula": 7797,
      "Ġngokuhamba": 7798,
      "Ġwambamba": 7799,
      "fihlwe": 7800,
      "ĠUmlilo": 7801,
      "ĠYayine": 7802,
      "Ġbabamba": 7803,
      "ĠLiyi": 7804,
      "Ġkungenjalo": 7805,
      "Ġlabaleka": 7806,
      "Ġemkhunjini": 7807,
      "ĠKwase": 7808,
      "hayi": 7809,
      "Ġsiyobona": 7810,
      "Ġedweba": 7811,
      "Ġifasitela": 7812,
      "ĠWayeka": 7813,
      "Ġsigqoko": 7814,
      "ĠUyakwazi": 7815,
      "ĠUMnu": 7816,
      "Yisi": 7817,
      "wayini": 7818,
      "ĠkaLucy": 7819,
      "thobekile": 7820,
      "Ġukukhumbula": 7821,
      "Ġezijabulisa": 7822,
      "ngenayo": 7823,
      "zinkanyezi": 7824,
      "Ġayithathe": 7825,
      "mibalabala": 7826,
      "ngwa": 7827,
      "Ġwadonsa": 7828,
      "Ġbalinde": 7829,
      "ĠBavala": 7830,
      "Ġisiswebhu": 7831,
      "Ġyayinamandla": 7832,
      "ĠNgokulandelayo": 7833,
      "ĠNgisize": 7834,
      "ĠNgingakusiza": 7835,
      "Ġwayesekulungele": 7836,
      "Yuck": 7837,
      "Ġukuphakamisa": 7838,
      "Ġabazi": 7839,
      "Ġwedwa": 7840,
      "Ġenesiyezi": 7841,
      "Ġaqonde": 7842,
      "Ġndlu": 7843,
      "Ġkomnyango": 7844,
      "Ġkunokuba": 7845,
      "xwayiso": 7846,
      "Ġijusi": 7847,
      "Ġukudala": 7848,
      "ĠUmntwana": 7849,
      "Ġnemisindo": 7850,
      "Ġokokugcina": 7851,
      "ĠLucy": 7852,
      "Ġakalaleli": 7853,
      "shubhu": 7854,
      "Ġnemidlalo": 7855,
      "shampoo": 7856,
      "bopho": 7857,
      "mint": 7858,
      "mona": 7859,
      "ĠNgingaku": 7860,
      "ĠUyintombazane": 7861,
      "Ġingelosi": 7862,
      "goose": 7863,
      "Ġnyosi": 7864,
      "omile": 7865,
      "Ġlangempela": 7866,
      "Ġebhakedeni": 7867,
      "vakashele": 7868,
      "Ġukuhlobisa": 7869,
      "ĠIsihlahla": 7870,
      "Ġbamsize": 7871,
      "Ġsiyothola": 7872,
      "Ġbamamatheke": 7873,
      "Ġngane": 7874,
      "Ġizinkomo": 7875,
      "Ġsekwenzeka": 7876,
      "Ġnezitshalo": 7877,
      "ĠYayibomvu": 7878,
      "Ġnesihlahla": 7879,
      "kwenzenjani": 7880,
      "UMolly": 7881,
      "Ġuhloniphe": 7882,
      "Ġwachitha": 7883,
      "nzimeni": 7884,
      "Ġzazijabula": 7885,
      "ĠWethuka": 7886,
      "Ġbabuza": 7887,
      "Ġupelepele": 7888,
      "sekela": 7889,
      "Ġisinambuzane": 7890,
      "Ġkwenzeke": 7891,
      "Ama": 7892,
      "Ġethandwa": 7893,
      "Ġeliyithoyizi": 7894,
      "Ġuhlanganyele": 7895,
      "Ġukuphula": 7896,
      "khabethe": 7897,
      "Ġnephepha": 7898,
      "Ġeyothenga": 7899,
      "ĠWayemomotheka": 7900,
      "Ġelithambile": 7901,
      "ĠLendoda": 7902,
      "Ġizinyo": 7903,
      "Ġumbuzo": 7904,
      "Ollie": 7905,
      "endlela": 7906,
      "Ġamaphutha": 7907,
      "ĠBabehlala": 7908,
      "Ġinen": 7909,
      "Ġzim": 7910,
      "Kumelwe": 7911,
      "Ġekhaphethini": 7912,
      "gri": 7913,
      "Ġaphuzi": 7914,
      "ĠWayeno": 7915,
      "Ġelingenalutho": 7916,
      "Ġyayiphakeme": 7917,
      "Ġnomuntu": 7918,
      "Ġyomngane": 7919,
      "Ġegxumela": 7920,
      "Ġkunesi": 7921,
      "Ġeliphakeme": 7922,
      "Ġziyo": 7923,
      "Ġumalume": 7924,
      "Ġumakhalekhukhwini": 7925,
      "ĠUNemo": 7926,
      "Ġyayisinda": 7927,
      "Ġonethezekile": 7928,
      "atie": 7929,
      "Ġuzoku": 7930,
      "Ġelandela": 7931,
      "Ġelinemibala": 7932,
      "Ġembhoshongweni": 7933,
      "ĠNgokuzayo": 7934,
      "Ġngesineke": 7935,
      "dlovu": 7936,
      "vimba": 7937,
      "monade": 7938,
      "Ġushaka": 7939,
      "Ġukukwazi": 7940,
      "Ġwayethatha": 7941,
      "Ġsihlanze": 7942,
      "ĠBabedabukile": 7943,
      "humbula": 7944,
      "Ġikhonkotha": 7945,
      "ĠUhleka": 7946,
      "ĠUDave": 7947,
      "Ġwayenamandla": 7948,
      "Ġelikude": 7949,
      "Ġwamvalelisa": 7950,
      "ĠlinguDaisy": 7951,
      "hippo": 7952,
      "Ġngibone": 7953,
      "Ungangisiza": 7954,
      "Ġikhale": 7955,
      "Ġweposi": 7956,
      "Ġzin": 7957,
      "pirate": 7958,
      "Ungabi": 7959,
      "Ġekhawunteni": 7960,
      "Ġesikhumulweni": 7961,
      "yunifomu": 7962,
      "Ġibuyele": 7963,
      "ĠUSu": 7964,
      "boshe": 7965,
      "Ġbaxolise": 7966,
      "Ġyavuma": 7967,
      "ĠnoSarah": 7968,
      "Ġnephupho": 7969,
      "ĠBeku": 7970,
      "Ġizindlela": 7971,
      "Ġamaphepha": 7972,
      "Ġngihambe": 7973,
      "rakthi": 7974,
      "hoop": 7975,
      "Ġeyayibukeka": 7976,
      "poppy": 7977,
      "ĠSue": 7978,
      "ĠUngenza": 7979,
      "Ġbengabangane": 7980,
      "Ġyayisa": 7981,
      "Ġbabengaba": 7982,
      "Ġesabe": 7983,
      "qhingini": 7984,
      "asis": 7985,
      "lenga": 7986,
      "Ġukubuza": 7987,
      "Ġngokufunda": 7988,
      "kulungisa": 7989,
      "Ġyokuqala": 7990,
      "godlweni": 7991,
      "Ġesheshayo": 7992,
      "Ġukuphonsa": 7993,
      "Ġwayengeyena": 7994,
      "jele": 7995,
      "Ġuyaziqhenya": 7996,
      "Ġngesilayidi": 7997,
      "Ġwakhathala": 7998,
      "Ġsesihlahla": 7999,
      "setshenziselwa": 8000,
      "Ġbalala": 8001,
      "Ġkomfula": 8002,
      "Ġsasebusuku": 8003,
      "Ġkwakubanda": 8004,
      "fayela": 8005,
      "Ġelalela": 8006,
      "Ġehhokweni": 8007,
      "andokazi": 8008,
      "Ġlula": 8009,
      "Ġukuzo": 8010,
      "Ġovamile": 8011,
      "Ġngalinye": 8012,
      "Ġnesikhwama": 8013,
      "ĠuPete": 8014,
      "ĠUbatshela": 8015,
      "Ġelangazelela": 8016,
      "Ġingozi": 8017,
      "Ġakakwazi": 8018,
      "ĠAwuzange": 8019,
      "ran": 8020,
      "Ġwasuka": 8021,
      "ĠIngulube": 8022,
      "zinhlamvu": 8023,
      "Ġuzijabulise": 8024,
      "ĠuMark": 8025,
      "ĠUFin": 8026,
      "Ġbom": 8027,
      "Ġiphuma": 8028,
      "thunga": 8029,
      "Ġngiyo": 8030,
      "ĠYayinga": 8031,
      "Ġkunaye": 8032,
      "Ġelalihlala": 8033,
      "shiyaga": 8034,
      "hir": 8035,
      "mfane": 8036,
      "ĠWasiza": 8037,
      "Ġonogwaja": 8038,
      "Ġemlenzeni": 8039,
      "Ngifisa": 8040,
      "Ġimizuzu": 8041,
      "cembe": 8042,
      "ĠUBobo": 8043,
      "thakazelo": 8044,
      "hubheni": 8045,
      "Ġingakwazi": 8046,
      "Ġabafana": 8047,
      "holide": 8048,
      "Ġukuyigqoka": 8049,
      "rakthiza": 8050,
      "khulisa": 8051,
      "Ġemgona": 8052,
      "Mina": 8053,
      "Ġisibonakaliso": 8054,
      "Ġmngani": 8055,
      "ĠWayibonisa": 8056,
      "ĠBabhekana": 8057,
      "boshelwe": 8058,
      "ziphatha": 8059,
      "Ġwayephethe": 8060,
      "Ġonokwethenjelwa": 8061,
      "Ġezimibalabala": 8062,
      "Ġukubabona": 8063,
      "cake": 8064,
      "ĠWayengayithandi": 8065,
      "Ġnobugovu": 8066,
      "Ġinkungu": 8067,
      "ĠUngi": 8068,
      "ĠUmuntu": 8069,
      "buciko": 8070,
      "khuba": 8071,
      "Ġkunezi": 8072,
      "ĠWayekhathele": 8073,
      "Ġeminye": 8074,
      "ĠLolu": 8075,
      "Ġgogo": 8076,
      "ĠBaqaphela": 8077,
      "bhore": 8078,
      "ĠWayibamba": 8079,
      "kilasi": 8080,
      "bhorethri": 8081,
      "phelelwa": 8082,
      "Ġukukusiza": 8083,
      "ĠuNemo": 8084,
      "phindisela": 8085,
      "Ġiwindi": 8086,
      "Ġefaka": 8087,
      "kondlo": 8088,
      "Ġokungahambi": 8089,
      "pikinikini": 8090,
      "Ġentanjeni": 8091,
      "chashazi": 8092,
      "grill": 8093,
      "fudumala": 8094,
      "Ġyayenza": 8095,
      "ntandokazi": 8096,
      "kreyini": 8097,
      "thethelele": 8098,
      "mnika": 8099,
      "Ġbatshela": 8100,
      "Ġeseya": 8101,
      "ntathu": 8102,
      "Ġnobuso": 8103,
      "Ġwalahlekelwa": 8104,
      "Ġukukhahlela": 8105,
      "Ġukuxazulula": 8106,
      "ĠNgamu": 8107,
      "Ġqembu": 8108,
      "Ġukho": 8109,
      "Ġugqoke": 8110,
      "Kubukeka": 8111,
      "Ġasho": 8112,
      "ĠUbeka": 8113,
      "phayini": 8114,
      "casula": 8115,
      "Ġngikwazi": 8116,
      "dingayo": 8117,
      "Ġsekuphelile": 8118,
      "inbow": 8119,
      "Ġkwavela": 8120,
      "Ġkokubuza": 8121,
      "coo": 8122,
      "Ġnjengawe": 8123,
      "Ġbangene": 8124,
      "Ġisithunzi": 8125,
      "Ġemhubheni": 8126,
      "Ġkunakuqala": 8127,
      "mar": 8128,
      "ĠnoLucy": 8129,
      "Ġngingaku": 8130,
      "Ngingakwazi": 8131,
      "ĠNgosizo": 8132,
      "ĠnoJoe": 8133,
      "Awukwazi": 8134,
      "ĠNgamunye": 8135,
      "Ġebamba": 8136,
      "naso": 8137,
      "Ġyamisa": 8138,
      "ĠNgokudabukisayo": 8139,
      "Ġeyakho": 8140,
      "lingana": 8141,
      "qediwe": 8142,
      "chazamazwi": 8143,
      "oasis": 8144,
      "Ġlawa": 8145,
      "Ġnezindlu": 8146,
      "ĠBekufanele": 8147,
      "Uqinisile": 8148,
      "ou": 8149,
      "Ġyakwazi": 8150,
      "ĠBashiya": 8151,
      "Ġelinesibindi": 8152,
      "ĠKwakungum": 8153,
      "Ġnokushushuluza": 8154,
      "Ġeseqala": 8155,
      "Ġbayamthanda": 8156,
      "ĠOkokuqala": 8157,
      "Ġulimale": 8158,
      "Ġzihlabelela": 8159,
      "Inja": 8160,
      "ĠWakhungatheka": 8161,
      "hlakaze": 8162,
      "Ġyiba": 8163,
      "Ġesihlakaniphile": 8164,
      "Ġbafana": 8165,
      "jazz": 8166,
      "thuthela": 8167,
      "Mark": 8168,
      "Ġsasifuna": 8169,
      "Ġesikhumbeni": 8170,
      "Ġebonisa": 8171,
      "ĠWathembisa": 8172,
      "seji": 8173,
      "Ġsilinde": 8174,
      "mole": 8175,
      "khumbuzo": 8176,
      "yinaphu": 8177,
      "Ġuyoba": 8178,
      "Ġongaziwa": 8179,
      "ĠNgaleyo": 8180,
      "Ġithangi": 8181,
      "zansi": 8182,
      "lemonade": 8183,
      "Ġyatshela": 8184,
      "Ġsithombe": 8185,
      "Ġezisola": 8186,
      "noma": 8187,
      "Ġwahlola": 8188,
      "Ġizinkawu": 8189,
      "Ġnomnikazi": 8190,
      "Ġuyazithanda": 8191,
      "Ġobuhlukahlukene": 8192,
      "Ġnemifino": 8193,
      "puletini": 8194,
      "knight": 8195,
      "Ġepuletini": 8196,
      "Ġwayoku": 8197,
      "Ġaqale": 8198,
      "ngise": 8199,
      "yizin": 8200,
      "Ġumsakazo": 8201,
      "thwale": 8202,
      "Ġukuboleka": 8203,
      "mvumela": 8204,
      "Ġlabonga": 8205,
      "par": 8206,
      "Ġzizungeze": 8207,
      "Mittens": 8208,
      "hlanganye": 8209,
      "Ġakuthande": 8210,
      "njwa": 8211,
      "thamela": 8212,
      "Ġehle": 8213,
      "Ġlathola": 8214,
      "Ġumkhomo": 8215,
      "ĠSingayi": 8216,
      "Ġikhofi": 8217,
      "Ġukushushuluza": 8218,
      "net": 8219,
      "Ġnokuhleka": 8220,
      "Ġwayenemoto": 8221,
      "Ġehlombe": 8222,
      "Ngoku": 8223,
      "ĠWayekhala": 8224,
      "Ġelifanayo": 8225,
      "qandisi": 8226,
      "Ġkuyisicefe": 8227,
      "Ġbathukuthele": 8228,
      "Ġnezinduku": 8229,
      "Izi": 8230,
      "Ġewu": 8231,
      "Ġiyunifomu": 8232,
      "phenya": 8233,
      "Ġngidlale": 8234,
      "phamba": 8235,
      "ĠInkosana": 8236,
      "Ġkunoma": 8237,
      "Ġkuphuma": 8238,
      "Ġenjengale": 8239,
      "lungisiwe": 8240,
      "gxi": 8241,
      "bambeke": 8242,
      "Ġkwawo": 8243,
      "Ġelishisayo": 8244,
      "Ġemdlalweni": 8245,
      "Ġinoboya": 8246,
      "Ġuqala": 8247,
      "Ġwayekhathazeke": 8248,
      "Ġkwebhokisi": 8249,
      "sunduzela": 8250,
      "Ġelula": 8251,
      "Ġisuka": 8252,
      "sazi": 8253,
      "Ġlokuqala": 8254,
      "Ġukuyisebenzisa": 8255,
      "nakele": 8256,
      "celery": 8257,
      "Ġedonsa": 8258,
      "Ġwaso": 8259,
      "Ġbalandela": 8260,
      "ntshe": 8261,
      "Ġizizwa": 8262,
      "Ġamahlombe": 8263,
      "Ġnejusi": 8264,
      "ĠUmthakathi": 8265,
      "wile": 8266,
      "ĠWabuyisela": 8267,
      "Ġsahamba": 8268,
      "Ġwayengakukholelwa": 8269,
      "Ġimizwa": 8270,
      "Ġakuqaphele": 8271,
      "Ġavuke": 8272,
      "Ġukuklabalasa": 8273,
      "Ġunom": 8274,
      "Ġyawo": 8275,
      "Ġngokukhethekile": 8276,
      "Ġsawela": 8277,
      "chel": 8278,
      "Ġila": 8279,
      "Ġashaye": 8280,
      "Ġasebenzise": 8281,
      "ĠUnikeza": 8282,
      "dayimane": 8283,
      "Ġlawela": 8284,
      "khahlo": 8285,
      "ĠIjuba": 8286,
      "Ġyayincane": 8287,
      "Ġngani": 8288,
      "Ġyaphakamisa": 8289,
      "Ġyayingakwazi": 8290,
      "Ġyayingeyona": 8291,
      "Ġangali": 8292,
      "ĠSasifuna": 8293,
      "ĠUBella": 8294,
      "Ġuthuli": 8295,
      "thinti": 8296,
      "Ġwandizela": 8297,
      "safuni": 8298,
      "Ġbephethe": 8299,
      "Ġzam": 8300,
      "Ġbabeyo": 8301,
      "Ġelalise": 8302,
      "pie": 8303,
      "bizayo": 8304,
      "Ġkungokwami": 8305,
      "enyu": 8306,
      "Ġesiyi": 8307,
      "Ġesinoboya": 8308,
      "Ġizitimela": 8309,
      "wina": 8310,
      "thembeka": 8311,
      "ĠUToby": 8312,
      "Ilanga": 8313,
      "ggy": 8314,
      "Ġehlanza": 8315,
      "Ġwawo": 8316,
      "Ġwafinyelela": 8317,
      "Ġbaphawula": 8318,
      "Ġlashaya": 8319,
      "Ġowake": 8320,
      "mop": 8321,
      "ĠNabo": 8322,
      "nqobile": 8323,
      "senkingeni": 8324,
      "Ġushi": 8325,
      "qaphi": 8326,
      "Ġlibukeka": 8327,
      "ĠBabenamathoyizi": 8328,
      "qabule": 8329,
      "sense": 8330,
      "ĠWakhuphuka": 8331,
      "Ġkusabisa": 8332,
      "Ġumyalezo": 8333,
      "Ġizibalo": 8334,
      "ziwe": 8335,
      "Ġelinen": 8336,
      "Ġwambheka": 8337,
      "ĠBabejabula": 8338,
      "Ġemunweni": 8339,
      "Ġukuluma": 8340,
      "Ġumpompi": 8341,
      "catch": 8342,
      "Ġamtshele": 8343,
      "Hhayi": 8344,
      "Ġebeka": 8345,
      "Ġwaqoqa": 8346,
      "Ġayisi": 8347,
      "khulumi": 8348,
      "ntsho": 8349,
      "Ġoluningi": 8350,
      "Ġsingaya": 8351,
      "Ġebizwa": 8352,
      "Ġbakhulume": 8353,
      "jamu": 8354,
      "Ġemasimini": 8355,
      "Ungathanda": 8356,
      "Ġukuqabula": 8357,
      "Ġkubaluleke": 8358,
      "Ġesiqhingini": 8359,
      "Ġomi": 8360,
      "Ġbayobona": 8361,
      "ĠURex": 8362,
      "Ġqotho": 8363,
      "londolo": 8364,
      "Ġdolphin": 8365,
      "Ġukuvala": 8366,
      "Ġumhlengikazi": 8367,
      "Ġnokuthula": 8368,
      "vet": 8369,
      "Ġwayivula": 8370,
      "ĠAkakwazi": 8371,
      "Ġikhasi": 8372,
      "Ġinemibala": 8373,
      "ĠWaqoqa": 8374,
      "Ġngicabanga": 8375,
      "ngcwa": 8376,
      "Ġukuligcina": 8377,
      "Ġngaleli": 8378,
      "Ġkwakuyindawo": 8379,
      "Ġebhayisi": 8380,
      "Angifuni": 8381,
      "cre": 8382,
      "enwe": 8383,
      "ĠnoMama": 8384,
      "Ġeliwolintshi": 8385,
      "hlangenwe": 8386,
      "Ġwawum": 8387,
      "Ġbamnika": 8388,
      "ĠNgingadlala": 8389,
      "Ġngomu": 8390,
      "Ġukweba": 8391,
      "Ġesitofini": 8392,
      "ĠWayengenandaba": 8393,
      "Ġbemomotheka": 8394,
      "Siyakuthanda": 8395,
      "Ġiyeke": 8396,
      "Ġkuthelevishini": 8397,
      "ĠUJa": 8398,
      "Ġolunga": 8399,
      "xox": 8400,
      "zodingeka": 8401,
      "llo": 8402,
      "Ġukuqonda": 8403,
      "Ġngingayi": 8404,
      "kulufa": 8405,
      "mvale": 8406,
      "nakekeli": 8407,
      "ĠuTweety": 8408,
      "ĠUPete": 8409,
      "lethele": 8410,
      "ĠUzi": 8411,
      "ĠBahlanganisa": 8412,
      "Ġyayingazi": 8413,
      "Ġubumnyama": 8414,
      "danso": 8415,
      "Ġwayeseqala": 8416,
      "Ġzokudla": 8417,
      "mnyango": 8418,
      "!'": 8419,
      "Ġoye": 8420,
      "Ġbegxuma": 8421,
      "Ġababi": 8422,
      "ĠKuzwakala": 8423,
      "kuthandayo": 8424,
      "Ġimishini": 8425,
      "Ġakakaze": 8426,
      "Ġigceke": 8427,
      "Ġibhethri": 8428,
      "Ġafinyelele": 8429,
      "Ġwayesize": 8430,
      "Ġyaphenduka": 8431,
      "Ġezinyaweni": 8432,
      "woyela": 8433,
      "nokudla": 8434,
      "linganisela": 8435,
      "pini": 8436,
      "Ġephenduka": 8437,
      "Ġizama": 8438,
      "Ġesiningi": 8439,
      "shayele": 8440,
      "khanye": 8441,
      "ĠNgidinga": 8442,
      "nywa": 8443,
      "bhukude": 8444,
      "ĠsikaTom": 8445,
      "Ġusofa": 8446,
      "Ġwacindezela": 8447,
      "phusheni": 8448,
      "Ġamane": 8449,
      "ĠAwuyena": 8450,
      "bekezela": 8451,
      "Ġunxantathu": 8452,
      "busa": 8453,
      "Ġlagcwala": 8454,
      "Ġomlingo": 8455,
      "Ġwemi": 8456,
      "sukwini": 8457,
      "Ġngalolu": 8458,
      "Ġnesihawu": 8459,
      "kaniphe": 8460,
      "Ġezakho": 8461,
      "ĠBabegijima": 8462,
      "cky": 8463,
      "Ġnesikhafu": 8464,
      "dakeni": 8465,
      "!\"\"\"": 8466,
      "Ġyayiyinhle": 8467,
      "Ġkwakubukeka": 8468,
      "ĠAmanye": 8469,
      "teve": 8470,
      "rib": 8471,
      "Ġematasa": 8472,
      "thunzini": 8473,
      "Ġukolweni": 8474,
      "achel": 8475,
      "Ġaqiniseke": 8476,
      "ĠkuMax": 8477,
      "Ġumthengisi": 8478,
      "nesithukuthezi": 8479,
      "Ġyokuyi": 8480,
      "Ġsasisi": 8481,
      "minerali": 8482,
      "UJack": 8483,
      "Ġzona": 8484,
      "lebula": 8485,
      "Ġithelevishini": 8486,
      "Ġbeyi": 8487,
      "Ġokunempilo": 8488,
      "namaphiko": 8489,
      "Ġzesihlabathi": 8490,
      "Ġukukala": 8491,
      "hlansi": 8492,
      "ĠUTweety": 8493,
      "Ġukukhonkotha": 8494,
      "ĠNina": 8495,
      "Ġifudumele": 8496,
      "bonge": 8497,
      "Ġesiphuzi": 8498,
      "Ġesikhathini": 8499,
      "phayinaphu": 8500,
      "Ġeliphukile": 8501,
      "ĠInyoka": 8502,
      "ĠuRose": 8503,
      "Ġisitebele": 8504,
      "ox": 8505,
      "yisithulu": 8506,
      "mpuphu": 8507,
      "ĠUngakwenza": 8508,
      "con": 8509,
      "zaneni": 8510,
      "Ġukuqeda": 8511,
      "Ġukugoqa": 8512,
      "Ġngim": 8513,
      "Ġumcimi": 8514,
      "ĠWayesebenza": 8515,
      "Ġbehlanganyela": 8516,
      "Ġzazin": 8517,
      "paste": 8518,
      "ĠBayam": 8519,
      "dolobha": 8520,
      "one": 8521,
      "spi": 8522,
      "Ġukugijimela": 8523,
      "buthe": 8524,
      "ĠWavuka": 8525,
      "Ġbadansa": 8526,
      "Ġsihlanganyele": 8527,
      "Ġngebhokisi": 8528,
      "ĠWayemncane": 8529,
      "Wam": 8530,
      "ometer": 8531,
      "Ġodakeni": 8532,
      "ĠBathembisa": 8533,
      "ĠSekuyisikhathi": 8534,
      "Ġisokisi": 8535,
      "lasi": 8536,
      "Ġafudumele": 8537,
      "Ġwamchazela": 8538,
      "Ġngilapha": 8539,
      "Ġayengayi": 8540,
      "Ġukumthola": 8541,
      "xazulule": 8542,
      "Ġngephepha": 8543,
      "koqobo": 8544,
      "ĠNgilapha": 8545,
      "Ġukushintsha": 8546,
      "ĠULu": 8547,
      "Ġyayingena": 8548,
      "ndongeni": 8549,
      "rainbow": 8550,
      "Ġngesitimela": 8551,
      "rmometer": 8552,
      "thikithi": 8553,
      "Ġwayeyithanda": 8554,
      "Ġofudumele": 8555,
      "Ġizingozi": 8556,
      "lungiswa": 8557,
      "Kusho": 8558,
      "rink": 8559,
      "rue": 8560,
      "lika": 8561,
      "thermometer": 8562,
      "Ġayezulazula": 8563,
      "Ġesihlathini": 8564,
      "Ġawo": 8565,
      "Ġumphathi": 8566,
      "Ġukulivula": 8567,
      "Ġibhasikidi": 8568,
      "ĠlinguJoe": 8569,
      "UMia": 8570,
      "Ġubheka": 8571,
      "Ġephonsa": 8572,
      "ĠUhlakaniphile": 8573,
      "ngula": 8574,
      "Ġngeposi": 8575,
      "Ġngensimbi": 8576,
      "Ġkomcamelo": 8577,
      "Ġmoto": 8578,
      "Ġlazama": 8579,
      "phakamisela": 8580,
      "ĠWayengahlosile": 8581,
      "Ġbaqaphela": 8582,
      "Ġabakwazi": 8583,
      "Ġomhlophe": 8584,
      "Ġenkomishini": 8585,
      "Ġangakhathazeki": 8586,
      "hlanganyeli": 8587,
      "Ġigcwele": 8588,
      "Ġkuphephile": 8589,
      "Ġinhlanhla": 8590,
      "vumeli": 8591,
      "Ġwababona": 8592,
      "ĠYayivela": 8593,
      "Ġngamapensela": 8594,
      "Ġbangayi": 8595,
      "Ġimakrofoni": 8596,
      "wundlu": 8597,
      "tholakali": 8598,
      "Ġayedlala": 8599,
      "tembu": 8600,
      "Ġwayithola": 8601,
      "Ġnenduku": 8602,
      "holidini": 8603,
      "ona": 8604,
      "Ġchibi": 8605,
      "Ġusebenzise": 8606,
      "lesi": 8607,
      "Ġwanikeza": 8608,
      "Ġahlukahlukene": 8609,
      "Ġisinqumo": 8610,
      "hluko": 8611,
      "Ġimvelo": 8612,
      "philayo": 8613,
      "ĠUmakhelwane": 8614,
      "mvalelisa": 8615,
      "yenziwe": 8616,
      "Ġngombala": 8617,
      "Ġlesilo": 8618,
      "phuthumayo": 8619,
      "ncenga": 8620,
      "likithi": 8621,
      "Ġagibele": 8622,
      "Ġokokuqala": 8623,
      "Ġezintathu": 8624,
      "Ġomnene": 8625,
      "Ġkuleli": 8626,
      "yanyeka": 8627,
      "napkin": 8628,
      "dlovukazi": 8629,
      "Ġakhanyayo": 8630,
      "ndandatho": 8631,
      "Ġkukho": 8632,
      "Ġemthunzini": 8633,
      "Ġnezindaba": 8634,
      "Ġwaphula": 8635,
      "phathelene": 8636,
      "Ġwamthengela": 8637,
      "Ġkwakunokuthile": 8638,
      "Ġbayaba": 8639,
      "ĠBanezi": 8640,
      "Ġukunambitha": 8641,
      "phuke": 8642,
      "qhosha": 8643,
      "Ġlezo": 8644,
      "mbozwe": 8645,
      "linganiso": 8646,
      "hweni": 8647,
      "legi": 8648,
      "Ġwayengumngane": 8649,
      "khawu": 8650,
      "memo": 8651,
      "Ġemnyuziyamu": 8652,
      "enzelwe": 8653,
      "ngakulimaza": 8654,
      "Ġwakubona": 8655,
      "ĠUNkk": 8656,
      "hanger": 8657,
      "Ġefisa": 8658,
      "Ġimomotheka": 8659,
      "Ġukubukeka": 8660,
      "Ġbezisola": 8661,
      "ĠNgibuyisele": 8662,
      "Ġwayiyisa": 8663,
      "parrot": 8664,
      "Mmm": 8665,
      "Ndlovukazi": 8666,
      "kungu": 8667,
      "Ġwanezela": 8668,
      "Ġnanini": 8669,
      "Ġizindebe": 8670,
      "methemba": 8671,
      "ĠBanom": 8672,
      "Ġngonyawo": 8673,
      "Ġukuhlekisa": 8674,
      "Ġeliyindilinga": 8675,
      "ater": 8676,
      "oom": 8677,
      "ĠUfaka": 8678,
      "Ġbayom": 8679,
      "ncanyana": 8680,
      "Ġngesipuni": 8681,
      "Ġlomlingo": 8682,
      "Ġemagatsheni": 8683,
      "Ġikhona": 8684,
      "ĠWayendiza": 8685,
      "Ġamabhayisikili": 8686,
      "Ġwamenza": 8687,
      "vesi": 8688,
      "Ġobuluhlaza": 8689,
      "ĠEsitolo": 8690,
      "ĠnoBaba": 8691,
      "Ġesimnyama": 8692,
      "kwehla": 8693,
      "khathaza": 8694,
      "ĠUyakhala": 8695,
      "rown": 8696,
      "nyamazane": 8697,
      "Ġleyonto": 8698,
      "khukhamba": 8699,
      "Ġukuwela": 8700,
      "hlazo": 8701,
      "Ġezitebhisini": 8702,
      "ĠULola": 8703,
      "Ġisitofu": 8704,
      "Ġzahamba": 8705,
      "Ġnamaphepha": 8706,
      "ĠYayiphakeme": 8707,
      "nomqondo": 8708,
      "Ġushingamu": 8709,
[...]
